{
  "<unk>": 0,
  "<s>": 1,
  "</s>": 2,
  "\"\"": 3,
  "▁e": 4,
  "\"\"\"": 5,
  "er": 6,
  "in": 7,
  "um": 8,
  "it": 9,
  "us": 10,
  "▁s": 11,
  "is": 12,
  "▁et": 13,
  "qu": 14,
  "▁a": 15,
  "nt": 16,
  "▁\"\"\"": 17,
  "▁p": 18,
  "▁in": 19,
  "at": 20,
  "▁c": 21,
  "▁d": 22,
  "es": 23,
  "em": 24,
  "▁m": 25,
  "on": 26,
  ".\"\"\"": 27,
  "am": 28,
  "or": 29,
  "▁t": 30,
  "▁qu": 31,
  "▁:": 32,
  "▁v": 33,
  "om": 34,
  "▁f": 35,
  "li": 36,
  "os": 37,
  "▁n": 38,
  "re": 39,
  "en": 40,
  "ut": 41,
  "ic": 42,
  "im": 43,
  "▁su": 44,
  "ra": 45,
  "▁D": 46,
  "et": 47,
  "ent": 48,
  "ur": 49,
  "ul": 50,
  "st": 51,
  "ab": 52,
  "an": 53,
  "ec": 54,
  "ib": 55,
  "omin": 56,
  "id": 57,
  "▁h": 58,
  "as": 59,
  "que": 60,
  "unt": 61,
  "▁ad": 62,
  "ac": 63,
  "il": 64,
  "▁est": 65,
  "▁pr": 66,
  "ar": 67,
  "▁me": 68,
  "▁re": 69,
  "ia": 70,
  "ud": 71,
  "oc": 72,
  "un": 73,
  "▁Domin": 74,
  "ili": 75,
  "per": 76,
  "▁de": 77,
  "▁l": 78,
  "jus": 79,
  "ti": 80,
  "▁J": 81,
  "▁tu": 82,
  "al": 83,
  "Et": 84,
  "av": 85,
  "orum": 86,
  "erunt": 87,
  "▁non": 88,
  "ol": 89,
  "ant": 90,
  "ibus": 91,
  "od": 92,
  "▁aut": 93,
  "▁qui": 94,
  "▁di": 95,
  "ed": 96,
  "op": 97,
  "omn": 98,
  "ir": 99,
  "▁ejus": 100,
  "eb": 101,
  "▁autem": 102,
  "▁fili": 103,
  "▁omn": 104,
  "ob": 105,
  "▁ex": 106,
  "ter": 107,
  "gn": 108,
  "ip": 109,
  "ens": 110,
  "iam": 111,
  "▁con": 112,
  "el": 113,
  "▁il": 114,
  "▁ut": 115,
  "▁S": 116,
  "▁De": 117,
  "▁A": 118,
  "▁er": 119,
  "ati": 120,
  "▁g": 121,
  "▁per": 122,
  "ta": 123,
  "iv": 124,
  "est": 125,
  "▁:\"\"\"": 126,
  "▁cum": 127,
  "▁ter": 128,
  "▁fac": 129,
  "▁I": 130,
  "▁super": 131,
  "▁dic": 132,
  "▁ill": 133,
  "go": 134,
  "nim": 135,
  "▁Dominus": 136,
  "▁quæ": 137,
  "Qu": 138,
  "di": 139,
  "▁sunt": 140,
  "uc": 141,
  "▁?": 142,
  "ep": 143,
  "▁;": 144,
  "ri": 145,
  "itat": 146,
  "▁eum": 147,
  "▁b": 148,
  "res": 149,
  "æc": 150,
  "▁Is": 151,
  "end": 152,
  "▁man": 153,
  "▁co": 154,
  "▁j": 155,
  "ere": 156,
  "tum": 157,
  "xit": 158,
  "ort": 159,
  ",\"\"\"": 160,
  "ël": 161,
  "ost": 162,
  "iss": 163,
  "ium": 164,
  "▁Isra": 165,
  "▁un": 166,
  "cc": 167,
  "▁M": 168,
  "▁Israël": 169,
  "uit": 170,
  "▁hab": 171,
  "▁quod": 172,
  "▁ab": 173,
  "fic": 174,
  "ot": 175,
  "are": 176,
  "ist": 177,
  "erit": 178,
  "avit": 179,
  "ap": 180,
  "ers": 181,
  "▁reg": 182,
  "▁E": 183,
  "▁cor": 184,
  "▁enim": 185,
  "entes": 186,
  "ation": 187,
  "▁C": 188,
  "▁P": 189,
  "▁te": 190,
  "ibi": 191,
  "obis": 192,
  "▁eos": 193,
  "▁ver": 194,
  "▁vir": 195,
  "▁pop": 196,
  "▁ven": 197,
  "▁quia": 198,
  "▁dom": 199,
  "▁ser": 200,
  "ips": 201,
  "hi": 202,
  "▁pro": 203,
  "und": 204,
  "▁Domini": 205,
  "ro": 206,
  "unc": 207,
  "▁terr": 208,
  "▁Deus": 209,
  "ad": 210,
  "▁vest": 211,
  "▁N": 212,
  "▁sic": 213,
  "▁eorum": 214,
  "ux": 215,
  "▁sc": 216,
  "▁cont": 217,
  "▁vid": 218,
  "▁an": 219,
  "▁B": 220,
  "rat": 221,
  "abit": 222,
  "ult": 223,
  "▁es": 224,
  "▁im": 225,
  "▁cons": 226,
  "▁sed": 227,
  "▁o": 228,
  "uli": 229,
  "▁ei": 230,
  "▁ne": 231,
  "ris": 232,
  "ub": 233,
  "ite": 234,
  "ion": 235,
  "▁popul": 236,
  "▁?\"\"\"": 237,
  "▁ips": 238,
  "▁san": 239,
  "▁com": 240,
  "▁faci": 241,
  "▁ma": 242,
  "▁fu": 243,
  "▁oc": 244,
  "emp": 245,
  "tus": 246,
  "▁mi": 247,
  "▁præ": 248,
  "▁H": 249,
  "usque": 250,
  "git": 251,
  "▁Jud": 252,
  "▁pl": 253,
  "▁prop": 254,
  "etur": 255,
  "▁vobis": 256,
  "▁eis": 257,
  "▁loc": 258,
  "▁fec": 259,
  "▁ar": 260,
  "ari": 261,
  "atur": 262,
  "ient": 263,
  "arum": 264,
  "eris": 265,
  "▁aud": 266,
  "▁pat": 267,
  "▁i": 268,
  "rum": 269,
  "le": 270,
  "▁omnes": 271,
  "dit": 272,
  "▁Dei": 273,
  "▁tra": 274,
  "▁si": 275,
  "▁st": 276,
  "▁inter": 277,
  "▁vos": 278,
  "cip": 279,
  "▁filii": 280,
  "▁quo": 281,
  "▁se": 282,
  "▁sum": 283,
  "▁æ": 284,
  "▁sicut": 285,
  "▁ego": 286,
  "atus": 287,
  "▁Jer": 288,
  "vit": 289,
  "▁Qu": 290,
  "▁ergo": 291,
  "▁tibi": 292,
  "▁eo": 293,
  "ine": 294,
  "▁terra": 295,
  "▁mihi": 296,
  "itud": 297,
  "▁sp": 298,
  "imus": 299,
  "ore": 300,
  "▁nost": 301,
  "isti": 302,
  "▁li": 303,
  "▁pec": 304,
  "gin": 305,
  "▁pos": 306,
  "ita": 307,
  "▁sac": 308,
  "▁serv": 309,
  "▁mis": 310,
  "▁ob": 311,
  "▁illi": 312,
  "iæ": 313,
  "▁r": 314,
  "▁des": 315,
  "erat": 316,
  "io": 317,
  "sc": 318,
  "ess": 319,
  "▁temp": 320,
  "ust": 321,
  "▁nos": 322,
  "cit": 323,
  "▁am": 324,
  "▁usque": 325,
  "▁ait": 326,
  "de": 327,
  "▁dixit": 328,
  "▁civ": 329,
  "ff": 330,
  "▁res": 331,
  "▁Domino": 332,
  "ert": 333,
  "vers": 334,
  "ect": 335,
  "▁al": 336,
  "avid": 337,
  "▁erat": 338,
  "▁terram": 339,
  "▁voc": 340,
  "▁quid": 341,
  "▁int": 342,
  "ven": 343,
  "▁homin": 344,
  "cce": 345,
  "▁David": 346,
  "▁quas": 347,
  "oniam": 348,
  "▁gl": 349,
  "gre": 350,
  "quam": 351,
  "▁sep": 352,
  "pon": 353,
  "▁G": 354,
  "ast": 355,
  "▁rex": 356,
  "▁tr": 357,
  "▁eam": 358,
  "▁verb": 359,
  "▁ann": 360,
  "▁ali": 361,
  "ores": 362,
  "▁cæ": 363,
  "ns": 364,
  "irc": 365,
  "ing": 366,
  "▁frat": 367,
  "ov": 368,
  "umque": 369,
  "ias": 370,
  "▁anim": 371,
  "▁ap": 372,
  "▁le": 373,
  "▁quam": 374,
  "▁die": 375,
  "ata": 376,
  "▁par": 377,
  "▁sanc": 378,
  "▁erit": 379,
  "▁ess": 380,
  "▁jus": 381,
  "▁sub": 382,
  "▁or": 383,
  "averunt": 384,
  "▁mal": 385,
  "ebat": 386,
  "▁dicit": 387,
  "ebant": 388,
  "▁Jes": 389,
  "eret": 390,
  "ell": 391,
  "ern": 392,
  "itatem": 393,
  "▁nec": 394,
  "udic": 395,
  "▁tua": 396,
  "▁pecc": 397,
  "▁hæc": 398,
  "▁Ch": 399,
  "rant": 400,
  "▁du": 401,
  "▁acc": 402,
  "▁oper": 403,
  "▁contra": 404,
  "alem": 405,
  "▁Mo": 406,
  "ivers": 407,
  "▁magn": 408,
  "▁filius": 409,
  "ate": 410,
  "▁prin": 411,
  "ui": 412,
  "▁mea": 413,
  "ha": 414,
  "▁cap": 415,
  "▁univers": 416,
  "ont": 417,
  "▁sec": 418,
  "atis": 419,
  "▁judic": 420,
  "and": 421,
  "ys": 422,
  "isset": 423,
  "▁T": 424,
  "▁conf": 425,
  "lic": 426,
  "▁dis": 427,
  "erd": 428,
  "inem": 429,
  "▁sol": 430,
  "▁omnia": 431,
  "▁suum": 432,
  "yp": 433,
  "▁imp": 434,
  "▁R": 435,
  "atum": 436,
  "▁dicens": 437,
  "urb": 438,
  "▁Et": 439,
  "▁suis": 440,
  "aud": 441,
  "orem": 442,
  "ans": 443,
  "▁sacerd": 444,
  "▁tuum": 445,
  "▁quasi": 446,
  "▁mult": 447,
  "▁regn": 448,
  "▁mort": 449,
  "▁præc": 450,
  "▁hoc": 451,
  "▁L": 452,
  "ress": 453,
  "to": 454,
  "ath": 455,
  "oqu": 456,
  "abo": 457,
  "ini": 458,
  "usalem": 459,
  "▁Æ": 460,
  "ura": 461,
  "▁meum": 462,
  "▁Jerusalem": 463,
  "▁dix": 464,
  "entum": 465,
  "iet": 466,
  "ulum": 467,
  "ig": 468,
  "▁Ab": 469,
  "▁quoque": 470,
  "▁at": 471,
  "▁tui": 472,
  "▁quoniam": 473,
  "▁suam": 474,
  "▁ign": 475,
  "entur": 476,
  "lam": 477,
  "▁dec": 478,
  "▁sim": 479,
  "▁post": 480,
  "In": 481,
  "ixit": 482,
  "▁sal": 483,
  "▁mil": 484,
  "▁manu": 485,
  "ire": 486,
  "mon": 487,
  "▁princip": 488,
  "itus": 489,
  "▁suo": 490,
  "▁occ": 491,
  "▁erant": 492,
  "▁poss": 493,
  "gyp": 494,
  "▁op": 495,
  "▁pot": 496,
  "▁gen": 497,
  "▁sem": 498,
  "int": 499,
  "▁sua": 500,
  "duc": 501,
  "utus": 502,
  "▁car": 503,
  "▁Moys": 504,
  "▁trans": 505,
  "ch": 506,
  "ord": 507,
  "gress": 508,
  "▁circ": 509,
  "▁Ægyp": 510,
  "▁aqu": 511,
  "tis": 512,
  "▁ant": 513,
  "abunt": 514,
  "ginta": 515,
  "het": 516,
  "▁pu": 517,
  "▁vol": 518,
  "esc": 519,
  "▁coram": 520,
  "▁lib": 521,
  "ius": 522,
  "▁quem": 523,
  "rem": 524,
  "▁habit": 525,
  "lia": 526,
  "▁ita": 527,
  "▁regis": 528,
  "ationem": 529,
  "itate": 530,
  "dio": 531,
  "▁nobis": 532,
  "ge": 533,
  "▁terræ": 534,
  "▁Juda": 535,
  "sum": 536,
  "▁ipse": 537,
  "▁exer": 538,
  "lum": 539,
  "▁sept": 540,
  "▁domum": 541,
  "▁illis": 542,
  "onis": 543,
  "imo": 544,
  "scend": 545,
  "uerunt": 546,
  "inis": 547,
  "te": 548,
  "enti": 549,
  "▁rec": 550,
  "itis": 551,
  "▁V": 552,
  "itum": 553,
  "▁neque": 554,
  "ag": 555,
  "quid": 556,
  "▁Dominum": 557,
  "▁app": 558,
  "▁Am": 559,
  "▁ac": 560,
  "qui": 561,
  "vert": 562,
  "▁Deo": 563,
  "▁exercit": 564,
  "▁O": 565,
  "▁mont": 566,
  "omen": 567,
  "▁pa": 568,
  "Fili": 569,
  "ivit": 570,
  "▁omnis": 571,
  "▁Ph": 572,
  "undum": 573,
  "▁ante": 574,
  "dic": 575,
  "edic": 576,
  "▁col": 577,
  "▁loqu": 578,
  "gu": 579,
  "▁prophet": 580,
  "▁inc": 581,
  "▁mei": 582,
  "odi": 583,
  "ulos": 584,
  "▁fort": 585,
  "ph": 586,
  "ori": 587,
  "uxta": 588,
  "▁Domine": 589,
  "▁ea": 590,
  "▁nomen": 591,
  "iter": 592,
  "entem": 593,
  "antes": 594,
  "▁Jo": 595,
  "iqu": 596,
  "▁trib": 597,
  "▁port": 598,
  "▁tuam": 599,
  "Qui": 600,
  "ulis": 601,
  "▁domus": 602,
  "istis": 603,
  "▁respon": 604,
  "abitur": 605,
  "▁fecit": 606,
  "▁mens": 607,
  "▁sit": 608,
  "▁meam": 609,
  "▁scr": 610,
  "▁tim": 611,
  "▁Deum": 612,
  "▁juxta": 613,
  "▁ben": 614,
  "▁for": 615,
  "erant": 616,
  "ebus": 617,
  "▁tab": 618,
  "▁bon": 619,
  "▁meus": 620,
  "▁quin": 621,
  "▁omnibus": 622,
  "▁filiis": 623,
  "atio": 624,
  "idit": 625,
  "onem": 626,
  "abant": 627,
  "▁cogn": 628,
  "erent": 629,
  "ne": 630,
  "eth": 631,
  "▁propter": 632,
  "▁inv": 633,
  "▁miser": 634,
  "▁as": 635,
  "▁cunc": 636,
  "anc": 637,
  "etis": 638,
  "▁Judæ": 639,
  "▁tuo": 640,
  "▁ascend": 641,
  "▁imm": 642,
  "▁ag": 643,
  "▁perc": 644,
  "sit": 645,
  "ujus": 646,
  "Dixit": 647,
  "▁advers": 648,
  "aul": 649,
  "▁aur": 650,
  "▁vero": 651,
  "▁manus": 652,
  "ass": 653,
  "ram": 654,
  "pect": 655,
  "up": 656,
  "tit": 657,
  "▁comed": 658,
  "▁regem": 659,
  "▁tuus": 660,
  "rab": 661,
  "▁populus": 662,
  "iens": 663,
  "▁mul": 664,
  "▁diebus": 665,
  "▁filios": 666,
  "uum": 667,
  "▁iniqu": 668,
  "issim": 669,
  "ionem": 670,
  "▁locutus": 671,
  "▁nomin": 672,
  "aris": 673,
  "▁dies": 674,
  "▁spir": 675,
  "▁domin": 676,
  "aus": 677,
  "▁Jos": 678,
  "Si": 679,
  "▁inven": 680,
  "dific": 681,
  "tific": 682,
  "▁ux": 683,
  "▁cre": 684,
  "fec": 685,
  "▁quis": 686,
  "enta": 687,
  "▁ibi": 688,
  "▁populum": 689,
  "avi": 690,
  "▁inf": 691,
  "lo": 692,
  "▁id": 693,
  "emus": 694,
  "▁os": 695,
  "▁omni": 696,
  "itt": 697,
  "▁cust": 698,
  "▁ecce": 699,
  "▁illum": 700,
  "ebit": 701,
  "▁viv": 702,
  "iat": 703,
  "itu": 704,
  "▁As": 705,
  "▁esset": 706,
  "ex": 707,
  "ras": 708,
  "▁meo": 709,
  "▁illius": 710,
  "▁dim": 711,
  "▁medio": 712,
  "ernac": 713,
  "▁conc": 714,
  "itatis": 715,
  "▁atque": 716,
  "▁sui": 717,
  "▁au": 718,
  "▁pac": 719,
  "▁vi": 720,
  "▁amb": 721,
  "ræ": 722,
  "▁sap": 723,
  "▁leg": 724,
  "uper": 725,
  "oris": 726,
  "▁comp": 727,
  "epit": 728,
  "▁test": 729,
  "▁verbum": 730,
  "▁Jesus": 731,
  "rop": 732,
  "▁fam": 733,
  "▁fid": 734,
  "▁omnem": 735,
  "▁ædific": 736,
  "▁tabernac": 737,
  "abat": 738,
  "entibus": 739,
  "oli": 740,
  "▁pon": 741,
  "▁domo": 742,
  "ationes": 743,
  "itas": 744,
  "▁sacerdot": 745,
  "ali": 746,
  "atu": 747,
  "▁gla": 748,
  "▁sangu": 749,
  "ierunt": 750,
  "▁viri": 751,
  "▁vit": 752,
  "▁muli": 753,
  "▁Non": 754,
  "▁secundum": 755,
  "ina": 756,
  "liqu": 757,
  "greg": 758,
  "▁venit": 759,
  "ii": 760,
  "oll": 761,
  "▁filium": 762,
  "▁num": 763,
  "gredi": 764,
  "▁glor": 765,
  "Non": 766,
  "▁red": 767,
  "▁ang": 768,
  "▁ist": 769,
  "▁illa": 770,
  "▁trad": 771,
  "eri": 772,
  "atione": 773,
  "▁millia": 774,
  "▁filiorum": 775,
  "▁ext": 776,
  "erint": 777,
  "▁sermon": 778,
  "▁Ægypti": 779,
  "erum": 780,
  "tare": 781,
  "entis": 782,
  "▁ille": 783,
  "omo": 784,
  "ente": 785,
  "▁exc": 786,
  "▁rep": 787,
  "▁fl": 788,
  "isit": 789,
  "▁unus": 790,
  "▁vin": 791,
  "▁comm": 792,
  "ific": 793,
  "ua": 794,
  "ula": 795,
  "Cumque": 796,
  "ug": 797,
  "antur": 798,
  "hæ": 799,
  "▁nov": 800,
  "mn": 801,
  "▁vel": 802,
  "imon": 803,
  "▁Sal": 804,
  "ero": 805,
  "▁duc": 806,
  "▁don": 807,
  "▁ir": 808,
  "▁faciem": 809,
  "lig": 810,
  "▁populo": 811,
  "aret": 812,
  "▁fuerit": 813,
  "▁Saul": 814,
  "▁potest": 815,
  "ach": 816,
  "pectu": 817,
  "ruc": 818,
  "▁his": 819,
  "▁nunc": 820,
  "▁fratres": 821,
  "gitur": 822,
  "itudinem": 823,
  "ulit": 824,
  "ribus": 825,
  "▁sus": 826,
  "issent": 827,
  "▁ambul": 828,
  "eper": 829,
  "▁ins": 830,
  "▁principes": 831,
  "▁tuæ": 832,
  "eph": 833,
  "▁quibus": 834,
  "▁cast": 835,
  "ora": 836,
  "eli": 837,
  "odo": 838,
  "rent": 839,
  "▁ten": 840,
  "▁ves": 841,
  "▁pan": 842,
  "▁off": 843,
  "▁misit": 844,
  "▁simil": 845,
  "▁conspectu": 846,
  "▁desc": 847,
  "iis": 848,
  "yl": 849,
  "era": 850,
  "isc": 851,
  "▁fuit": 852,
  "tern": 853,
  "▁verba": 854,
  "▁populi": 855,
  "ulo": 856,
  "irm": 857,
  "ecim": 858,
  "▁percus": 859,
  "ana": 860,
  "ando": 861,
  "imic": 862,
  "▁lap": 863,
  "▁Sam": 864,
  "▁arg": 865,
  "▁homo": 866,
  "▁salv": 867,
  "erv": 868,
  "▁clam": 869,
  "▁inimic": 870,
  "si": 871,
  "rec": 872,
  "oribus": 873,
  "▁tempore": 874,
  "▁qua": 875,
  "ecum": 876,
  "▁min": 877,
  "▁noc": 878,
  "▁urb": 879,
  "▁val": 880,
  "asc": 881,
  "rist": 882,
  "▁tuis": 883,
  "▁quos": 884,
  "iit": 885,
  "▁exp": 886,
  "▁vic": 887,
  "endit": 888,
  "▁miseric": 889,
  "▁dedit": 890,
  "▁septem": 891,
  "dam": 892,
  "acob": 893,
  "ies": 894,
  "isi": 895,
  "rav": 896,
  "ientes": 897,
  "▁ped": 898,
  "▁sibi": 899,
  "▁mortu": 900,
  "▁dixerunt": 901,
  "▁sing": 902,
  "▁Jacob": 903,
  "lin": 904,
  "iant": 905,
  "▁mulier": 906,
  "▁Le": 907,
  "▁peccat": 908,
  "▁const": 909,
  "▁sanct": 910,
  "▁justit": 911,
  "eo": 912,
  "▁esse": 913,
  "▁suæ": 914,
  "▁mand": 915,
  "▁illud": 916,
  "▁cœ": 917,
  "amus": 918,
  "▁tam": 919,
  "rog": 920,
  "cum": 921,
  "abis": 922,
  "aron": 923,
  "▁congreg": 924,
  "▁mat": 925,
  "entium": 926,
  "sa": 927,
  "▁suos": 928,
  "▁lat": 929,
  "▁suas": 930,
  "▁cub": 931,
  "▁;\"\"\"": 932,
  "▁part": 933,
  "▁manum": 934,
  "ationis": 935,
  "gressus": 936,
  "▁ub": 937,
  "▁lign": 938,
  "De": 939,
  "ill": 940,
  "ru": 941,
  "idi": 942,
  "▁cl": 943,
  "ento": 944,
  "▁alter": 945,
  "urg": 946,
  "▁sex": 947,
  "▁Z": 948,
  "▁discip": 949,
  "ran": 950,
  "▁sapient": 951,
  "ma": 952,
  "Hæc": 953,
  "▁doc": 954,
  "▁lab": 955,
  "▁Moyses": 956,
  "min": 957,
  "pic": 958,
  "▁hum": 959,
  "▁hominis": 960,
  "▁th": 961,
  "▁Bab": 962,
  "▁fug": 963,
  "▁rem": 964,
  "itudine": 965,
  "▁unum": 966,
  "▁Babyl": 967,
  "tere": 968,
  "▁Ecce": 969,
  "itates": 970,
  "Con": 971,
  "▁mun": 972,
  "▁illo": 973,
  "▁factum": 974,
  "ione": 975,
  "eruntque": 976,
  "▁ele": 977,
  "▁lapid": 978,
  "na": 979,
  "oth": 980,
  "▁po": 981,
  "tium": 982,
  "▁cur": 983,
  "arent": 984,
  "▁Jesu": 985,
  "▁erunt": 986,
  "Dixitque": 987,
  "ham": 988,
  "itudo": 989,
  "▁viam": 990,
  "▁prim": 991,
  "▁fœ": 992,
  "▁aff": 993,
  "▁sæc": 994,
  "▁turb": 995,
  "▁ætern": 996,
  "ros": 997,
  "se": 998,
  "▁bib": 999,
  "▁diem": 1000,
  "one": 1001,
  "▁occid": 1002,
  "▁Aaron": 1003,
  "▁itaque": 1004,
  "▁civitatem": 1005,
  "fer": 1006,
  "orm": 1007,
  "sec": 1008,
  "▁nol": 1009,
  "oloc": 1010,
  "▁illos": 1011,
  "▁malum": 1012,
  "ron": 1013,
  "▁Fili": 1014,
  "▁loco": 1015,
  "▁dil": 1016,
  "▁quad": 1017,
  "▁nostri": 1018,
  "▁ded": 1019,
  "▁Chris": 1020,
  "Sed": 1021,
  "▁sur": 1022,
  "umquid": 1023,
  "▁anima": 1024,
  "iti": 1025,
  "▁arc": 1026,
  "▁corde": 1027,
  "▁custod": 1028,
  "▁donec": 1029,
  "▁quinque": 1030,
  "bus": 1031,
  "rac": 1032,
  "▁ipsi": 1033,
  "▁cunctis": 1034,
  "▁dicentes": 1035,
  "ih": 1036,
  "quis": 1037,
  "▁luc": 1038,
  "▁mor": 1039,
  "omodo": 1040,
  "yri": 1041,
  "ginti": 1042,
  "▁vocem": 1043,
  "pp": 1044,
  "tio": 1045,
  "itur": 1046,
  "▁estis": 1047,
  "ver": 1048,
  "ilia": 1049,
  "▁sen": 1050,
  "▁omne": 1051,
  "▁magna": 1052,
  "▁testimon": 1053,
  "ulus": 1054,
  "▁Pat": 1055,
  "▁sign": 1056,
  "▁etiam": 1057,
  "▁animam": 1058,
  "▁gentes": 1059,
  "▁quidem": 1060,
  "▁misericord": 1061,
  "▁Beth": 1062,
  "▁vestra": 1063,
  "espon": 1064,
  "▁apud": 1065,
  "▁nomine": 1066,
  "▁benedic": 1067,
  "▁respond": 1068,
  "az": 1069,
  "uxit": 1070,
  "▁ult": 1071,
  "rific": 1072,
  "uv": 1073,
  "sal": 1074,
  "▁cal": 1075,
  "▁nunt": 1076,
  "▁cogit": 1077,
  "Cum": 1078,
  "aph": 1079,
  "▁læ": 1080,
  "▁div": 1081,
  "▁reliqu": 1082,
  "ret": 1083,
  "amin": 1084,
  "▁holoc": 1085,
  "▁patris": 1086,
  "cep": 1087,
  "▁fur": 1088,
  "▁hic": 1089,
  "▁carn": 1090,
  "tionem": 1091,
  "▁multi": 1092,
  "reh": 1093,
  "orro": 1094,
  "eritis": 1095,
  "tam": 1096,
  "▁mur": 1097,
  "▁mund": 1098,
  "▁angel": 1099,
  "▁circum": 1100,
  "▁exercituum": 1101,
  "Fac": 1102,
  "atem": 1103,
  "▁hæ": 1104,
  "aria": 1105,
  "tut": 1106,
  "▁eff": 1107,
  "▁dili": 1108,
  "▁viginti": 1109,
  "ue": 1110,
  "ihil": 1111,
  "otum": 1112,
  "▁pul": 1113,
  "▁Phil": 1114,
  "eg": 1115,
  "eat": 1116,
  "ebunt": 1117,
  "ix": 1118,
  "jec": 1119,
  "▁Salom": 1120,
  "▁simul": 1121,
  "▁virtut": 1122,
  "huc": 1123,
  "▁lon": 1124,
  "▁circuit": 1125,
  "▁sacrific": 1126,
  "▁Ben": 1127,
  "▁vas": 1128,
  "▁cred": 1129,
  "▁exs": 1130,
  "Omn": 1131,
  "▁Jon": 1132,
  "ala": 1133,
  "▁gladi": 1134,
  "▁ost": 1135,
  "▁quatu": 1136,
  "▁Philist": 1137,
  "▁Hæc": 1138,
  "▁opp": 1139,
  "▁locum": 1140,
  "▁Christ": 1141,
  "mo": 1142,
  "▁ador": 1143,
  "lis": 1144,
  "qua": 1145,
  "▁Ad": 1146,
  "▁facie": 1147,
  "▁præcep": 1148,
  "▁universa": 1149,
  "▁ubi": 1150,
  "▁laud": 1151,
  "▁alt": 1152,
  "▁mag": 1153,
  "▁via": 1154,
  "▁aper": 1155,
  "▁sanctific": 1156,
  "▁pugn": 1157,
  "ete": 1158,
  "jic": 1159,
  "asti": 1160,
  "▁caput": 1161,
  "▁servi": 1162,
  "▁Qui": 1163,
  "▁cec": 1164,
  "▁stat": 1165,
  "▁poter": 1166,
  "sque": 1167,
  "▁audi": 1168,
  "▁regnum": 1169,
  "ilis": 1170,
  "At": 1171,
  "rin": 1172,
  "rit": 1173,
  "ilium": 1174,
  "▁Quid": 1175,
  "▁plag": 1176,
  "Quod": 1177,
  "hara": 1178,
  "▁hujus": 1179,
  "▁genuit": 1180,
  "uti": 1181,
  "plic": 1182,
  "▁Levit": 1183,
  "▁ultra": 1184,
  "▁dex": 1185,
  "entia": 1186,
  "▁respondit": 1187,
  "▁habitat": 1188,
  "ile": 1189,
  "▁bell": 1190,
  "▁scrip": 1191,
  "▁faciam": 1192,
  "▁venerunt": 1193,
  "▁cælo": 1194,
  "▁consum": 1195,
  "▁igitur": 1196,
  "▁Eli": 1197,
  "▁vis": 1198,
  "▁cæli": 1199,
  "▁factus": 1200,
  "▁fer": 1201,
  "▁plac": 1202,
  "▁tuos": 1203,
  "▁alien": 1204,
  "▁liber": 1205,
  "▁judicium": 1206,
  "▁is": 1207,
  "▁hodi": 1208,
  "▁descend": 1209,
  "▁mori": 1210,
  "▁gener": 1211,
  "abb": 1212,
  "▁absc": 1213,
  "▁od": 1214,
  "▁pet": 1215,
  "▁salut": 1216,
  "abuntur": 1217,
  "▁quatuor": 1218,
  "imis": 1219,
  "▁mer": 1220,
  "▁tri": 1221,
  "▁intro": 1222,
  "▁nihil": 1223,
  "▁vestris": 1224,
  "umb": 1225,
  "▁mare": 1226,
  "▁altare": 1227,
  "▁disper": 1228,
  "▁holocaus": 1229,
  "▁U": 1230,
  "▁In": 1231,
  "Respon": 1232,
  "▁decem": 1233,
  "ym": 1234,
  "▁Eph": 1235,
  "▁grat": 1236,
  "▁spiritus": 1237,
  "hem": 1238,
  "▁obt": 1239,
  "▁meis": 1240,
  "▁sacerdotes": 1241,
  "ito": 1242,
  "▁pater": 1243,
  "▁el": 1244,
  "uerit": 1245,
  "ara": 1246,
  "pir": 1247,
  "▁Si": 1248,
  "▁ov": 1249,
  "▁nisi": 1250,
  "▁sumus": 1251,
  "rip": 1252,
  "iones": 1253,
  "▁amic": 1254,
  "▁intel": 1255,
  "red": 1256,
  "Prop": 1257,
  "▁ind": 1258,
  "ionis": 1259,
  "▁proc": 1260,
  "▁præp": 1261,
  "▁hanc": 1262,
  "ani": 1263,
  "Tunc": 1264,
  "esti": 1265,
  "▁habet": 1266,
  "Ex": 1267,
  "▁accip": 1268,
  "▁annis": 1269,
  "▁hodie": 1270,
  "▁vestim": 1271,
  "ei": 1272,
  "lium": 1273,
  "▁meæ": 1274,
  "Filii": 1275,
  "▁fruc": 1276,
  "▁!": 1277,
  "▁equ": 1278,
  "▁ignis": 1279,
  "▁opera": 1280,
  "æi": 1281,
  "dem": 1282,
  "gen": 1283,
  "▁dol": 1284,
  "▁fœd": 1285,
  "▁pal": 1286,
  "endum": 1287,
  "▁mitt": 1288,
  "ech": 1289,
  "inqu": 1290,
  "▁duo": 1291,
  "▁ol": 1292,
  "▁plen": 1293,
  "vi": 1294,
  "▁aure": 1295,
  "▁corp": 1296,
  "entiam": 1297,
  "▁revert": 1298,
  "▁adversus": 1299,
  "uel": 1300,
  "▁Isa": 1301,
  "▁mem": 1302,
  "▁ore": 1303,
  "▁regi": 1304,
  "averit": 1305,
  "eretur": 1306,
  "▁facta": 1307,
  "▁viros": 1308,
  "▁revers": 1309,
  "inc": 1310,
  "enter": 1311,
  "▁cujus": 1312,
  "▁Moysen": 1313,
  "les": 1314,
  "▁hos": 1315,
  "▁cord": 1316,
  "▁dabo": 1317,
  "▁abscon": 1318,
  "▁ed": 1319,
  "▁dep": 1320,
  "▁Sanc": 1321,
  "▁Phara": 1322,
  "▁interfic": 1323,
  "ima": 1324,
  "erem": 1325,
  "▁lac": 1326,
  "▁vad": 1327,
  "rexit": 1328,
  "▁excel": 1329,
  "▁volunt": 1330,
  "▁Christi": 1331,
  "ive": 1332,
  "▁Ach": 1333,
  "untur": 1334,
  "▁tempus": 1335,
  "rus": 1336,
  "ceps": 1337,
  "▁egredi": 1338,
  "▁opus": 1339,
  "▁nocte": 1340,
  "aur": 1341,
  "▁ul": 1342,
  "▁ret": 1343,
  "▁Abra": 1344,
  "▁omnium": 1345,
  "▁fi": 1346,
  "gressi": 1347,
  "▁pauper": 1348,
  "▁quando": 1349,
  "▁civitates": 1350,
  "▁Ass": 1351,
  "rorum": 1352,
  "▁præs": 1353,
  "▁bonum": 1354,
  "▁Jonath": 1355,
  "▁æternum": 1356,
  "▁gaud": 1357,
  "▁hominum": 1358,
  "▁possess": 1359,
  "ivi": 1360,
  "Ecce": 1361,
  "▁mortuus": 1362,
  "▁Th": 1363,
  "▁em": 1364,
  "▁duod": 1365,
  "▁adhuc": 1366,
  "▁scrib": 1367,
  "▁centum": 1368,
  "ationibus": 1369,
  "ox": 1370,
  "▁ra": 1371,
  "Quia": 1372,
  "▁dorm": 1373,
  "Ad": 1374,
  "rex": 1375,
  "icut": 1376,
  "iderunt": 1377,
  "▁ari": 1378,
  "▁arm": 1379,
  "▁Spir": 1380,
  "▁dilig": 1381,
  "▁adversum": 1382,
  "▁sabb": 1383,
  "▁sine": 1384,
  "▁succ": 1385,
  "ingu": 1386,
  "ites": 1387,
  "antum": 1388,
  "imini": 1389,
  "▁primo": 1390,
  "sed": 1391,
  "▁constit": 1392,
  "▁civitate": 1393,
  "▁deb": 1394,
  "andum": 1395,
  "ordan": 1396,
  "▁anno": 1397,
  "▁mane": 1398,
  "▁tribus": 1399,
  "ios": 1400,
  "uram": 1401,
  "▁Ego": 1402,
  "▁Jordan": 1403,
  "icem": 1404,
  "rob": 1405,
  "amini": 1406,
  "▁indi": 1407,
  "▁tent": 1408,
  "▁facere": 1409,
  "▁oculos": 1410,
  "ota": 1411,
  "▁ev": 1412,
  "imum": 1413,
  "▁sup": 1414,
  "▁vul": 1415,
  "▁tres": 1416,
  "▁scient": 1417,
  "if": 1418,
  "alt": 1419,
  "▁maj": 1420,
  "icum": 1421,
  "▁cad": 1422,
  "iorum": 1423,
  "▁iter": 1424,
  "▁veni": 1425,
  "▁sermo": 1426,
  "▁gloria": 1427,
  "▁cubit": 1428,
  "▁tecum": 1429,
  "▁absque": 1430,
  "▁quomodo": 1431,
  "▁obl": 1432,
  "cumque": 1433,
  "▁teneb": 1434,
  "▁vidit": 1435,
  "▁uxorem": 1436,
  "▁duodecim": 1437,
  "▁Ba": 1438,
  "▁jam": 1439,
  "▁deser": 1440,
  "▁Babylonis": 1441,
  "▁(": 1442,
  "reg": 1443,
  "▁facies": 1444,
  "▁oculis": 1445,
  "▁vestri": 1446,
  "▁percussit": 1447,
  "Dic": 1448,
  "dum": 1449,
  "▁cam": 1450,
  "▁nul": 1451,
  "▁legem": 1452,
  "▁Joseph": 1453,
  "▁gladio": 1454,
  "Ego": 1455,
  "▁add": 1456,
  "▁una": 1457,
  "quisque": 1458,
  "▁regnavit": 1459,
  "uch": 1460,
  "▁dico": 1461,
  "▁minist": 1462,
  "▁orient": 1463,
  "▁sanguinem": 1464,
  "raim": 1465,
  "▁ingredi": 1466,
  "▁vestrum": 1467,
  "▁hi": 1468,
  "▁eas": 1469,
  "▁tribu": 1470,
  "ulerunt": 1471,
  "▁Man": 1472,
  "▁det": 1473,
  "ulorum": 1474,
  "▁noster": 1475,
  "▁interfec": 1476,
  "▁præcepit": 1477,
  "ez": 1478,
  "Fec": 1479,
  "ider": 1480,
  "▁tur": 1481,
  "empit": 1482,
  "▁disc": 1483,
  "▁diss": 1484,
  "▁sempit": 1485,
  "▁suorum": 1486,
  "▁gentibus": 1487,
  "▁sempitern": 1488,
  "non": 1489,
  "rib": 1490,
  "▁Ma": 1491,
  "lius": 1492,
  "▁conv": 1493,
  "▁redd": 1494,
  "▁glori": 1495,
  "ann": 1496,
  "▁adj": 1497,
  "▁hon": 1498,
  "▁tor": 1499,
  "▁meos": 1500,
  "▁sive": 1501,
  "▁Josue": 1502,
  "▁magis": 1503,
  "▁virum": 1504,
  "▁posuit": 1505,
  "▁exercitus": 1506,
  "tim": 1507,
  "▁sin": 1508,
  "itque": 1509,
  "▁Abraham": 1510,
  "▁custodi": 1511,
  "▁fecerunt": 1512,
  "Ven": 1513,
  "▁duos": 1514,
  "▁montem": 1515,
  "eum": 1516,
  "▁agn": 1517,
  "▁abiit": 1518,
  "▁reges": 1519,
  "▁castra": 1520,
  "▁partem": 1521,
  "▁princeps": 1522,
  "▁Nab": 1523,
  "▁Sion": 1524,
  "▁fund": 1525,
  "▁peccato": 1526,
  "rans": 1527,
  "▁cœp": 1528,
  "▁inde": 1529,
  "▁parv": 1530,
  "ebatur": 1531,
  "▁Jesum": 1532,
  "▁forte": 1533,
  "▁mecum": 1534,
  "▁monte": 1535,
  "▁multa": 1536,
  "▁possid": 1537,
  "lus": 1538,
  "rig": 1539,
  "pere": 1540,
  "Porro": 1541,
  "▁manduc": 1542,
  "▁Ephraim": 1543,
  "ator": 1544,
  "▁nem": 1545,
  "▁sor": 1546,
  "▁desert": 1547,
  "▁tribul": 1548,
  "▁hominem": 1549,
  "▁dev": 1550,
  "▁cant": 1551,
  "▁prov": 1552,
  "▁stet": 1553,
  "▁vocavit": 1554,
  "▁sacerdos": 1555,
  "rim": 1556,
  "▁ju": 1557,
  "rium": 1558,
  "▁capti": 1559,
  "▁cælum": 1560,
  "la": 1561,
  "▁dux": 1562,
  "▁tuas": 1563,
  "▁aquil": 1564,
  "▁nostra": 1565,
  "▁Ægypto": 1566,
  "▁manibus": 1567,
  "▁interrog": 1568,
  "▁triginta": 1569,
  "▁unusquisque": 1570,
  "▁ch": 1571,
  "jamin": 1572,
  "▁ariet": 1573,
  "▁requi": 1574,
  "itudinis": 1575,
  "▁convert": 1576,
  "hib": 1577,
  "let": 1578,
  "▁dixi": 1579,
  "▁patres": 1580,
  "▁quadra": 1581,
  "▁templum": 1582,
  "▁iniquitatem": 1583,
  "ric": 1584,
  "tur": 1585,
  "uta": 1586,
  "queb": 1587,
  "▁rev": 1588,
  "Domin": 1589,
  "antem": 1590,
  "atores": 1591,
  "▁Moysi": 1592,
  "ebantur": 1593,
  "▁percuss": 1594,
  "arii": 1595,
  "▁ignor": 1596,
  "▁intra": 1597,
  "▁offer": 1598,
  "▁famili": 1599,
  "▁patrem": 1600,
  "▁quidam": 1601,
  "nic": 1602,
  "inam": 1603,
  "▁amp": 1604,
  "▁ira": 1605,
  "▁nub": 1606,
  "ccles": 1607,
  "▁sper": 1608,
  "▁vitæ": 1609,
  "▁annunt": 1610,
  "▁servus": 1611,
  "▁Salomon": 1612,
  "▁Benjamin": 1613,
  "ea": 1614,
  "quia": 1615,
  "▁bene": 1616,
  "▁greg": 1617,
  "▁pert": 1618,
  "▁sust": 1619,
  "▁vasa": 1620,
  "▁exaud": 1621,
  "▁immol": 1622,
  "▁secund": 1623,
  "▁tuorum": 1624,
  "▁gloriam": 1625,
  "▁nostrum": 1626,
  "▁tamquam": 1627,
  "umn": 1628,
  "▁toll": 1629,
  "▁faciet": 1630,
  "▁infirm": 1631,
  "▁sanctu": 1632,
  "ebo": 1633,
  "ulas": 1634,
  "ursum": 1635,
  "▁mala": 1636,
  "▁prox": 1637,
  "▁assum": 1638,
  "▁imper": 1639,
  "▁patrum": 1640,
  "▁vester": 1641,
  "▁gentium": 1642,
  "▁civitatis": 1643,
  "▁fratribus": 1644,
  "ai": 1645,
  "▁ph": 1646,
  "▁aquæ": 1647,
  "▁vide": 1648,
  "▁supra": 1649,
  "circ": 1650,
  "▁Quia": 1651,
  "▁Jerem": 1652,
  "Numquid": 1653,
  "▁termin": 1654,
  "▁testimonium": 1655,
  "Aud": 1656,
  "ffic": 1657,
  "▁fin": 1658,
  "▁hac": 1659,
  "abatur": 1660,
  "▁valde": 1661,
  "▁adol": 1662,
  "▁gran": 1663,
  "rehend": 1664,
  "▁pedes": 1665,
  "▁semper": 1666,
  "itatibus": 1667,
  "▁homines": 1668,
  "▁maledic": 1669,
  "och": 1670,
  "itia": 1671,
  "▁cæl": 1672,
  "▁Moab": 1673,
  "▁accep": 1674,
  "▁ostend": 1675,
  "▁egressus": 1676,
  "aba": 1677,
  "lex": 1678,
  "oam": 1679,
  "alaad": 1680,
  "circo": 1681,
  "▁caus": 1682,
  "▁plur": 1683,
  "▁poll": 1684,
  "▁vine": 1685,
  "▁appar": 1686,
  "▁intellig": 1687,
  "rep": 1688,
  "▁vidi": 1689,
  "▁filia": 1690,
  "▁illam": 1691,
  "▁invoc": 1692,
  "▁captiv": 1693,
  "▁multiplic": 1694,
  "▁misericordiam": 1695,
  "atæ": 1696,
  "osc": 1697,
  "▁mend": 1698,
  "▁earum": 1699,
  "▁tantum": 1700,
  "▁Christo": 1701,
  "▁patribus": 1702,
  "Re": 1703,
  "Post": 1704,
  "▁rob": 1705,
  "▁adduc": 1706,
  "▁semen": 1707,
  "▁Galaad": 1708,
  "▁nostris": 1709,
  "▁præceper": 1710,
  "anan": 1711,
  "gred": 1712,
  "▁Pet": 1713,
  "▁pati": 1714,
  "▁Ez": 1715,
  "ebis": 1716,
  "inum": 1717,
  "uisti": 1718,
  "▁idol": 1719,
  "▁devor": 1720,
  "▁mensis": 1721,
  "▁circuitu": 1722,
  "▁justitiam": 1723,
  "▁quadraginta": 1724,
  "▁F": 1725,
  "ang": 1726,
  "▁ep": 1727,
  "▁pre": 1728,
  "etips": 1729,
  "tione": 1730,
  "▁tunc": 1731,
  "▁perse": 1732,
  "▁frater": 1733,
  "▁habitatores": 1734,
  "orr": 1735,
  "Nunc": 1736,
  "hiim": 1737,
  "▁put": 1738,
  "issimi": 1739,
  "verunt": 1740,
  "▁aufer": 1741,
  "▁dexter": 1742,
  "quaginta": 1743,
  "▁holocaustum": 1744,
  "▁Sem": 1745,
  "▁att": 1746,
  "▁mod": 1747,
  "▁obs": 1748,
  "antibus": 1749,
  "▁Manass": 1750,
  "▁convers": 1751,
  "▁hominibus": 1752,
  "ræc": 1753,
  "unic": 1754,
  "▁Heb": 1755,
  "▁pur": 1756,
  "oboam": 1757,
  "▁flum": 1758,
  "▁finem": 1759,
  "▁maris": 1760,
  "▁nimis": 1761,
  "▁Samuel": 1762,
  "▁indign": 1763,
  "▁ascendit": 1764,
  "▁tabernaculum": 1765,
  "inæ": 1766,
  "essit": 1767,
  "ultus": 1768,
  "▁Joab": 1769,
  "▁filio": 1770,
  "▁fuerat": 1771,
  "▁percut": 1772,
  "▁habebat": 1773,
  "erb": 1774,
  "▁Az": 1775,
  "iret": 1776,
  "▁del": 1777,
  "▁vent": 1778,
  "▁panem": 1779,
  "▁eccles": 1780,
  "▁superb": 1781,
  "ons": 1782,
  "▁inn": 1783,
  "▁por": 1784,
  "▁filiæ": 1785,
  "▁peccatum": 1786,
  "▁Philisthiim": 1787,
  "▁quinquaginta": 1788,
  "Ab": 1789,
  "fac": 1790,
  "las": 1791,
  "liv": 1792,
  "alis": 1793,
  "endi": 1794,
  "ovit": 1795,
  "▁octo": 1796,
  "▁besti": 1797,
  "tu": 1798,
  "œn": 1799,
  "itiam": 1800,
  "▁dedi": 1801,
  "▁iste": 1802,
  "▁jura": 1803,
  "▁aquam": 1804,
  "Quoniam": 1805,
  "▁Assyri": 1806,
  "▁immund": 1807,
  "▁nolite": 1808,
  "▁prædic": 1809,
  "emn": 1810,
  "▁cib": 1811,
  "▁præv": 1812,
  "▁suscit": 1813,
  "▁angelus": 1814,
  "▁fecisti": 1815,
  "▁Sic": 1816,
  "▁cet": 1817,
  "▁cui": 1818,
  "irent": 1819,
  "▁ipso": 1820,
  "▁somn": 1821,
  "▁Judas": 1822,
  "▁cognov": 1823,
  "▁respic": 1824,
  "Vid": 1825,
  "▁lev": 1826,
  "emini": 1827,
  "ietis": 1828,
  "▁bona": 1829,
  "▁inst": 1830,
  "▁sequ": 1831,
  "▁vinc": 1832,
  "▁judicia": 1833,
  "▁aqua": 1834,
  "▁inqu": 1835,
  "▁voce": 1836,
  "▁hæred": 1837,
  "▁indic": 1838,
  "▁fornic": 1839,
  "▁iterum": 1840,
  "▁sermones": 1841,
  "▁universis": 1842,
  "▁tabernaculi": 1843,
  "Ip": 1844,
  "▁Ne": 1845,
  "ange": 1846,
  "eres": 1847,
  "▁Joann": 1848,
  "▁arcam": 1849,
  "erentur": 1850,
  "▁deserto": 1851,
  "eas": 1852,
  "onum": 1853,
  "▁elev": 1854,
  "▁dabit": 1855,
  "▁divit": 1856,
  "ga": 1857,
  "tæ": 1858,
  "ato": 1859,
  "tor": 1860,
  "▁abomin": 1861,
  "▁fuerant": 1862,
  "▁primogen": 1863,
  "▁consilium": 1864,
  "▁misericordia": 1865,
  "osol": 1866,
  "rati": 1867,
  "ulam": 1868,
  "▁anc": 1869,
  "▁nav": 1870,
  "▁dest": 1871,
  "▁sint": 1872,
  "▁humili": 1873,
  "▁postquam": 1874,
  "Quæ": 1875,
  "hel": 1876,
  "iles": 1877,
  "ique": 1878,
  "▁mit": 1879,
  "▁tot": 1880,
  "arium": 1881,
  "terea": 1882,
  "▁dere": 1883,
  "▁nesc": 1884,
  "▁prof": 1885,
  "▁templo": 1886,
  "▁Numquid": 1887,
  "▁Jordanem": 1888,
  "▁sempiternum": 1889,
  "Tu": 1890,
  "æus": 1891,
  "▁eg": 1892,
  "▁uno": 1893,
  "▁lege": 1894,
  "avimus": 1895,
  "▁delic": 1896,
  "▁minis": 1897,
  "▁minister": 1898,
  "▁cubitorum": 1899,
  "▁præceperat": 1900,
  "ner": 1901,
  "▁At": 1902,
  "ring": 1903,
  "utum": 1904,
  "▁jum": 1905,
  "▁dign": 1906,
  "▁hunc": 1907,
  "▁Pater": 1908,
  "▁dices": 1909,
  "▁numer": 1910,
  "▁oculi": 1911,
  "avitque": 1912,
  "icumque": 1913,
  "▁consol": 1914,
  "▁nostro": 1915,
  "▁sanguine": 1916,
  "▁Ar": 1917,
  "▁bov": 1918,
  "▁def": 1919,
  "▁soc": 1920,
  "▁vig": 1921,
  "ectus": 1922,
  "▁merc": 1923,
  "▁perm": 1924,
  "▁exalt": 1925,
  "▁fratrem": 1926,
  "▁gladium": 1927,
  "▁gratiam": 1928,
  "▁spiritum": 1929,
  "▁tradidit": 1930,
  "▁sacerdotum": 1931,
  "Quis": 1932,
  "ibit": 1933,
  "▁summ": 1934,
  "antium": 1935,
  "▁fuerint": 1936,
  "▁propheta": 1937,
  "Ne": 1938,
  "eh": 1939,
  "so": 1940,
  "▁dum": 1941,
  "▁rog": 1942,
  "▁tet": 1943,
  "▁rege": 1944,
  "tionis": 1945,
  "▁abund": 1946,
  "▁aquas": 1947,
  "▁vinum": 1948,
  "abantur": 1949,
  "▁statim": 1950,
  "▁hor": 1951,
  "osuit": 1952,
  "▁camp": 1953,
  "▁nemo": 1954,
  "▁dimitt": 1955,
  "▁fœderis": 1956,
  "▁invicem": 1957,
  "▁peccata": 1958,
  "▁ingressus": 1959,
  "nam": 1960,
  "edit": 1961,
  "athan": 1962,
  "▁puer": 1963,
  "▁vobiscum": 1964,
  "sus": 1965,
  "Quid": 1966,
  "itiæ": 1967,
  "iunt": 1968,
  "olite": 1969,
  "▁Ammon": 1970,
  "▁prius": 1971,
  "▁regni": 1972,
  "▁habens": 1973,
  "▁amplius": 1974,
  "▁mandata": 1975,
  "▁pacific": 1976,
  "Ben": 1977,
  "orsum": 1978,
  "tamen": 1979,
  "▁peper": 1980,
  "Respond": 1981,
  "▁Filius": 1982,
  "▁dierum": 1983,
  "▁templi": 1984,
  "▁consurg": 1985,
  "▁vestras": 1986,
  "▁Jonathas": 1987,
  "▁singulos": 1988,
  "Loc": 1989,
  "anis": 1990,
  "▁Omn": 1991,
  "▁mut": 1992,
  "esaur": 1993,
  "▁pasc": 1994,
  "▁seni": 1995,
  "▁aurum": 1996,
  "▁pecun": 1997,
  "▁regum": 1998,
  "▁numquid": 1999,
  "▁spiritu": 2000,
  "▁An": 2001,
  "▁aux": 2002,
  "▁læt": 2003,
  "▁pœn": 2004,
  "▁soli": 2005,
  "▁vast": 2006,
  "▁ipsum": 2007,
  "▁parte": 2008,
  "▁exsult": 2009,
  "▁argente": 2010,
  "Respondit": 2011,
  "▁sapientia": 2012,
  "▁vestimenta": 2013,
  "oë": 2014,
  "rad": 2015,
  "reb": 2016,
  "abor": 2017,
  "osor": 2018,
  "▁Sim": 2019,
  "▁auro": 2020,
  "▁ipsa": 2021,
  "▁prob": 2022,
  "▁spec": 2023,
  "▁multis": 2024,
  "pe": 2025,
  "ade": 2026,
  "æum": 2027,
  "▁Sed": 2028,
  "▁Ven": 2029,
  "▁prom": 2030,
  "▁revel": 2031,
  "▁mendac": 2032,
  "▁fuerunt": 2033,
  "St": 2034,
  "eam": 2035,
  "rod": 2036,
  "▁av": 2037,
  "▁jac": 2038,
  "asset": 2039,
  "▁form": 2040,
  "▁impl": 2041,
  "▁ista": 2042,
  "▁pari": 2043,
  "▁vita": 2044,
  "Igitur": 2045,
  "▁Isaac": 2046,
  "▁facti": 2047,
  "▁nonne": 2048,
  "▁thesaur": 2049,
  "▁ero": 2050,
  "ectum": 2051,
  "▁past": 2052,
  "▁quar": 2053,
  "▁mille": 2054,
  "▁record": 2055,
  "▁signum": 2056,
  "▁civitas": 2057,
  "▁virorum": 2058,
  "▁Christus": 2059,
  "▁sanctorum": 2060,
  "▁multitudinem": 2061,
  "cis": 2062,
  "antia": 2063,
  "iebat": 2064,
  "▁firm": 2065,
  "▁prud": 2066,
  "aretur": 2067,
  "▁domos": 2068,
  "▁extra": 2069,
  "▁legis": 2070,
  "▁portæ": 2071,
  "▁deprec": 2072,
  "▁magnific": 2073,
  "▁sermonem": 2074,
  "▁abscondit": 2075,
  "▁sa": 2076,
  "▁cel": 2077,
  "▁nar": 2078,
  "▁host": 2079,
  "▁pros": 2080,
  "▁memor": 2081,
  "▁cognosc": 2082,
  "▁illorum": 2083,
  "▁circuitum": 2084,
  "bi": 2085,
  "Nam": 2086,
  "jun": 2087,
  "uet": 2088,
  "echi": 2089,
  "obus": 2090,
  "▁Rub": 2091,
  "▁met": 2092,
  "▁tal": 2093,
  "▁Quis": 2094,
  "▁fest": 2095,
  "▁ignem": 2096,
  "▁visit": 2097,
  "▁præter": 2098,
  "▁Judæorum": 2099,
  "▁justific": 2100,
  "itæ": 2101,
  "ria": 2102,
  "▁Ant": 2103,
  "Sicut": 2104,
  "▁hora": 2105,
  "Factum": 2106,
  "uxerunt": 2107,
  "▁declin": 2108,
  "▁necess": 2109,
  "▁ostium": 2110,
  "▁servum": 2111,
  "▁sustin": 2112,
  "▁annorum": 2113,
  "▁Ægyptum": 2114,
  "▁respondens": 2115,
  "odon": 2116,
  "▁Con": 2117,
  "▁ord": 2118,
  "▁cess": 2119,
  "▁deos": 2120,
  "▁perd": 2121,
  "▁quær": 2122,
  "▁aliqu": 2123,
  "▁ligna": 2124,
  "uchodon": 2125,
  "▁confus": 2126,
  "▁mortem": 2127,
  "▁Manasse": 2128,
  "uchodonosor": 2129,
  "▁Assyriorum": 2130,
  "Per": 2131,
  "▁arb": 2132,
  "▁Dani": 2133,
  "▁isti": 2134,
  "▁meas": 2135,
  "atorum": 2136,
  "▁istum": 2137,
  "▁vitam": 2138,
  "▁cordis": 2139,
  "▁dissip": 2140,
  "▁filias": 2141,
  "▁præcip": 2142,
  "▁venient": 2143,
  "▁mulieres": 2144,
  "▁quidquam": 2145,
  "▁discipuli": 2146,
  "▁ædificavit": 2147,
  "urge": 2148,
  "ravit": 2149,
  "▁corn": 2150,
  "▁dext": 2151,
  "▁prod": 2152,
  "▁prot": 2153,
  "▁animæ": 2154,
  "▁mirab": 2155,
  "▁ancill": 2156,
  "▁corpus": 2157,
  "▁uxores": 2158,
  "▁argentum": 2159,
  "▁justitia": 2160,
  "▁Nabuchodonosor": 2161,
  "▁doct": 2162,
  "▁medi": 2163,
  "▁adven": 2164,
  "▁fieri": 2165,
  "▁hosti": 2166,
  "▁mense": 2167,
  "▁unius": 2168,
  "▁magnus": 2169,
  "▁fr": 2170,
  "decim": 2171,
  "lasph": 2172,
  "▁pess": 2173,
  "issimo": 2174,
  "▁facit": 2175,
  "▁oport": 2176,
  "▁pacem": 2177,
  "▁cuncta": 2178,
  "▁servis": 2179,
  "▁multitudo": 2180,
  "uo": 2181,
  "▁lo": 2182,
  "atos": 2183,
  "elis": 2184,
  "ilem": 2185,
  "▁lum": 2186,
  "▁sil": 2187,
  "▁tub": 2188,
  "▁cruc": 2189,
  "▁feci": 2190,
  "▁oves": 2191,
  "▁tota": 2192,
  "▁vias": 2193,
  "▁Judam": 2194,
  "▁imple": 2195,
  "▁lingu": 2196,
  "▁pulch": 2197,
  "Propter": 2198,
  "ropinqu": 2199,
  "▁manuum": 2200,
  "▁sepeli": 2201,
  "▁viderunt": 2202,
  "▁constituit": 2203,
  "cet": 2204,
  "▁Sc": 2205,
  "▁ru": 2206,
  "▁Mar": 2207,
  "▁Chal": 2208,
  "▁obed": 2209,
  "ebitur": 2210,
  "▁Chana": 2211,
  "▁morte": 2212,
  "▁ponam": 2213,
  "▁tulit": 2214,
  "lasphem": 2215,
  "▁vesper": 2216,
  "▁vestræ": 2217,
  "▁Jerosol": 2218,
  "▁torrent": 2219,
  "▁operibus": 2220,
  "▁reversus": 2221,
  "▁scriptum": 2222,
  "▁potestatem": 2223,
  "▁sacrificium": 2224,
  "ebam": 2225,
  "ulch": 2226,
  "▁æst": 2227,
  "endam": 2228,
  "salom": 2229,
  "▁Amen": 2230,
  "▁uxor": 2231,
  "▁viro": 2232,
  "▁libro": 2233,
  "▁plaga": 2234,
  "▁Ezechi": 2235,
  "▁vestro": 2236,
  "▁consumm": 2237,
  "ho": 2238,
  "ie": 2239,
  "Cui": 2240,
  "eus": 2241,
  "lim": 2242,
  "▁ib": 2243,
  "aric": 2244,
  "inas": 2245,
  "▁nud": 2246,
  "libus": 2247,
  "▁Anti": 2248,
  "▁Syri": 2249,
  "▁eleg": 2250,
  "▁pisc": 2251,
  "averat": 2252,
  "▁panes": 2253,
  "▁montes": 2254,
  "▁veniet": 2255,
  "▁blasphem": 2256,
  "▁constitu": 2257,
  "An": 2258,
  "læ": 2259,
  "tos": 2260,
  "ariæ": 2261,
  "erte": 2262,
  "salm": 2263,
  "▁mac": 2264,
  "▁max": 2265,
  "▁ren": 2266,
  "Omnes": 2267,
  "ensum": 2268,
  "▁Gaba": 2269,
  "ebitis": 2270,
  "▁Quare": 2271,
  "▁compl": 2272,
  "▁quipp": 2273,
  "▁animas": 2274,
  "▁essent": 2275,
  "▁accepit": 2276,
  "▁audivit": 2277,
  "▁circumd": 2278,
  "ide": 2279,
  "iri": 2280,
  "oph": 2281,
  "tem": 2282,
  "ulc": 2283,
  "ulp": 2284,
  "ulæ": 2285,
  "ones": 2286,
  "▁Lib": 2287,
  "▁can": 2288,
  "▁rap": 2289,
  "elech": 2290,
  "orrhæ": 2291,
  "ustra": 2292,
  "▁!\"\"\"": 2293,
  "▁bened": 2294,
  "▁cœpit": 2295,
  "▁pœnit": 2296,
  "amentum": 2297,
  "utusque": 2298,
  "▁matris": 2299,
  "▁servos": 2300,
  "▁Absalom": 2301,
  "▁Chanaan": 2302,
  "▁prælium": 2303,
  "▁quæcumque": 2304,
  "ote": 2305,
  "oti": 2306,
  "Deus": 2307,
  "▁irr": 2308,
  "aphat": 2309,
  "▁vend": 2310,
  "▁patri": 2311,
  "entorum": 2312,
  "quoniam": 2313,
  "▁meridi": 2314,
  "▁adolesc": 2315,
  "▁confund": 2316,
  "▁fecerat": 2317,
  "Propterea": 2318,
  "▁Jeroboam": 2319,
  "▁desertum": 2320,
  "▁Jerosolym": 2321,
  "eon": 2322,
  "Conf": 2323,
  "æmon": 2324,
  "▁Elis": 2325,
  "▁Chald": 2326,
  "uaginta": 2327,
  "▁confid": 2328,
  "▁plagam": 2329,
  "▁portam": 2330,
  "raverunt": 2331,
  "▁similiter": 2332,
  "▁principibus": 2333,
  "pet": 2334,
  "▁Ap": 2335,
  "abus": 2336,
  "▁scel": 2337,
  "▁vult": 2338,
  "aberis": 2339,
  "aginta": 2340,
  "▁longe": 2341,
  "▁consec": 2342,
  "▁cecidit": 2343,
  "▁conturb": 2344,
  "▁sanctum": 2345,
  "▁scripta": 2346,
  "▁multitudine": 2347,
  "Un": 2348,
  "Int": 2349,
  "men": 2350,
  "▁bap": 2351,
  "▁nego": 2352,
  "abitis": 2353,
  "eribus": 2354,
  "▁circa": 2355,
  "▁grati": 2356,
  "▁manif": 2357,
  "▁solus": 2358,
  "▁justus": 2359,
  "▁dominus": 2360,
  "▁præcepta": 2361,
  "▁septuaginta": 2362,
  "▁hy": 2363,
  "rach": 2364,
  "▁ger": 2365,
  "▁pav": 2366,
  "▁Gali": 2367,
  "▁Paul": 2368,
  "▁calc": 2369,
  "▁perg": 2370,
  "▁alius": 2371,
  "▁exter": 2372,
  "▁obsec": 2373,
  "▁occur": 2374,
  "ionibus": 2375,
  "issimum": 2376,
  "▁conven": 2377,
  "▁solemn": 2378,
  "quebatur": 2379,
  "▁fecerit": 2380,
  "▁habentes": 2381,
  "Sc": 2382,
  "Dix": 2383,
  "haz": 2384,
  "ith": 2385,
  "▁Ex": 2386,
  "▁on": 2387,
  "▁mov": 2388,
  "▁pax": 2389,
  "▁vox": 2390,
  "▁coll": 2391,
  "▁mali": 2392,
  "▁mari": 2393,
  "▁pereg": 2394,
  "▁Petrus": 2395,
  "▁inveni": 2396,
  "▁mortis": 2397,
  "▁scrips": 2398,
  "▁audisset": 2399,
  "▁prophetæ": 2400,
  "▁prævaric": 2401,
  "▁venisset": 2402,
  "▁descendit": 2403,
  "og": 2404,
  "Pro": 2405,
  "ecc": 2406,
  "erim": 2407,
  "eunt": 2408,
  "▁bas": 2409,
  "▁dem": 2410,
  "ircum": 2411,
  "licit": 2412,
  "▁abst": 2413,
  "▁carc": 2414,
  "▁educ": 2415,
  "perunt": 2416,
  "▁fidem": 2417,
  "▁column": 2418,
  "▁magnum": 2419,
  "▁nuntia": 2420,
  "ejun": 2421,
  "fect": 2422,
  "▁van": 2423,
  "entiæ": 2424,
  "linqu": 2425,
  "torum": 2426,
  "▁anni": 2427,
  "▁igni": 2428,
  "▁Simon": 2429,
  "▁dæmon": 2430,
  "▁thron": 2431,
  "▁turba": 2432,
  "Benedic": 2433,
  "Dominus": 2434,
  "▁Daniel": 2435,
  "▁pharis": 2436,
  "▁portas": 2437,
  "▁sepulch": 2438,
  "▁Spiritus": 2439,
  "▁peccatis": 2440,
  "▁universæ": 2441,
  "▁audierunt": 2442,
  "ola": 2443,
  "sti": 2444,
  "tas": 2445,
  "▁ca": 2446,
  "eram": 2447,
  "itio": 2448,
  "▁pen": 2449,
  "Misit": 2450,
  "gitud": 2451,
  "æorum": 2452,
  "▁ejic": 2453,
  "▁eris": 2454,
  "▁pass": 2455,
  "▁aliud": 2456,
  "▁lætit": 2457,
  "▁mater": 2458,
  "▁opere": 2459,
  "▁statu": 2460,
  "ationum": 2461,
  "▁filiam": 2462,
  "▁introd": 2463,
  "▁opprob": 2464,
  "▁pactum": 2465,
  "▁projec": 2466,
  "▁victim": 2467,
  "▁desider": 2468,
  "▁lapides": 2469,
  "▁surrexit": 2470,
  "▁appropinqu": 2471,
  "▁testimonii": 2472,
  "emur": 2473,
  "igit": 2474,
  "resc": 2475,
  "▁ced": 2476,
  "▁cæc": 2477,
  "ibunt": 2478,
  "ingua": 2479,
  "▁pace": 2480,
  "▁Judæi": 2481,
  "▁labor": 2482,
  "▁Cumque": 2483,
  "▁eduxit": 2484,
  "▁inquit": 2485,
  "▁perven": 2486,
  "▁salutem": 2487,
  "▁similis": 2488,
  "▁vestros": 2489,
  "uic": 2490,
  "▁Ed": 2491,
  "▁Ev": 2492,
  "▁Vade": 2493,
  "▁atri": 2494,
  "eretis": 2495,
  "▁Achab": 2496,
  "▁annos": 2497,
  "▁decim": 2498,
  "▁jejun": 2499,
  "▁plant": 2500,
  "▁subst": 2501,
  "▁faciat": 2502,
  "▁aliquid": 2503,
  "▁consili": 2504,
  "▁idcirco": 2505,
  "▁populis": 2506,
  "▁dereliqu": 2507,
  "▁exercitum": 2508,
  "no": 2509,
  "Hoc": 2510,
  "ugn": 2511,
  "▁Ob": 2512,
  "eant": 2513,
  "isse": 2514,
  "▁Mic": 2515,
  "▁lep": 2516,
  "dixit": 2517,
  "▁pond": 2518,
  "▁sæcula": 2519,
  "▁Amorrhæ": 2520,
  "▁secundo": 2521,
  "▁vestram": 2522,
  "▁Christum": 2523,
  "▁semetips": 2524,
  "▁vidisset": 2525,
  "yna": 2526,
  "Erat": 2527,
  "ante": 2528,
  "erel": 2529,
  "erub": 2530,
  "fili": 2531,
  "▁Gad": 2532,
  "▁Her": 2533,
  "▁mar": 2534,
  "astis": 2535,
  "atura": 2536,
  "▁juven": 2537,
  "▁plate": 2538,
  "▁perpet": 2539,
  "▁sancto": 2540,
  "▁fratris": 2541,
  "▁fructum": 2542,
  "▁invenit": 2543,
  "▁persequ": 2544,
  "▁ceciderunt": 2545,
  "▁z": 2546,
  "ino": 2547,
  "sau": 2548,
  "olle": 2549,
  "tios": 2550,
  "tius": 2551,
  "▁are": 2552,
  "▁lex": 2553,
  "ariis": 2554,
  "esimo": 2555,
  "taque": 2556,
  "▁acce": 2557,
  "▁acced": 2558,
  "▁domui": 2559,
  "▁locus": 2560,
  "▁præli": 2561,
  "▁regno": 2562,
  "▁viris": 2563,
  "▁Galilæ": 2564,
  "▁bellum": 2565,
  "▁carnem": 2566,
  "▁gentem": 2567,
  "esserunt": 2568,
  "▁inimicos": 2569,
  "▁civitatibus": 2570,
  "amb": 2571,
  "num": 2572,
  "sis": 2573,
  "tia": 2574,
  "▁Ca": 2575,
  "▁Oz": 2576,
  "▁Tu": 2577,
  "ario": 2578,
  "azar": 2579,
  "ulti": 2580,
  "▁Jez": 2581,
  "▁Quæ": 2582,
  "▁fab": 2583,
  "▁umb": 2584,
  "Omnis": 2585,
  "▁pars": 2586,
  "▁unde": 2587,
  "▁impos": 2588,
  "▁justi": 2589,
  "▁magno": 2590,
  "▁stult": 2591,
  "▁audire": 2592,
  "▁contin": 2593,
  "▁duobus": 2594,
  "▁lingua": 2595,
  "▁nostræ": 2596,
  "▁persec": 2597,
  "▁pariter": 2598,
  "▁longitud": 2599,
  "itte": 2600,
  "▁fic": 2601,
  "▁sti": 2602,
  "fecti": 2603,
  "▁fide": 2604,
  "uitque": 2605,
  "▁Syriæ": 2606,
  "▁illuc": 2607,
  "▁tamen": 2608,
  "▁causam": 2609,
  "▁ipsius": 2610,
  "▁multos": 2611,
  "▁quorum": 2612,
  "▁aquarum": 2613,
  "▁egressi": 2614,
  "▁exspect": 2615,
  "▁abierunt": 2616,
  "▁terminos": 2617,
  "▁sapientiam": 2618,
  "▁tabernaculo": 2619,
  "quo": 2620,
  "rens": 2621,
  "▁Aud": 2622,
  "▁Est": 2623,
  "▁fal": 2624,
  "▁son": 2625,
  "▁Esau": 2626,
  "▁duas": 2627,
  "averis": 2628,
  "verter": 2629,
  "▁avert": 2630,
  "▁defic": 2631,
  "▁desol": 2632,
  "▁divid": 2633,
  "▁fœdus": 2634,
  "▁quare": 2635,
  "▁reper": 2636,
  "▁resur": 2637,
  "▁Levitæ": 2638,
  "▁afflic": 2639,
  "▁observ": 2640,
  "▁timere": 2641,
  "▁dedisti": 2642,
  "▁familia": 2643,
  "▁possessionem": 2644,
  "gam": 2645,
  "imi": 2646,
  "mas": 2647,
  "oni": 2648,
  "atha": 2649,
  "urus": 2650,
  "▁Ele": 2651,
  "Fecit": 2652,
  "▁isto": 2653,
  "▁oleo": 2654,
  "angeli": 2655,
  "▁coron": 2656,
  "▁multo": 2657,
  "▁quant": 2658,
  "▁carnes": 2659,
  "▁nomina": 2660,
  "▁timore": 2661,
  "▁inimici": 2662,
  "▁pedibus": 2663,
  "▁poterit": 2664,
  "▁peregrin": 2665,
  "▁quidquid": 2666,
  "▁universi": 2667,
  "▁virtutem": 2668,
  "Locutusque": 2669,
  "▁fortitudo": 2670,
  "Hi": 2671,
  "ign": 2672,
  "▁Na": 2673,
  "▁neg": 2674,
  "ynago": 2675,
  "▁Levi": 2676,
  "▁huic": 2677,
  "▁masc": 2678,
  "▁miss": 2679,
  "▁pauc": 2680,
  "▁susc": 2681,
  "abilis": 2682,
  "▁epist": 2683,
  "▁loqui": 2684,
  "▁sculp": 2685,
  "ixitque": 2686,
  "▁Judæis": 2687,
  "▁audivi": 2688,
  "▁cherub": 2689,
  "▁facite": 2690,
  "▁remans": 2691,
  "▁Antioch": 2692,
  "▁argenti": 2693,
  "▁contemp": 2694,
  "▁judicio": 2695,
  "▁sæculum": 2696,
  "▁virtute": 2697,
  "▁Josaphat": 2698,
  "▁apparuit": 2699,
  "▁justitiæ": 2700,
  "▁discipulis": 2701,
  "cem": 2702,
  "dix": 2703,
  "olo": 2704,
  "▁En": 2705,
  "acul": 2706,
  "ehem": 2707,
  "▁jan": 2708,
  "▁med": 2709,
  "▁tac": 2710,
  "ariam": 2711,
  "ellum": 2712,
  "entus": 2713,
  "ierit": 2714,
  "▁Quod": 2715,
  "▁agro": 2716,
  "▁unam": 2717,
  "▁vers": 2718,
  "▁viis": 2719,
  "▁Ruben": 2720,
  "▁ipsis": 2721,
  "▁porta": 2722,
  "▁capite": 2723,
  "▁interp": 2724,
  "▁sinist": 2725,
  "▁alterum": 2726,
  "▁glorific": 2727,
  "▁pertrans": 2728,
  "▁veritatem": 2729,
  "▁opprobrium": 2730,
  "da": 2731,
  "ev": 2732,
  "oz": 2733,
  "Acc": 2734,
  "ale": 2735,
  "ici": 2736,
  "los": 2737,
  "tiz": 2738,
  "uam": 2739,
  "oram": 2740,
  "tura": 2741,
  "▁fut": 2742,
  "▁lav": 2743,
  "▁lux": 2744,
  "▁orb": 2745,
  "ipsum": 2746,
  "▁rest": 2747,
  "▁surg": 2748,
  "▁vesc": 2749,
  "aculum": 2750,
  "ensque": 2751,
  "▁dimid": 2752,
  "▁istud": 2753,
  "▁puell": 2754,
  "iserunt": 2755,
  "▁Hebron": 2756,
  "▁capita": 2757,
  "▁domine": 2758,
  "▁habent": 2759,
  "▁iratus": 2760,
  "▁primum": 2761,
  "▁tuarum": 2762,
  "▁abscond": 2763,
  "▁peperit": 2764,
  "▁venerit": 2765,
  "▁voluntatem": 2766,
  "Ut": 2767,
  "hin": 2768,
  "tha": 2769,
  "Ipse": 2770,
  "agin": 2771,
  "athi": 2772,
  "ipot": 2773,
  "▁vac": 2774,
  "▁Baal": 2775,
  "▁caro": 2776,
  "▁vert": 2777,
  "▁Elias": 2778,
  "▁parab": 2779,
  "▁reced": 2780,
  "▁secum": 2781,
  "▁gloriæ": 2782,
  "▁justum": 2783,
  "▁nomini": 2784,
  "rexerunt": 2785,
  "▁fructus": 2786,
  "▁mulierem": 2787,
  "▁sermonum": 2788,
  "▁misericor": 2789,
  "ee": 2790,
  "pha": 2791,
  "rup": 2792,
  "yrum": 2793,
  "▁pri": 2794,
  "Venit": 2795,
  "arias": 2796,
  "levit": 2797,
  "uerat": 2798,
  "▁Sara": 2799,
  "▁psal": 2800,
  "▁sort": 2801,
  "itarum": 2802,
  "▁adjut": 2803,
  "▁boves": 2804,
  "▁solum": 2805,
  "▁urbes": 2806,
  "▁baptiz": 2807,
  "▁conviv": 2808,
  "▁extrem": 2809,
  "▁gratia": 2810,
  "▁locuti": 2811,
  "▁confort": 2812,
  "▁relinqu": 2813,
  "▁septimo": 2814,
  "▁apprehend": 2815,
  "▁prophetam": 2816,
  "▁universam": 2817,
  "▁Pa": 2818,
  "Præc": 2819,
  "aque": 2820,
  "atim": 2821,
  "▁Asa": 2822,
  "▁Mag": 2823,
  "▁Ram": 2824,
  "▁pol": 2825,
  "▁ref": 2826,
  "iamus": 2827,
  "▁mans": 2828,
  "▁mess": 2829,
  "▁vade": 2830,
  "salmus": 2831,
  "uisset": 2832,
  "▁fiduc": 2833,
  "▁sagit": 2834,
  "▁urbem": 2835,
  "▁vehem": 2836,
  "▁confit": 2837,
  "▁destru": 2838,
  "▁fortis": 2839,
  "▁magnam": 2840,
  "▁merced": 2841,
  "▁videre": 2842,
  "▁immacul": 2843,
  "▁oportet": 2844,
  "erumtamen": 2845,
  "▁exercitu": 2846,
  "▁sacerdotem": 2847,
  "▁it": 2848,
  "arem": 2849,
  "▁Acc": 2850,
  "▁fem": 2851,
  "▁huc": 2852,
  "entos": 2853,
  "itias": 2854,
  "▁fluv": 2855,
  "▁font": 2856,
  "▁igne": 2857,
  "antiam": 2858,
  "iderit": 2859,
  "issima": 2860,
  "itibus": 2861,
  "ivimus": 2862,
  "▁grand": 2863,
  "imelech": 2864,
  "▁quippe": 2865,
  "▁rursum": 2866,
  "▁synago": 2867,
  "▁transm": 2868,
  "▁venire": 2869,
  "▁verbis": 2870,
  "▁altaris": 2871,
  "▁annunti": 2872,
  "▁ipsorum": 2873,
  "▁nostros": 2874,
  "▁numerus": 2875,
  "▁dexteram": 2876,
  "▁familias": 2877,
  "▁ingressi": 2878,
  "▁morietur": 2879,
  "▁nobiscum": 2880,
  "▁Pharaonis": 2881,
  "▁principem": 2882,
  "▁cognationes": 2883,
  "▁hæreditatem": 2884,
  "▁cogitationes": 2885,
  "Il": 2886,
  "Voc": 2887,
  "▁Tob": 2888,
  "▁asp": 2889,
  "▁cat": 2890,
  "▁oct": 2891,
  "▁tum": 2892,
  "▁alia": 2893,
  "▁arca": 2894,
  "▁cali": 2895,
  "▁cand": 2896,
  "▁grav": 2897,
  "iderat": 2898,
  "▁illic": 2899,
  "▁insid": 2900,
  "▁obliv": 2901,
  "▁semin": 2902,
  "arentur": 2903,
  "▁dicunt": 2904,
  "▁extend": 2905,
  "▁arietes": 2906,
  "▁miserunt": 2907,
  "▁veritate": 2908,
  "▁prophetarum": 2909,
  "mi": 2910,
  "cus": 2911,
  "lev": 2912,
  "uri": 2913,
  "olam": 2914,
  "▁auf": 2915,
  "onias": 2916,
  "▁ster": 2917,
  "▁trec": 2918,
  "▁duces": 2919,
  "▁munit": 2920,
  "▁signa": 2921,
  "ederunt": 2922,
  "▁Judæos": 2923,
  "▁mortui": 2924,
  "▁munera": 2925,
  "▁tentor": 2926,
  "▁Spiritu": 2927,
  "▁desuper": 2928,
  "▁lapidem": 2929,
  "▁pretios": 2930,
  "▁regione": 2931,
  "▁Babylonem": 2932,
  "▁quicumque": 2933,
  "th": 2934,
  "deo": 2935,
  "▁Ac": 2936,
  "▁fre": 2937,
  "▁ære": 2938,
  "filii": 2939,
  "▁edux": 2940,
  "▁suav": 2941,
  "iculum": 2942,
  "▁celeb": 2943,
  "▁deduc": 2944,
  "▁mundo": 2945,
  "▁murum": 2946,
  "▁verum": 2947,
  "▁vesti": 2948,
  "quaquam": 2949,
  "▁assump": 2950,
  "▁credit": 2951,
  "▁dicere": 2952,
  "▁domini": 2953,
  "▁lignum": 2954,
  "▁medium": 2955,
  "▁stetit": 2956,
  "▁confirm": 2957,
  "▁prophetas": 2958,
  "Nec": 2959,
  "elc": 2960,
  "ulg": 2961,
  "▁Al": 2962,
  "idem": 2963,
  "▁jub": 2964,
  "ostol": 2965,
  "▁ossa": 2966,
  "iebant": 2967,
  "▁carne": 2968,
  "▁obtin": 2969,
  "▁servo": 2970,
  "▁verbo": 2971,
  "eperunt": 2972,
  "▁collig": 2973,
  "▁festin": 2974,
  "▁suarum": 2975,
  "▁sublim": 2976,
  "▁suscip": 2977,
  "▁veniat": 2978,
  "▁dimisit": 2979,
  "▁mortuis": 2980,
  "▁Jeremiam": 2981,
  "▁generationem": 2982,
  "uæ": 2983,
  "son": 2984,
  "adab": 2985,
  "ebor": 2986,
  "▁Dic": 2987,
  "▁nam": 2988,
  "ensus": 2989,
  "▁Mach": 2990,
  "▁sexc": 2991,
  "fectus": 2992,
  "iantur": 2993,
  "▁consc": 2994,
  "▁contr": 2995,
  "issimus": 2996,
  "▁Bethel": 2997,
  "▁Paulus": 2998,
  "▁pariet": 2999,
  "▁perman": 3000,
  "▁proced": 3001,
  "▁propos": 3002,
  "▁tradit": 3003,
  "▁auribus": 3004,
  "▁faciens": 3005,
  "▁provinc": 3006,
  "▁sanguis": 3007,
  "▁dicebant": 3008,
  "▁manifest": 3009,
  "▁iniquitas": 3010,
  "▁sexaginta": 3011,
  "▁universum": 3012,
  "ida": 3013,
  "ute": 3014,
  "▁El": 3015,
  "▁us": 3016,
  "adem": 3017,
  "imur": 3018,
  "olia": 3019,
  "▁Bar": 3020,
  "▁Dam": 3021,
  "▁gem": 3022,
  "▁lit": 3023,
  "▁nut": 3024,
  "▁vet": 3025,
  "ietur": 3026,
  "secus": 3027,
  "▁cerv": 3028,
  "▁itin": 3029,
  "▁nati": 3030,
  "abimus": 3031,
  "▁derel": 3032,
  "▁dicet": 3033,
  "▁innoc": 3034,
  "▁mundi": 3035,
  "▁elegit": 3036,
  "▁increp": 3037,
  "▁mundum": 3038,
  "▁provoc": 3039,
  "▁finibus": 3040,
  "▁urbibus": 3041,
  "▁Ezechias": 3042,
  "Respondens": 3043,
  "▁posuerunt": 3044,
  "▁sanctuarii": 3045,
  "cul": 3046,
  "icho": 3047,
  "ines": 3048,
  "tiam": 3049,
  "▁Job": 3050,
  "▁Sid": 3051,
  "▁Zab": 3052,
  "arius": 3053,
  "eatis": 3054,
  "escit": 3055,
  "▁Zach": 3056,
  "▁ejec": 3057,
  "▁vect": 3058,
  "▁Beths": 3059,
  "▁claus": 3060,
  "▁corda": 3061,
  "▁panis": 3062,
  "▁reput": 3063,
  "▁concup": 3064,
  "▁jussit": 3065,
  "▁magist": 3066,
  "▁multum": 3067,
  "▁partes": 3068,
  "▁retrib": 3069,
  "▁regionem": 3070,
  "▁servorum": 3071,
  "▁holocausta": 3072,
  "▁interfecit": 3073,
  "▁ascenderunt": 3074,
  "Væ": 3075,
  "rix": 3076,
  "emor": 3077,
  "▁Jeh": 3078,
  "▁Noë": 3079,
  "▁Sil": 3080,
  "▁asc": 3081,
  "▁esc": 3082,
  "imoth": 3083,
  "redit": 3084,
  "▁agri": 3085,
  "▁cura": 3086,
  "▁disp": 3087,
  "Itaque": 3088,
  "gressa": 3089,
  "▁Sedec": 3090,
  "▁claud": 3091,
  "▁elect": 3092,
  "▁habes": 3093,
  "▁injus": 3094,
  "▁præst": 3095,
  "▁Chanan": 3096,
  "▁Damasc": 3097,
  "▁matrem": 3098,
  "▁prohib": 3099,
  "▁sancta": 3100,
  "▁servit": 3101,
  "▁virgin": 3102,
  "▁Jericho": 3103,
  "▁arietem": 3104,
  "▁disperd": 3105,
  "▁nostrorum": 3106,
  "▁inimicorum": 3107,
  "▁captivitatem": 3108,
  "Ait": 3109,
  "Vos": 3110,
  "rah": 3111,
  "▁Em": 3112,
  "dian": 3113,
  "evit": 3114,
  "inos": 3115,
  "rina": 3116,
  "urum": 3117,
  "▁Dan": 3118,
  "▁Rom": 3119,
  "▁Sar": 3120,
  "▁ass": 3121,
  "▁fra": 3122,
  "▁obv": 3123,
  "antis": 3124,
  "▁cito": 3125,
  "▁diis": 3126,
  "▁fiat": 3127,
  "▁quot": 3128,
  "▁supp": 3129,
  "Nolite": 3130,
  "iliter": 3131,
  "▁agnos": 3132,
  "▁foras": 3133,
  "▁furor": 3134,
  "▁porro": 3135,
  "▁Nathan": 3136,
  "▁cumque": 3137,
  "▁latere": 3138,
  "▁mittam": 3139,
  "▁tertia": 3140,
  "▁videns": 3141,
  "▁diligit": 3142,
  "▁dominum": 3143,
  "▁gaudium": 3144,
  "▁occidit": 3145,
  "▁antequam": 3146,
  "▁habebant": 3147,
  "▁tenebris": 3148,
  "Verumtamen": 3149,
  "▁Philisthæ": 3150,
  "▁invenerunt": 3151,
  "▁pœnitentiam": 3152,
  "igen": 3153,
  "ubus": 3154,
  "ugum": 3155,
  "utis": 3156,
  "Super": 3157,
  "ditur": 3158,
  "ipere": 3159,
  "▁Neph": 3160,
  "▁ideo": 3161,
  "▁reli": 3162,
  "▁requ": 3163,
  "▁stup": 3164,
  "▁toto": 3165,
  "▁trit": 3166,
  "Quibus": 3167,
  "▁aures": 3168,
  "▁corru": 3169,
  "▁insip": 3170,
  "▁patre": 3171,
  "▁quing": 3172,
  "▁utrum": 3173,
  "▁verit": 3174,
  "vertere": 3175,
  "▁appell": 3176,
  "▁appreh": 3177,
  "▁effund": 3178,
  "▁puerum": 3179,
  "▁consump": 3180,
  "▁cubitos": 3181,
  "▁reversi": 3182,
  "▁singuli": 3183,
  "▁cognovit": 3184,
  "▁mandatum": 3185,
  "▁montibus": 3186,
  "▁requiesc": 3187,
  "▁præceptum": 3188,
  "doc": 3189,
  "occ": 3190,
  "quæ": 3191,
  "▁Be": 3192,
  "adoc": 3193,
  "iram": 3194,
  "▁Bas": 3195,
  "▁Gal": 3196,
  "▁Joj": 3197,
  "▁iis": 3198,
  "▁inh": 3199,
  "▁mel": 3200,
  "Dicit": 3201,
  "▁Joas": 3202,
  "▁alii": 3203,
  "▁iram": 3204,
  "▁male": 3205,
  "▁pluv": 3206,
  "▁purp": 3207,
  "erimus": 3208,
  "oquere": 3209,
  "▁novum": 3210,
  "▁oleum": 3211,
  "▁reduc": 3212,
  "▁scand": 3213,
  "▁solis": 3214,
  "hinorum": 3215,
  "▁domino": 3216,
  "▁infern": 3217,
  "▁montis": 3218,
  "▁projic": 3219,
  "▁replet": 3220,
  "▁populos": 3221,
  "▁dederunt": 3222,
  "▁orientem": 3223,
  "▁scientiam": 3224,
  "▁iniquitates": 3225,
  "▁Philisthinorum": 3226,
  "),": 3227,
  "va": 3228,
  "abel": 3229,
  "anum": 3230,
  "ares": 3231,
  "umer": 3232,
  "▁Abi": 3233,
  "▁adv": 3234,
  "▁ard": 3235,
  "ueris": 3236,
  "▁Pers": 3237,
  "Domine": 3238,
  "▁cærem": 3239,
  "▁stare": 3240,
  "▁Madian": 3241,
  "▁Patrem": 3242,
  "▁formid": 3243,
  "▁ingred": 3244,
  "▁mundus": 3245,
  "▁nullus": 3246,
  "▁postea": 3247,
  "▁profic": 3248,
  "▁tertio": 3249,
  "▁campest": 3250,
  "▁dicebat": 3251,
  "▁hæredit": 3252,
  "▁numerum": 3253,
  "▁quadring": 3254,
  "▁orationem": 3255,
  "▁vestrorum": 3256,
  "▁iniquitate": 3257,
  "▁solitudine": 3258,
  "▁sacerdotibus": 3259,
  "ada": 3260,
  "lem": 3261,
  "▁Ag": 3262,
  "ecta": 3263,
  "odem": 3264,
  "umus": 3265,
  "▁Hes": 3266,
  "▁Mer": 3267,
  "Tulit": 3268,
  "ramet": 3269,
  "ratus": 3270,
  "▁amar": 3271,
  "▁comb": 3272,
  "▁conj": 3273,
  "▁esto": 3274,
  "▁plus": 3275,
  "▁pont": 3276,
  "cemodi": 3277,
  "▁Scrip": 3278,
  "▁animo": 3279,
  "▁bonis": 3280,
  "▁eloqu": 3281,
  "▁foris": 3282,
  "▁nubes": 3283,
  "▁optim": 3284,
  "▁urbis": 3285,
  "▁commin": 3286,
  "▁lucern": 3287,
  "▁negoti": 3288,
  "▁præpos": 3289,
  "ientibus": 3290,
  "▁Samaria": 3291,
  "▁dextera": 3292,
  "▁gladius": 3293,
  "▁lætitia": 3294,
  "▁regibus": 3295,
  "▁auxilium": 3296,
  "▁fugerunt": 3297,
  "▁inimicis": 3298,
  "▁occursum": 3299,
  "▁seniores": 3300,
  "▁transmig": 3301,
  "▁universo": 3302,
  "▁Salomonis": 3303,
  "▁interpret": 3304,
  "▁venissent": 3305,
  "iem": 3306,
  "nec": 3307,
  "▁Sy": 3308,
  "▁mœ": 3309,
  "Ideo": 3310,
  "ecti": 3311,
  "enim": 3312,
  "rius": 3313,
  "▁Mas": 3314,
  "▁Per": 3315,
  "▁cin": 3316,
  "tibus": 3317,
  "▁Amas": 3318,
  "▁adip": 3319,
  "▁auri": 3320,
  "▁dist": 3321,
  "▁erud": 3322,
  "▁flam": 3323,
  "▁frum": 3324,
  "▁noli": 3325,
  "Ascend": 3326,
  "▁audit": 3327,
  "▁brach": 3328,
  "▁induc": 3329,
  "▁laque": 3330,
  "▁stell": 3331,
  "▁Pharao": 3332,
  "▁perdit": 3333,
  "▁vestib": 3334,
  "▁nostras": 3335,
  "▁Jonathan": 3336,
  "▁contamin": 3337,
  "▁universos": 3338,
  "▁egredietur": 3339,
  "Sal": 3340,
  "▁eb": 3341,
  "abam": 3342,
  "otus": 3343,
  "riam": 3344,
  "usti": 3345,
  "▁sis": 3346,
  "▁Heth": 3347,
  "▁Idum": 3348,
  "▁adul": 3349,
  "▁data": 3350,
  "▁fame": 3351,
  "ientem": 3352,
  "ilibus": 3353,
  "▁Abner": 3354,
  "▁defec": 3355,
  "▁horum": 3356,
  "▁sedit": 3357,
  "▁totum": 3358,
  "▁æstim": 3359,
  "ebuntur": 3360,
  "edictus": 3361,
  "▁antiqu": 3362,
  "▁furore": 3363,
  "▁gaudio": 3364,
  "▁loquar": 3365,
  "▁prædam": 3366,
  "▁siclos": 3367,
  "▁sæculi": 3368,
  "▁tribun": 3369,
  "▁nostram": 3370,
  "▁sapiens": 3371,
  "▁cherubim": 3372,
  "▁tribubus": 3373,
  "▁peccatores": 3374,
  "▁iniquitatis": 3375,
  "Ob": 3376,
  "lac": 3377,
  "mod": 3378,
  "ucc": 3379,
  "Quam": 3380,
  "amur": 3381,
  "▁Ged": 3382,
  "▁dii": 3383,
  "▁zel": 3384,
  "▁æqu": 3385,
  "arios": 3386,
  "illam": 3387,
  "issem": 3388,
  "rabit": 3389,
  "▁Edom": 3390,
  "▁Phas": 3391,
  "▁diei": 3392,
  "▁malo": 3393,
  "▁præb": 3394,
  "▁ferre": 3395,
  "▁impet": 3396,
  "▁juram": 3397,
  "▁lumen": 3398,
  "▁pueri": 3399,
  "issimis": 3400,
  "▁postul": 3401,
  "▁primus": 3402,
  "▁procul": 3403,
  "▁præsid": 3404,
  "▁spolia": 3405,
  "▁stabat": 3406,
  "▁angelum": 3407,
  "▁castris": 3408,
  "▁nuntios": 3409,
  "▁poterat": 3410,
  "▁sabbati": 3411,
  "▁subvert": 3412,
  "▁contrist": 3413,
  "▁impiorum": 3414,
  "▁loquitur": 3415,
  "▁pecuniam": 3416,
  "▁loquebatur": 3417,
  "▁fortitudine": 3418,
  "osa": 3419,
  "▁Ah": 3420,
  "anus": 3421,
  "uere": 3422,
  "▁Car": 3423,
  "▁eun": 3424,
  "▁tul": 3425,
  "dochæ": 3426,
  "esque": 3427,
  "▁Isma": 3428,
  "▁aust": 3429,
  "▁pleb": 3430,
  "▁sent": 3431,
  "▁suus": 3432,
  "▁tran": 3433,
  "Reliqu": 3434,
  "▁adjuv": 3435,
  "▁aurea": 3436,
  "▁cadav": 3437,
  "▁confl": 3438,
  "▁fugit": 3439,
  "▁impii": 3440,
  "▁resid": 3441,
  "▁eritis": 3442,
  "▁gladii": 3443,
  "▁habere": 3444,
  "▁oculus": 3445,
  "▁possit": 3446,
  "▁subter": 3447,
  "▁Joannes": 3448,
  "▁adjutor": 3449,
  "▁consper": 3450,
  "▁vitulum": 3451,
  "▁castramet": 3452,
  "▁disciplin": 3453,
  "▁sacerdotis": 3454,
  "Sin": 3455,
  "aut": 3456,
  "pex": 3457,
  "▁Re": 3458,
  "▁Se": 3459,
  "Anno": 3460,
  "aust": 3461,
  "ilic": 3462,
  "▁Bal": 3463,
  "▁Joa": 3464,
  "▁gra": 3465,
  "ultum": 3466,
  "▁Geth": 3467,
  "▁Jehu": 3468,
  "▁adhæ": 3469,
  "▁olei": 3470,
  "▁tria": 3471,
  "ientur": 3472,
  "xerunt": 3473,
  "▁Basan": 3474,
  "▁accus": 3475,
  "▁fidei": 3476,
  "▁lucem": 3477,
  "▁tetig": 3478,
  "▁tunic": 3479,
  "▁vivit": 3480,
  "▁Sancto": 3481,
  "▁auxili": 3482,
  "▁carnis": 3483,
  "▁fueris": 3484,
  "▁adulter": 3485,
  "▁faceret": 3486,
  "▁ignomin": 3487,
  "▁reliqui": 3488,
  "▁succend": 3489,
  "▁mensuram": 3490,
  "▁millibus": 3491,
  "▁concupisc": 3492,
  "▁habitavit": 3493,
  "▁hujuscemodi": 3494,
  "▁sanctuarium": 3495,
  "▁tabernacula": 3496,
  "do": 3497,
  "ice": 3498,
  "olv": 3499,
  "ung": 3500,
  "uræ": 3501,
  "atam": 3502,
  "lend": 3503,
  "▁Mac": 3504,
  "▁fig": 3505,
  "▁mol": 3506,
  "admod": 3507,
  "illum": 3508,
  "lehem": 3509,
  "rachi": 3510,
  "sicut": 3511,
  "▁arma": 3512,
  "▁modo": 3513,
  "▁prec": 3514,
  "uistis": 3515,
  "▁Surge": 3516,
  "▁causa": 3517,
  "▁dimit": 3518,
  "▁eadem": 3519,
  "▁istam": 3520,
  "▁labia": 3521,
  "▁major": 3522,
  "▁natus": 3523,
  "admodum": 3524,
  "▁Filium": 3525,
  "▁afflig": 3526,
  "▁fortes": 3527,
  "▁habuit": 3528,
  "▁homini": 3529,
  "▁multas": 3530,
  "▁pertin": 3531,
  "▁scribæ": 3532,
  "▁semine": 3533,
  "▁conculc": 3534,
  "▁frustra": 3535,
  "▁juravit": 3536,
  "▁obsecro": 3537,
  "▁regnare": 3538,
  "▁sanctis": 3539,
  "▁sanctus": 3540,
  "▁Dixitque": 3541,
  "▁Jeremias": 3542,
  "▁Mardochæ": 3543,
  "▁cœperunt": 3544,
  "▁dixitque": 3545,
  "▁facietis": 3546,
  "▁habitant": 3547,
  "▁incensum": 3548,
  "▁Bethlehem": 3549,
  "▁benedixit": 3550,
  "ni": 3551,
  "ades": 3552,
  "angu": 3553,
  "ende": 3554,
  "▁abs": 3555,
  "▁lam": 3556,
  "▁orn": 3557,
  "Omnia": 3558,
  "acint": 3559,
  "eamus": 3560,
  "ecimo": 3561,
  "rarum": 3562,
  "retur": 3563,
  "▁Amal": 3564,
  "▁Bala": 3565,
  "▁lumb": 3566,
  "▁pest": 3567,
  "atorem": 3568,
  "uravit": 3569,
  "▁Filii": 3570,
  "▁agrum": 3571,
  "▁aquis": 3572,
  "▁libam": 3573,
  "▁nunti": 3574,
  "▁obtul": 3575,
  "▁utero": 3576,
  "▁veloc": 3577,
  "▁Ascend": 3578,
  "▁Nolite": 3579,
  "▁altera": 3580,
  "▁audite": 3581,
  "▁bestiæ": 3582,
  "▁greges": 3583,
  "▁homine": 3584,
  "▁inclin": 3585,
  "▁parent": 3586,
  "▁perfec": 3587,
  "▁quæreb": 3588,
  "▁vindic": 3589,
  "▁vulner": 3590,
  "▁comedit": 3591,
  "▁contrit": 3592,
  "▁militiæ": 3593,
  "▁requiem": 3594,
  "▁justorum": 3595,
  "▁operatus": 3596,
  "▁proximum": 3597,
  "▁resurrec": 3598,
  "▁videntes": 3599,
  "▁aquilonis": 3600,
  "▁mirabilia": 3601,
  "▁senioribus": 3602,
  "▁sermonibus": 3603,
  "▁misericordi": 3604,
  "▁solitudinem": 3605,
  "Jes": 3606,
  "Sim": 3607,
  "Sur": 3608,
  "mul": 3609,
  "thi": 3610,
  "usc": 3611,
  "▁az": 3612,
  "▁cr": 3613,
  "▁da": 3614,
  "eros": 3615,
  "idum": 3616,
  "olem": 3617,
  "uris": 3618,
  "▁Dem": 3619,
  "▁lig": 3620,
  "ilipp": 3621,
  "▁cras": 3622,
  "▁esur": 3623,
  "▁herb": 3624,
  "▁irac": 3625,
  "▁pulv": 3626,
  "▁vino": 3627,
  "▁bonus": 3628,
  "▁monum": 3629,
  "▁occis": 3630,
  "▁prima": 3631,
  "▁radic": 3632,
  "▁separ": 3633,
  "▁velut": 3634,
  "Congreg": 3635,
  "▁lignis": 3636,
  "▁robust": 3637,
  "▁salvum": 3638,
  "▁vineam": 3639,
  "rinsecus": 3640,
  "▁acceper": 3641,
  "▁excelsa": 3642,
  "▁habemus": 3643,
  "▁somnium": 3644,
  "▁vitulos": 3645,
  "▁habentem": 3646,
  "▁imperium": 3647,
  "▁meridiem": 3648,
  "▁tulerunt": 3649,
  "▁lapidibus": 3650,
  "▁sacerdoti": 3651,
  "▁sapientes": 3652,
  "▁comprehend": 3653,
  "Be": 3654,
  "lor": 3655,
  "▁Cæ": 3656,
  "▁Es": 3657,
  "▁Ja": 3658,
  "demn": 3659,
  "esta": 3660,
  "▁Med": 3661,
  "▁Sat": 3662,
  "▁ire": 3663,
  "thali": 3664,
  "▁grad": 3665,
  "▁memb": 3666,
  "▁mors": 3667,
  "▁solv": 3668,
  "▁stir": 3669,
  "▁viol": 3670,
  "atibus": 3671,
  "aturus": 3672,
  "dcirco": 3673,
  "▁Sadoc": 3674,
  "▁cælis": 3675,
  "▁divis": 3676,
  "▁effug": 3677,
  "▁honor": 3678,
  "▁impon": 3679,
  "▁ovium": 3680,
  "▁relic": 3681,
  "▁seduc": 3682,
  "Quomodo": 3683,
  "imentum": 3684,
  "▁initio": 3685,
  "▁litter": 3686,
  "▁meorum": 3687,
  "▁plenum": 3688,
  "▁pondus": 3689,
  "▁præced": 3690,
  "▁Eleazar": 3691,
  "▁Sanctus": 3692,
  "▁adduxit": 3693,
  "▁fidelis": 3694,
  "▁loqueris": 3695,
  "▁aquilonem": 3696,
  "▁conversus": 3697,
  "▁derelinqu": 3698,
  "▁populorum": 3699,
  "▁congregati": 3700,
  "▁revertetur": 3701,
  "ano": 3702,
  "iel": 3703,
  "usi": 3704,
  "Verb": 3705,
  "elab": 3706,
  "idam": 3707,
  "▁Nic": 3708,
  "▁mon": 3709,
  "▁erip": 3710,
  "▁obst": 3711,
  "▁voci": 3712,
  "rantes": 3713,
  "▁Jezra": 3714,
  "▁Patre": 3715,
  "▁asper": 3716,
  "▁calam": 3717,
  "▁finis": 3718,
  "▁forti": 3719,
  "▁gyrum": 3720,
  "▁habeo": 3721,
  "▁idola": 3722,
  "▁locis": 3723,
  "▁multæ": 3724,
  "▁octav": 3725,
  "▁pollu": 3726,
  "▁prope": 3727,
  "▁recip": 3728,
  "▁virga": 3729,
  "atusque": 3730,
  "▁Amalec": 3731,
  "▁calumn": 3732,
  "▁currus": 3733,
  "▁estote": 3734,
  "▁redemp": 3735,
  "▁sculpt": 3736,
  "▁vectes": 3737,
  "▁Philipp": 3738,
  "▁Sanctum": 3739,
  "▁dicitis": 3740,
  "▁dixerit": 3741,
  "▁hyacint": 3742,
  "▁iracund": 3743,
  "▁numquam": 3744,
  "▁facerent": 3745,
  "▁mandavit": 3746,
  "▁sabbatum": 3747,
  "▁singulis": 3748,
  "▁terrarum": 3749,
  "▁Abimelech": 3750,
  "▁interfect": 3751,
  "▁consurgens": 3752,
  "▁orientalem": 3753,
  "▁vehementer": 3754,
  "▁crediderunt": 3755,
  "▁responderunt": 3756,
  "▁similitudinem": 3757,
  "▁my": 3758,
  "ront": 3759,
  "▁Cal": 3760,
  "▁bys": 3761,
  "▁opt": 3762,
  "Jesus": 3763,
  "verem": 3764,
  "▁argu": 3765,
  "▁bucc": 3766,
  "▁hast": 3767,
  "▁paul": 3768,
  "▁redi": 3769,
  "▁scit": 3770,
  "▁tang": 3771,
  "itores": 3772,
  "ressus": 3773,
  "ropter": 3774,
  "▁Demet": 3775,
  "▁Joram": 3776,
  "▁aurem": 3777,
  "▁cresc": 3778,
  "▁cælos": 3779,
  "▁digit": 3780,
  "▁effud": 3781,
  "▁fidel": 3782,
  "▁fines": 3783,
  "▁front": 3784,
  "▁muros": 3785,
  "▁obsid": 3786,
  "▁voluc": 3787,
  "▁volum": 3788,
  "▁combus": 3789,
  "▁facias": 3790,
  "▁flumen": 3791,
  "▁plurim": 3792,
  "▁potens": 3793,
  "▁Apostol": 3794,
  "▁alienos": 3795,
  "▁cælorum": 3796,
  "▁furoris": 3797,
  "▁habetis": 3798,
  "▁laudate": 3799,
  "▁videtur": 3800,
  "▁clamavit": 3801,
  "▁consider": 3802,
  "▁filiabus": 3803,
  "▁victimas": 3804,
  "▁Nephthali": 3805,
  "▁reliquias": 3806,
  "▁peccatorum": 3807,
  "▁quemadmodum": 3808,
  "▁generationes": 3809,
  "Al": 3810,
  "App": 3811,
  "Mis": 3812,
  "Sic": 3813,
  "kim": 3814,
  "nac": 3815,
  "nus": 3816,
  "uas": 3817,
  "hort": 3818,
  "iper": 3819,
  "quem": 3820,
  "ulon": 3821,
  "▁Cum": 3822,
  "▁Cæs": 3823,
  "▁Fac": 3824,
  "▁Sob": 3825,
  "▁gaz": 3826,
  "▁pub": 3827,
  "▁viæ": 3828,
  "▁æne": 3829,
  "elunc": 3830,
  "tolem": 3831,
  "uetud": 3832,
  "▁ange": 3833,
  "▁dare": 3834,
  "▁drac": 3835,
  "▁gens": 3836,
  "▁long": 3837,
  "▁plor": 3838,
  "▁ungu": 3839,
  "▁vere": 3840,
  "Revers": 3841,
  "issime": 3842,
  "itatum": 3843,
  "▁Gabaa": 3844,
  "▁incip": 3845,
  "▁pacis": 3846,
  "averint": 3847,
  "▁Evange": 3848,
  "▁Respon": 3849,
  "▁crucif": 3850,
  "▁germin": 3851,
  "▁splend": 3852,
  "▁videte": 3853,
  "▁Levitis": 3854,
  "▁argento": 3855,
  "▁condemn": 3856,
  "▁dextris": 3857,
  "▁dicitur": 3858,
  "▁hostias": 3859,
  "▁inhabit": 3860,
  "▁juvenes": 3861,
  "▁majores": 3862,
  "▁quotidi": 3863,
  "▁spelunc": 3864,
  "▁veniunt": 3865,
  "▁veritas": 3866,
  "▁transmigr": 3867,
  "▁Evangelium": 3868,
  "▁Jerosolymis": 3869,
  "▁congregavit": 3870,
  "▁percusserunt": 3871,
  "Er": 3872,
  "enn": 3873,
  "ales": 3874,
  "ates": 3875,
  "fern": 3876,
  "oper": 3877,
  "quod": 3878,
  "ylac": 3879,
  "▁Has": 3880,
  "▁Pil": 3881,
  "▁Ubi": 3882,
  "▁cop": 3883,
  "▁cæd": 3884,
  "▁iræ": 3885,
  "▁ung": 3886,
  "hamar": 3887,
  "thiop": 3888,
  "▁Veni": 3889,
  "▁ferm": 3890,
  "▁meli": 3891,
  "▁oris": 3892,
  "▁scio": 3893,
  "▁sole": 3894,
  "▁spes": 3895,
  "▁ulul": 3896,
  "▁æmul": 3897,
  "assent": 3898,
  "euntes": 3899,
  "▁Judæa": 3900,
  "▁aspic": 3901,
  "▁cornu": 3902,
  "▁funic": 3903,
  "▁redim": 3904,
  "▁trium": 3905,
  "▁vivet": 3906,
  "angeliz": 3907,
  "▁Simeon": 3908,
  "▁altari": 3909,
  "▁angeli": 3910,
  "▁applic": 3911,
  "▁commov": 3912,
  "▁dicent": 3913,
  "▁divers": 3914,
  "▁impiet": 3915,
  "▁sancti": 3916,
  "▁suburb": 3917,
  "▁peribit": 3918,
  "▁pretium": 3919,
  "▁prosper": 3920,
  "▁vivific": 3921,
  "▁Jordanis": 3922,
  "▁faciemus": 3923,
  "▁oblivisc": 3924,
  "▁ostendit": 3925,
  "▁pharisæi": 3926,
  "▁superbia": 3927,
  "▁verborum": 3928,
  "▁voluerit": 3929,
  "▁alienigen": 3930,
  "▁evangeliz": 3931,
  "▁mendacium": 3932,
  "▁Chaldæorum": 3933,
  "▁obtulerunt": 3934,
  "▁adoraverunt": 3935,
  "▁cognoverunt": 3936,
  "mp": 3937,
  "Hic": 3938,
  "Præ": 3939,
  "Vir": 3940,
  "con": 3941,
  "get": 3942,
  "▁en": 3943,
  "abee": 3944,
  "inus": 3945,
  "odom": 3946,
  "otes": 3947,
  "undi": 3948,
  "unti": 3949,
  "▁Ced": 3950,
  "▁ing": 3951,
  "▁lug": 3952,
  "▁lun": 3953,
  "▁pup": 3954,
  "achar": 3955,
  "ambul": 3956,
  "cujus": 3957,
  "iente": 3958,
  "istim": 3959,
  "▁Heli": 3960,
  "▁cert": 3961,
  "▁exst": 3962,
  "▁fiet": 3963,
  "▁fulg": 3964,
  "▁palm": 3965,
  "▁phia": 3966,
  "▁sicc": 3967,
  "▁sump": 3968,
  "decima": 3969,
  "escere": 3970,
  "ientia": 3971,
  "▁Abram": 3972,
  "▁Asaph": 3973,
  "▁Jebus": 3974,
  "▁Satan": 3975,
  "▁Semei": 3976,
  "▁Sodom": 3977,
  "▁annum": 3978,
  "▁atrii": 3979,
  "▁bonam": 3980,
  "▁legit": 3981,
  "▁pingu": 3982,
  "▁satur": 3983,
  "ophylac": 3984,
  "▁Joakim": 3985,
  "▁Ptolem": 3986,
  "▁Tobias": 3987,
  "▁centur": 3988,
  "▁columb": 3989,
  "▁noctem": 3990,
  "▁præpar": 3991,
  "▁transf": 3992,
  "▁vultus": 3993,
  "▁faciunt": 3994,
  "▁habebit": 3995,
  "▁promiss": 3996,
  "▁æternam": 3997,
  "quebantur": 3998,
  "▁adoravit": 3999,
  "▁candelab": 4000,
  "▁confring": 4001,
  "▁ecclesia": 4002,
  "▁introitu": 4003,
  "▁pulverem": 4004,
  "▁scripsit": 4005,
  "▁vestibus": 4006,
  "▁principum": 4007,
  "▁sanguinis": 4008,
  "▁sapientiæ": 4009,
  "▁sinistram": 4010,
  "▁Jerosolymam": 4011,
  "ba": 4012,
  "ior": 4013,
  "ren": 4014,
  "Cont": 4015,
  "ecto": 4016,
  "ella": 4017,
  "elli": 4018,
  "olis": 4019,
  "ortu": 4020,
  "▁Gaz": 4021,
  "▁Mis": 4022,
  "▁ast": 4023,
  "▁den": 4024,
  "▁duæ": 4025,
  "▁rot": 4026,
  "▁unc": 4027,
  "Quare": 4028,
  "ustus": 4029,
  "▁Conf": 4030,
  "▁dein": 4031,
  "▁deus": 4032,
  "▁erub": 4033,
  "▁flag": 4034,
  "▁parc": 4035,
  "dicens": 4036,
  "▁acqui": 4037,
  "▁calic": 4038,
  "▁dirig": 4039,
  "▁eodem": 4040,
  "▁exemp": 4041,
  "▁nosti": 4042,
  "▁semel": 4043,
  "▁umbra": 4044,
  "▁vigil": 4045,
  "Reliqua": 4046,
  "▁Gabaon": 4047,
  "▁Roboam": 4048,
  "▁convoc": 4049,
  "▁corrup": 4050,
  "▁gregem": 4051,
  "▁hostes": 4052,
  "▁obviam": 4053,
  "▁perhib": 4054,
  "▁Æthiop": 4055,
  "▁adducam": 4056,
  "▁alienis": 4057,
  "▁corpore": 4058,
  "▁honorem": 4059,
  "▁purpura": 4060,
  "▁quærent": 4061,
  "▁scietis": 4062,
  "▁talenta": 4063,
  "▁thronum": 4064,
  "▁fecistis": 4065,
  "▁mercedem": 4066,
  "▁superven": 4067,
  "▁virtutis": 4068,
  "▁principio": 4069,
  "▁præsentem": 4070,
  "▁gazophylac": 4071,
  "▁quodcumque": 4072,
  "▁vestimentum": 4073,
  "▁habitaverunt": 4074,
  "▁tribulatione": 4075,
  "▁benedictionem": 4076,
  "ly": 4077,
  "ela": 4078,
  "her": 4079,
  "Cons": 4080,
  "▁Num": 4081,
  "▁dat": 4082,
  "▁fui": 4083,
  "▁sta": 4084,
  "▁ton": 4085,
  "Erant": 4086,
  "estis": 4087,
  "iarum": 4088,
  "▁Adam": 4089,
  "▁Galg": 4090,
  "▁Noli": 4091,
  "▁flet": 4092,
  "▁hinc": 4093,
  "▁hirc": 4094,
  "▁line": 4095,
  "▁Caath": 4096,
  "▁Idumæ": 4097,
  "▁bases": 4098,
  "▁egred": 4099,
  "▁exiit": 4100,
  "▁meret": 4101,
  "▁plena": 4102,
  "▁præpa": 4103,
  "licitus": 4104,
  "▁Sichem": 4105,
  "▁appare": 4106,
  "▁dictum": 4107,
  "▁fieret": 4108,
  "▁odorem": 4109,
  "▁recens": 4110,
  "▁transt": 4111,
  "▁Zabulon": 4112,
  "▁adverso": 4113,
  "▁ceteris": 4114,
  "▁circumc": 4115,
  "▁deserta": 4116,
  "▁fuisset": 4117,
  "▁jumenta": 4118,
  "▁malitia": 4119,
  "▁modicum": 4120,
  "▁sacerdo": 4121,
  "▁audistis": 4122,
  "▁fiduciam": 4123,
  "▁recessit": 4124,
  "▁scientia": 4125,
  "▁vesperam": 4126,
  "▁aliquando": 4127,
  "▁convivium": 4128,
  "▁perpetuum": 4129,
  "▁potestate": 4130,
  "▁cæremonias": 4131,
  "▁habitabant": 4132,
  "▁singulorum": 4133,
  "▁castrametati": 4134,
  "ena": 4135,
  "icam": 4136,
  "rare": 4137,
  "▁Sus": 4138,
  "▁Vid": 4139,
  "▁vov": 4140,
  "estia": 4141,
  "estim": 4142,
  "pexit": 4143,
  "▁Aman": 4144,
  "▁Cari": 4145,
  "▁abys": 4146,
  "▁natu": 4147,
  "▁nequ": 4148,
  "▁sacc": 4149,
  "▁suff": 4150,
  "▁tant": 4151,
  "▁vill": 4152,
  "Audite": 4153,
  "alibus": 4154,
  "ibilis": 4155,
  "lexand": 4156,
  "▁Maria": 4157,
  "▁affer": 4158,
  "▁avers": 4159,
  "▁dimis": 4160,
  "▁dirip": 4161,
  "▁fides": 4162,
  "▁ligno": 4163,
  "▁pedum": 4164,
  "▁sitis": 4165,
  "Idcirco": 4166,
  "Loquere": 4167,
  "ocumque": 4168,
  "olofern": 4169,
  "utionem": 4170,
  "▁Audite": 4171,
  "▁Balaam": 4172,
  "▁concub": 4173,
  "▁cornua": 4174,
  "▁fratri": 4175,
  "▁incred": 4176,
  "▁noluit": 4177,
  "▁numero": 4178,
  "▁opprim": 4179,
  "▁propit": 4180,
  "▁voluit": 4181,
  "▁Joannem": 4182,
  "▁Quoniam": 4183,
  "▁conserv": 4184,
  "▁peccare": 4185,
  "▁sedebat": 4186,
  "▁simulac": 4187,
  "▁tenebræ": 4188,
  "▁vespere": 4189,
  "▁vocatur": 4190,
  "▁brachium": 4191,
  "▁consilio": 4192,
  "▁cordibus": 4193,
  "▁immundus": 4194,
  "▁intravit": 4195,
  "▁poterant": 4196,
  "▁quotidie": 4197,
  "▁regionis": 4198,
  "▁habitabat": 4199,
  "▁nequaquam": 4200,
  "▁octoginta": 4201,
  "▁propterea": 4202,
  "▁sæculorum": 4203,
  "▁disciplinam": 4204,
  "▁multitudinis": 4205,
  "ax": 4206,
  "emo": 4207,
  "mis": 4208,
  "ebon": 4209,
  "idis": 4210,
  "▁Ite": 4211,
  "▁Och": 4212,
  "▁leo": 4213,
  "▁pom": 4214,
  "▁ram": 4215,
  "▁Aser": 4216,
  "▁Math": 4217,
  "▁diff": 4218,
  "▁hort": 4219,
  "▁ineb": 4220,
  "▁misi": 4221,
  "▁murm": 4222,
  "▁oliv": 4223,
  "▁pone": 4224,
  "▁repl": 4225,
  "▁serp": 4226,
  "endens": 4227,
  "iculos": 4228,
  "▁Maced": 4229,
  "▁Nonne": 4230,
  "▁Phase": 4231,
  "▁Porro": 4232,
  "▁aliis": 4233,
  "▁daret": 4234,
  "▁dilex": 4235,
  "▁jubil": 4236,
  "▁media": 4237,
  "▁mente": 4238,
  "▁regna": 4239,
  "▁soror": 4240,
  "▁spons": 4241,
  "▁trist": 4242,
  "▁valle": 4243,
  "ueritis": 4244,
  "▁atrium": 4245,
  "▁brachi": 4246,
  "▁credid": 4247,
  "▁exivit": 4248,
  "▁exprob": 4249,
  "▁fabric": 4250,
  "▁loquor": 4251,
  "▁recess": 4252,
  "▁stabit": 4253,
  "averitis": 4254,
  "greditur": 4255,
  "▁Quomodo": 4256,
  "▁aperuit": 4257,
  "▁capitis": 4258,
  "▁dederit": 4259,
  "▁equites": 4260,
  "▁fratrum": 4261,
  "▁illumin": 4262,
  "▁judices": 4263,
  "▁mortuum": 4264,
  "▁superex": 4265,
  "▁vidisti": 4266,
  "▁Holofern": 4267,
  "▁comedent": 4268,
  "▁cœpisset": 4269,
  "▁doctrina": 4270,
  "▁inimicus": 4271,
  "▁intellex": 4272,
  "▁introduc": 4273,
  "▁moriatur": 4274,
  "▁præcipio": 4275,
  "▁respicit": 4276,
  "▁Levitarum": 4277,
  "▁audientes": 4278,
  "▁circumcis": 4279,
  "▁nuntiavit": 4280,
  "▁potuerunt": 4281,
  "▁proficisc": 4282,
  "▁steterunt": 4283,
  "▁veritatis": 4284,
  "▁ministerium": 4285,
  "Exs": 4286,
  "mne": 4287,
  "▁St": 4288,
  "▁heb": 4289,
  "▁pel": 4290,
  "amque": 4291,
  "etque": 4292,
  "ieris": 4293,
  "raque": 4294,
  "uimus": 4295,
  "▁\"\"\"(": 4296,
  "▁Sina": 4297,
  "▁arom": 4298,
  "▁loca": 4299,
  "▁quæs": 4300,
  "▁spem": 4301,
  "aravit": 4302,
  "▁Achaz": 4303,
  "▁Assur": 4304,
  "▁Nican": 4305,
  "▁Sicut": 4306,
  "▁alios": 4307,
  "▁bella": 4308,
  "▁camel": 4309,
  "▁dicis": 4310,
  "▁diluc": 4311,
  "▁ducem": 4312,
  "▁fraud": 4313,
  "▁modum": 4314,
  "▁novem": 4315,
  "▁pones": 4316,
  "▁scire": 4317,
  "▁timor": 4318,
  "▁audiat": 4319,
  "▁commun": 4320,
  "▁dicite": 4321,
  "▁labiis": 4322,
  "▁mensus": 4323,
  "▁partic": 4324,
  "▁petram": 4325,
  "▁public": 4326,
  "▁solium": 4327,
  "▁virtus": 4328,
  "Præcepit": 4329,
  "▁Alexand": 4330,
  "▁delicto": 4331,
  "▁flumina": 4332,
  "▁fluvium": 4333,
  "▁generis": 4334,
  "▁gratias": 4335,
  "▁mensura": 4336,
  "▁seorsum": 4337,
  "▁tetigit": 4338,
  "▁extermin": 4339,
  "▁reliquit": 4340,
  "▁tentoria": 4341,
  "▁audivimus": 4342,
  "▁auferetur": 4343,
  "▁prophetis": 4344,
  "▁tetigerit": 4345,
  "▁torrentem": 4346,
  "▁suscitavit": 4347,
  "Pr": 4348,
  "Hab": 4349,
  "Sep": 4350,
  "ane": 4351,
  "inn": 4352,
  "jur": 4353,
  "ëli": 4354,
  "arim": 4355,
  "exit": 4356,
  "▁Lot": 4357,
  "▁did": 4358,
  "▁err": 4359,
  "▁nim": 4360,
  "▁nup": 4361,
  "ister": 4362,
  "▁Jeph": 4363,
  "▁Seir": 4364,
  "▁cult": 4365,
  "▁juss": 4366,
  "▁loci": 4367,
  "▁subj": 4368,
  "sachar": 4369,
  "▁Hanan": 4370,
  "▁Herod": 4371,
  "▁cibum": 4372,
  "▁decip": 4373,
  "▁decre": 4374,
  "▁dicat": 4375,
  "▁facis": 4376,
  "▁fuero": 4377,
  "▁istos": 4378,
  "▁manet": 4379,
  "▁primi": 4380,
  "ipotens": 4381,
  "itionem": 4382,
  "▁Timoth": 4383,
  "▁aureum": 4384,
  "▁eunuch": 4385,
  "▁intell": 4386,
  "▁laudem": 4387,
  "▁pecora": 4388,
  "▁pueris": 4389,
  "▁resist": 4390,
  "▁resurg": 4391,
  "▁suscep": 4392,
  "▁testam": 4393,
  "Fecitque": 4394,
  "▁Levitas": 4395,
  "▁ancilla": 4396,
  "▁benedix": 4397,
  "▁decimas": 4398,
  "▁linguam": 4399,
  "▁memoria": 4400,
  "▁oblatio": 4401,
  "▁possunt": 4402,
  "▁salutis": 4403,
  "▁utraque": 4404,
  "▁Jezrahel": 4405,
  "▁alterius": 4406,
  "▁dicentem": 4407,
  "▁divitias": 4408,
  "▁nationes": 4409,
  "▁vesperum": 4410,
  "▁Salomonem": 4411,
  "▁contradic": 4412,
  "▁profectus": 4413,
  "▁temporibus": 4414,
  "▁testamentum": 4415,
  "▁transierunt": 4416,
  "Co": 4417,
  "arc": 4418,
  "ard": 4419,
  "equ": 4420,
  "æis": 4421,
  "æos": 4422,
  "▁Sa": 4423,
  "andi": 4424,
  "omic": 4425,
  "osus": 4426,
  "▁Hev": 4427,
  "▁Jab": 4428,
  "▁Uri": 4429,
  "▁dam": 4430,
  "▁rub": 4431,
  "▁tes": 4432,
  "),\"\"\"": 4433,
  "enest": 4434,
  "iatur": 4435,
  "turus": 4436,
  "untia": 4437,
  "▁Carm": 4438,
  "▁Core": 4439,
  "▁Gers": 4440,
  "▁Seph": 4441,
  "▁amen": 4442,
  "▁exac": 4443,
  "▁præd": 4444,
  "▁unic": 4445,
  "quidem": 4446,
  "rentur": 4447,
  "▁Hebræ": 4448,
  "▁alium": 4449,
  "▁arbit": 4450,
  "▁arcum": 4451,
  "▁fames": 4452,
  "▁fœnum": 4453,
  "▁genus": 4454,
  "▁irasc": 4455,
  "▁istis": 4456,
  "▁lacum": 4457,
  "▁medit": 4458,
  "▁occas": 4459,
  "▁bibere": 4460,
  "▁cadent": 4461,
  "▁corrip": 4462,
  "▁detrah": 4463,
  "▁imagin": 4464,
  "▁plures": 4465,
  "▁poster": 4466,
  "▁præval": 4467,
  "▁quarta": 4468,
  "▁remiss": 4469,
  "▁sollic": 4470,
  "▁subjec": 4471,
  "▁surrex": 4472,
  "▁Hesebon": 4473,
  "▁Psalmus": 4474,
  "▁Samariæ": 4475,
  "▁ancillæ": 4476,
  "▁derelic": 4477,
  "▁doctrin": 4478,
  "▁ducenti": 4479,
  "▁epistol": 4480,
  "▁excelso": 4481,
  "▁existim": 4482,
  "▁feceris": 4483,
  "▁proximo": 4484,
  "▁quadrig": 4485,
  "▁statuit": 4486,
  "▁tempora": 4487,
  "▁ascendet": 4488,
  "▁operatur": 4489,
  "▁pauperes": 4490,
  "▁posuisti": 4491,
  "▁quisquam": 4492,
  "▁reliquum": 4493,
  "▁visitabo": 4494,
  "Benedicite": 4495,
  "▁audissent": 4496,
  "▁castrorum": 4497,
  "▁comedetis": 4498,
  "▁timuerunt": 4499,
  "▁vocabitur": 4500,
  "▁superexalt": 4501,
  "▁abominationes": 4502,
  "ja": 4503,
  "Nos": 4504,
  "ime": 4505,
  "Unde": 4506,
  "anim": 4507,
  "anti": 4508,
  "ioni": 4509,
  "ucur": 4510,
  "▁Hic": 4511,
  "▁Hor": 4512,
  "▁Mes": 4513,
  "▁Reb": 4514,
  "▁cup": 4515,
  "▁imb": 4516,
  "abile": 4517,
  "tatis": 4518,
  "▁Helc": 4519,
  "▁Isai": 4520,
  "▁Nunc": 4521,
  "▁Obed": 4522,
  "▁clyp": 4523,
  "▁urbe": 4524,
  "abiles": 4525,
  "amenta": 4526,
  "▁fiant": 4527,
  "▁homic": 4528,
  "▁jugum": 4529,
  "▁langu": 4530,
  "▁magni": 4531,
  "▁plang": 4532,
  "▁senes": 4533,
  "▁altero": 4534,
  "▁angust": 4535,
  "▁aureos": 4536,
  "▁idolis": 4537,
  "▁librum": 4538,
  "▁person": 4539,
  "▁rectum": 4540,
  "▁reddet": 4541,
  "▁stirpe": 4542,
  "▁superi": 4543,
  "▁ventum": 4544,
  "Postquam": 4545,
  "Surrexit": 4546,
  "▁conclus": 4547,
  "▁dixerat": 4548,
  "▁insuper": 4549,
  "▁itinere": 4550,
  "▁restitu": 4551,
  "▁septing": 4552,
  "▁sermone": 4553,
  "▁simplic": 4554,
  "▁veniens": 4555,
  "▁veniret": 4556,
  "▁Spiritum": 4557,
  "▁annuntia": 4558,
  "▁immundum": 4559,
  "▁videbunt": 4560,
  "▁Scriptura": 4561,
  "▁custodiam": 4562,
  "▁hæreditas": 4563,
  "▁possessio": 4564,
  "▁primitias": 4565,
  "▁quocumque": 4566,
  "▁diligenter": 4567,
  "▁accesserunt": 4568,
  "▁pacificorum": 4569,
  "▁sepelierunt": 4570,
  "Oc": 4571,
  "Com": 4572,
  "Rex": 4573,
  "ama": 4574,
  "asa": 4575,
  "aël": 4576,
  "nas": 4577,
  "rio": 4578,
  "uph": 4579,
  "urs": 4580,
  "uto": 4581,
  "▁Ip": 4582,
  "enda": 4583,
  "lata": 4584,
  "orta": 4585,
  "ulta": 4586,
  "▁Hoc": 4587,
  "▁Zeb": 4588,
  "▁cav": 4589,
  "▁cog": 4590,
  "▁sat": 4591,
  "untes": 4592,
  "▁Bana": 4593,
  "▁Jeth": 4594,
  "▁Rach": 4595,
  "▁Saph": 4596,
  "▁fluc": 4597,
  "▁indu": 4598,
  "▁prav": 4599,
  "▁sepa": 4600,
  "▁sors": 4601,
  "▁susp": 4602,
  "▁vini": 4603,
  "▁virg": 4604,
  "Videns": 4605,
  "▁Ochoz": 4606,
  "▁clang": 4607,
  "▁combu": 4608,
  "▁equos": 4609,
  "▁essem": 4610,
  "▁irrit": 4611,
  "▁minus": 4612,
  "▁occup": 4613,
  "▁scrut": 4614,
  "▁turbæ": 4615,
  "▁Merari": 4616,
  "▁Moabit": 4617,
  "▁consul": 4618,
  "▁exclam": 4619,
  "▁expugn": 4620,
  "▁fenest": 4621,
  "▁impius": 4622,
  "▁interi": 4623,
  "▁lapide": 4624,
  "▁occurr": 4625,
  "▁offend": 4626,
  "▁præput": 4627,
  "▁quinqu": 4628,
  "▁scitis": 4629,
  "▁secuti": 4630,
  "▁benefac": 4631,
  "▁dixisti": 4632,
  "▁montium": 4633,
  "▁obtulit": 4634,
  "▁pecunia": 4635,
  "▁proximi": 4636,
  "▁præcepi": 4637,
  "▁Issachar": 4638,
  "▁abstulit": 4639,
  "▁columnas": 4640,
  "▁ecclesiæ": 4641,
  "▁excelsum": 4642,
  "▁faciebat": 4643,
  "▁habitare": 4644,
  "▁incircum": 4645,
  "▁inventus": 4646,
  "▁parietem": 4647,
  "▁pastores": 4648,
  "▁universus": 4649,
  "▁vidissent": 4650,
  "▁discipulos": 4651,
  "▁iracundiam": 4652,
  "▁clamaverunt": 4653,
  "▁intrinsecus": 4654,
  "As": 4655,
  "Hæ": 4656,
  "uz": 4657,
  "Ali": 4658,
  "Est": 4659,
  "Mal": 4660,
  "Rec": 4661,
  "elu": 4662,
  "ges": 4663,
  "▁Da": 4664,
  "▁be": 4665,
  "Anim": 4666,
  "Meli": 4667,
  "agen": 4668,
  "ebas": 4669,
  "ensa": 4670,
  "lina": 4671,
  "rump": 4672,
  "urab": 4673,
  "▁Ber": 4674,
  "▁Pro": 4675,
  "▁abi": 4676,
  "▁agg": 4677,
  "▁dur": 4678,
  "▁flu": 4679,
  "▁vex": 4680,
  "estas": 4681,
  "neque": 4682,
  "ratia": 4683,
  "ratum": 4684,
  "sitan": 4685,
  "ursus": 4686,
  "▁Nath": 4687,
  "▁cong": 4688,
  "▁lect": 4689,
  "▁perf": 4690,
  "▁pron": 4691,
  "▁tuba": 4692,
  "▁vell": 4693,
  "endite": 4694,
  "itatus": 4695,
  "serunt": 4696,
  "▁Caleb": 4697,
  "▁Vivit": 4698,
  "▁affli": 4699,
  "▁agnum": 4700,
  "▁allig": 4701,
  "▁amici": 4702,
  "▁caten": 4703,
  "▁excep": 4704,
  "▁facio": 4705,
  "▁facto": 4706,
  "▁immut": 4707,
  "▁inced": 4708,
  "▁navig": 4709,
  "▁novit": 4710,
  "▁offic": 4711,
  "▁ostia": 4712,
  "▁pauci": 4713,
  "▁planc": 4714,
  "▁Abrahæ": 4715,
  "▁Esther": 4716,
  "▁Libani": 4717,
  "▁colloc": 4718,
  "▁contum": 4719,
  "▁egress": 4720,
  "▁genere": 4721,
  "▁melius": 4722,
  "▁occult": 4723,
  "▁possum": 4724,
  "▁quanto": 4725,
  "▁uxoris": 4726,
  "▁ventur": 4727,
  "▁vestig": 4728,
  "▁vineas": 4729,
  "▁vivere": 4730,
  "▁Israëli": 4731,
  "▁familiæ": 4732,
  "▁fortium": 4733,
  "▁oderunt": 4734,
  "▁ordinem": 4735,
  "▁plateis": 4736,
  "▁synagog": 4737,
  "▁tabulas": 4738,
  "▁Magister": 4739,
  "▁Samariam": 4740,
  "▁diluculo": 4741,
  "▁malitiam": 4742,
  "▁pauperem": 4743,
  "▁sexcenti": 4744,
  "▁superbiam": 4745,
  "▁videbitis": 4746,
  "▁familiarum": 4747,
  "▁occiderunt": 4748,
  "▁convenerunt": 4749,
  "▁campestribus": 4750,
  "▁ædificaverunt": 4751,
  "Ar": 4752,
  "Cor": 4753,
  "Ist": 4754,
  "Mem": 4755,
  "asi": 4756,
  "gum": 4757,
  "yph": 4758,
  "▁uv": 4759,
  "Cust": 4760,
  "Viri": 4761,
  "aban": 4762,
  "efac": 4763,
  "eras": 4764,
  "riet": 4765,
  "vent": 4766,
  "▁Cui": 4767,
  "▁Lys": 4768,
  "▁Mel": 4769,
  "▁ulc": 4770,
  "Multi": 4771,
  "Nonne": 4772,
  "Salut": 4773,
  "ellam": 4774,
  "secro": 4775,
  "▁Seme": 4776,
  "▁Silo": 4777,
  "▁azym": 4778,
  "▁bono": 4779,
  "▁expi": 4780,
  "▁para": 4781,
  "▁scis": 4782,
  "▁subs": 4783,
  "ationi": 4784,
  "ilicet": 4785,
  "opulus": 4786,
  "▁Emath": 4787,
  "▁Sinai": 4788,
  "▁dicam": 4789,
  "▁dilec": 4790,
  "▁elegi": 4791,
  "▁factæ": 4792,
  "▁humil": 4793,
  "▁lapis": 4794,
  "▁reman": 4795,
  "▁sciss": 4796,
  "▁tubis": 4797,
  "▁uxore": 4798,
  "▁Gedeon": 4799,
  "▁Judæam": 4800,
  "▁Paulum": 4801,
  "▁despic": 4802,
  "▁inferi": 4803,
  "▁malign": 4804,
  "▁similæ": 4805,
  "▁suffic": 4806,
  "▁tradam": 4807,
  "▁vallis": 4808,
  "▁veniam": 4809,
  "▁virgam": 4810,
  "▁Babylon": 4811,
  "▁armento": 4812,
  "▁contemn": 4813,
  "▁domibus": 4814,
  "▁habebis": 4815,
  "▁judicii": 4816,
  "▁liberis": 4817,
  "▁mittere": 4818,
  "▁accipere": 4819,
  "▁dixisset": 4820,
  "▁excelsis": 4821,
  "▁mensibus": 4822,
  "▁ostendam": 4823,
  "▁paululum": 4824,
  "▁reverter": 4825,
  "▁vigesimo": 4826,
  "▁confestim": 4827,
  "▁parabolam": 4828,
  "▁thesauros": 4829,
  "▁congregabo": 4830,
  "▁substantia": 4831,
  "▁apprehendit": 4832,
  "▁fortitudinem": 4833,
  "▁interrogavit": 4834,
  "▁primogenitus": 4835,
  "eu": 4836,
  "iz": 4837,
  "sæ": 4838,
  "eel": 4839,
  "nis": 4840,
  "sac": 4841,
  "tax": 4842,
  "Cant": 4843,
  "Ipsi": 4844,
  "apha": 4845,
  "endo": 4846,
  "ezer": 4847,
  "hiel": 4848,
  "▁Ahi": 4849,
  "▁Rag": 4850,
  "▁Rex": 4851,
  "▁bre": 4852,
  "Adhuc": 4853,
  "Trans": 4854,
  "alium": 4855,
  "athar": 4856,
  "avero": 4857,
  "escet": 4858,
  "hanan": 4859,
  "iatis": 4860,
  "itati": 4861,
  "rabis": 4862,
  "▁ambo": 4863,
  "▁cocc": 4864,
  "▁curr": 4865,
  "▁date": 4866,
  "▁dele": 4867,
  "▁odio": 4868,
  "▁sinu": 4869,
  "▁vulg": 4870,
  "Quando": 4871,
  "inarum": 4872,
  "inibus": 4873,
  "istere": 4874,
  "metips": 4875,
  "▁Achit": 4876,
  "▁Hiram": 4877,
  "▁colle": 4878,
  "▁duxit": 4879,
  "▁exerc": 4880,
  "▁frequ": 4881,
  "▁orbis": 4882,
  "▁salus": 4883,
  "▁tolle": 4884,
  "▁vadam": 4885,
  "▁vasis": 4886,
  "▁viduæ": 4887,
  "▁volat": 4888,
  "ientiam": 4889,
  "ientium": 4890,
  "issimam": 4891,
  "ivitque": 4892,
  "▁Patris": 4893,
  "▁grande": 4894,
  "▁habeat": 4895,
  "▁partur": 4896,
  "▁pessim": 4897,
  "▁preces": 4898,
  "▁quædam": 4899,
  "▁restit": 4900,
  "▁sæculo": 4901,
  "▁timeas": 4902,
  "▁turmas": 4903,
  "▁vultis": 4904,
  "▁Eliseus": 4905,
  "▁coronam": 4906,
  "▁dabitur": 4907,
  "▁dilexit": 4908,
  "▁equorum": 4909,
  "▁facitis": 4910,
  "▁nihilum": 4911,
  "▁oppress": 4912,
  "▁purific": 4913,
  "ueruntque": 4914,
  "▁Persarum": 4915,
  "▁angustia": 4916,
  "▁argentea": 4917,
  "▁exierunt": 4918,
  "▁insidias": 4919,
  "▁reliquiæ": 4920,
  "▁salutare": 4921,
  "▁scilicet": 4922,
  "▁secundus": 4923,
  "▁singulas": 4924,
  "▁temporis": 4925,
  "▁tenebras": 4926,
  "▁utrumque": 4927,
  "▁Pharaonem": 4928,
  "▁caritatem": 4929,
  "▁consuetud": 4930,
  "▁devorabit": 4931,
  "▁faciebant": 4932,
  "▁novissimo": 4933,
  "▁offeretis": 4934,
  "▁universas": 4935,
  "Dixeruntque": 4936,
  "▁comederunt": 4937,
  "▁indignatio": 4938,
  "▁loqueretur": 4939,
  "▁ministerio": 4940,
  "▁occidentem": 4941,
  "▁semetipsum": 4942,
  "▁substantiam": 4943,
  "▁primogenitum": 4944,
  "lu": 4945,
  "Die": 4946,
  "des": 4947,
  "man": 4948,
  "utæ": 4949,
  "▁Un": 4950,
  "▁væ": 4951,
  ")\"\"\"": 4952,
  "Dico": 4953,
  "adad": 4954,
  "alia": 4955,
  "amen": 4956,
  "ehon": 4957,
  "igil": 4958,
  "itam": 4959,
  "rass": 4960,
  "stit": 4961,
  "usus": 4962,
  "▁Dim": 4963,
  "▁Vos": 4964,
  "▁sib": 4965,
  "Abiit": 4966,
  "verat": 4967,
  "ymiam": 4968,
  "▁Abis": 4969,
  "▁Rabb": 4970,
  "▁Salv": 4971,
  "▁dulc": 4972,
  "▁hosp": 4973,
  "▁retr": 4974,
  "▁sect": 4975,
  "▁stud": 4976,
  "▁visc": 4977,
  "Etenim": 4978,
  "Facies": 4979,
  "estate": 4980,
  "▁Cades": 4981,
  "▁Rapha": 4982,
  "▁abjec": 4983,
  "▁bovem": 4984,
  "▁cepit": 4985,
  "▁dabis": 4986,
  "▁dilat": 4987,
  "▁dives": 4988,
  "▁gradi": 4989,
  "▁horde": 4990,
  "▁petra": 4991,
  "▁posui": 4992,
  "▁prost": 4993,
  "▁puero": 4994,
  "▁secus": 4995,
  "▁spont": 4996,
  "▁vinea": 4997,
  "escitis": 4998,
  "▁ascens": 4999,
  "▁centes": 5000,
  "▁cuncti": 5001,
  "▁delect": 5002,
  "▁leonis": 5003,
  "▁mascul": 5004,
  "▁mensam": 5005,
  "▁ovibus": 5006,
  "▁perfic": 5007,
  "▁vultum": 5008,
  "Dixerunt": 5009,
  "enderunt": 5010,
  "▁Ismahel": 5011,
  "▁auferam": 5012,
  "▁comedes": 5013,
  "▁comedet": 5014,
  "▁compreh": 5015,
  "▁cunctos": 5016,
  "▁deorsum": 5017,
  "▁gressus": 5018,
  "▁offeret": 5019,
  "▁placuit": 5020,
  "▁poteris": 5021,
  "▁semitas": 5022,
  "▁singula": 5023,
  "▁stabant": 5024,
  "▁thymiam": 5025,
  "▁videant": 5026,
  "▁videbit": 5027,
  "▁videret": 5028,
  "▁Evangeli": 5029,
  "▁carcerem": 5030,
  "▁dormivit": 5031,
  "▁eloquium": 5032,
  "▁faciatis": 5033,
  "▁imposuit": 5034,
  "▁occurrit": 5035,
  "▁terminum": 5036,
  "▁anniculos": 5037,
  "▁manducare": 5038,
  "▁ministrab": 5039,
  "▁persecuti": 5040,
  "▁velociter": 5041,
  "Feceruntque": 5042,
  "▁acceperunt": 5043,
  "▁interfecti": 5044,
  "▁sanctuario": 5045,
  "▁testimonia": 5046,
  "▁ingredietur": 5047,
  "Læ": 5048,
  "Ma": 5049,
  "Sac": 5050,
  "Ubi": 5051,
  "dus": 5052,
  "hab": 5053,
  "imp": 5054,
  "lib": 5055,
  "▁On": 5056,
  "Amen": 5057,
  "Desc": 5058,
  "Fuit": 5059,
  "alum": 5060,
  "icis": 5061,
  "ifex": 5062,
  "iger": 5063,
  "modi": 5064,
  "otam": 5065,
  "ravi": 5066,
  "▁Alt": 5067,
  "▁Cur": 5068,
  "▁Hab": 5069,
  "▁Int": 5070,
  "▁bis": 5071,
  "▁fov": 5072,
  "▁jud": 5073,
  "▁lic": 5074,
  "▁nox": 5075,
  "▁odi": 5076,
  "▁pus": 5077,
  "▁tem": 5078,
  "Inter": 5079,
  "Neque": 5080,
  "ibile": 5081,
  "iemus": 5082,
  "ionum": 5083,
  "itium": 5084,
  "licet": 5085,
  "oquin": 5086,
  "oseth": 5087,
  "▁aras": 5088,
  "▁cond": 5089,
  "▁fron": 5090,
  "▁inop": 5091,
  "▁spon": 5092,
  "▁Josiæ": 5093,
  "▁Michæ": 5094,
  "▁Omnis": 5095,
  "▁addux": 5096,
  "▁cœper": 5097,
  "▁datum": 5098,
  "▁effic": 5099,
  "▁licet": 5100,
  "▁matri": 5101,
  "▁notum": 5102,
  "▁oscul": 5103,
  "Psalmus": 5104,
  "atimque": 5105,
  "squequo": 5106,
  "▁Rachel": 5107,
  "▁ceteri": 5108,
  "▁conval": 5109,
  "▁duplic": 5110,
  "▁exhort": 5111,
  "▁membra": 5112,
  "▁obstup": 5113,
  "▁operum": 5114,
  "▁pugnam": 5115,
  "▁pulchr": 5116,
  "▁quanta": 5117,
  "▁reddam": 5118,
  "▁reprob": 5119,
  "▁testes": 5120,
  "▁vindem": 5121,
  "▁artific": 5122,
  "▁audisti": 5123,
  "▁deserti": 5124,
  "▁dæmonia": 5125,
  "▁extingu": 5126,
  "▁flagell": 5127,
  "▁loquere": 5128,
  "▁venimus": 5129,
  "▁aquilone": 5130,
  "▁audierit": 5131,
  "▁continuo": 5132,
  "▁extendit": 5133,
  "▁mandatis": 5134,
  "▁ministri": 5135,
  "▁occidere": 5136,
  "▁peribunt": 5137,
  "▁pervenit": 5138,
  "▁pontific": 5139,
  "▁scandali": 5140,
  "▁sepultus": 5141,
  "▁terminus": 5142,
  "▁testific": 5143,
  "▁visionem": 5144,
  "▁voluntas": 5145,
  "Benedictus": 5146,
  "▁exaudivit": 5147,
  "▁liberavit": 5148,
  "▁retrorsum": 5149,
  "▁latitudine": 5150,
  "▁recordatus": 5151,
  "▁regionibus": 5152,
  "▁latitudinem": 5153,
  "▁latitudinis": 5154,
  "▁tabernaculis": 5155,
  "▁interfecerunt": 5156,
  "▁tribulationis": 5157,
  "Ded": 5158,
  "Ter": 5159,
  "ico": 5160,
  "iph": 5161,
  "lud": 5162,
  "oum": 5163,
  "uth": 5164,
  "yro": 5165,
  "Clam": 5166,
  "Omne": 5167,
  "Quem": 5168,
  "abas": 5169,
  "acha": 5170,
  "alon": 5171,
  "etim": 5172,
  "heth": 5173,
  "icus": 5174,
  "itos": 5175,
  "rast": 5176,
  "verb": 5177,
  "▁Agn": 5178,
  "▁Naz": 5179,
  "▁Nun": 5180,
  "▁Rec": 5181,
  "▁aug": 5182,
  "▁cis": 5183,
  "▁fum": 5184,
  "▁ini": 5185,
  "▁ort": 5186,
  "Miser": 5187,
  "esima": 5188,
  "latus": 5189,
  "▁Bers": 5190,
  "▁Tyri": 5191,
  "▁adin": 5192,
  "▁avar": 5193,
  "▁deum": 5194,
  "▁diab": 5195,
  "▁egen": 5196,
  "▁inut": 5197,
  "▁ment": 5198,
  "▁mons": 5199,
  "▁nasc": 5200,
  "▁novi": 5201,
  "▁pers": 5202,
  "▁trem": 5203,
  "▁vali": 5204,
  "Verbum": 5205,
  "ratres": 5206,
  "uerint": 5207,
  "▁Laban": 5208,
  "▁Micha": 5209,
  "▁circu": 5210,
  "▁defer": 5211,
  "▁escam": 5212,
  "▁lacte": 5213,
  "▁leges": 5214,
  "▁lepra": 5215,
  "▁missi": 5216,
  "▁orbem": 5217,
  "ecundum": 5218,
  "▁Isaias": 5219,
  "▁Sancti": 5220,
  "▁adipem": 5221,
  "▁auream": 5222,
  "▁clamor": 5223,
  "▁exaudi": 5224,
  "▁flamma": 5225,
  "▁fontes": 5226,
  "▁fructu": 5227,
  "▁honore": 5228,
  "▁oravit": 5229,
  "▁pestil": 5230,
  "▁placet": 5231,
  "▁proteg": 5232,
  "▁quærit": 5233,
  "▁satura": 5234,
  "▁semini": 5235,
  "▁testis": 5236,
  "▁urbium": 5237,
  "▁venite": 5238,
  "▁vocavi": 5239,
  "dicentes": 5240,
  "endentes": 5241,
  "▁Ezechiæ": 5242,
  "▁Jonathæ": 5243,
  "▁Pilatus": 5244,
  "▁aliquis": 5245,
  "▁angusti": 5246,
  "▁appareb": 5247,
  "▁cadaver": 5248,
  "▁calceam": 5249,
  "▁cistern": 5250,
  "▁faciant": 5251,
  "▁irritum": 5252,
  "▁panibus": 5253,
  "▁peccati": 5254,
  "▁sororem": 5255,
  "▁stantem": 5256,
  "▁vidimus": 5257,
  "▁Amorrhæi": 5258,
  "▁canticum": 5259,
  "▁dispersi": 5260,
  "▁fecerant": 5261,
  "▁habuerit": 5262,
  "▁morieris": 5263,
  "▁occident": 5264,
  "▁potestas": 5265,
  "▁sabbatis": 5266,
  "▁transfer": 5267,
  "▁Antiochus": 5268,
  "▁convertam": 5269,
  "▁mortuorum": 5270,
  "▁resistere": 5271,
  "▁thesauris": 5272,
  "▁Mardochæus": 5273,
  "▁fundamenta": 5274,
  "▁habitabunt": 5275,
  "▁introduxit": 5276,
  "▁sepulchrum": 5277,
  "▁percusserit": 5278,
  "▁ambulaverunt": 5279,
  "▁dereliquerunt": 5280,
  "▁superexaltate": 5281,
  "Ph": 5282,
  "Jud": 5283,
  "ept": 5284,
  "rii": 5285,
  "rom": 5286,
  "sos": 5287,
  "▁Su": 5288,
  "▁æg": 5289,
  "Dorm": 5290,
  "Toll": 5291,
  "anda": 5292,
  "iosa": 5293,
  "rata": 5294,
  "ruit": 5295,
  "ypoc": 5296,
  "▁cit": 5297,
  "▁nob": 5298,
  "▁pep": 5299,
  "andam": 5300,
  "giter": 5301,
  "terum": 5302,
  "uique": 5303,
  "verti": 5304,
  "▁eram": 5305,
  "▁even": 5306,
  "▁rept": 5307,
  "▁stip": 5308,
  "▁turp": 5309,
  "▁usus": 5310,
  "abulum": 5311,
  "atique": 5312,
  "gesimo": 5313,
  "inadab": 5314,
  "onibus": 5315,
  "tiones": 5316,
  "▁Balac": 5317,
  "▁Melch": 5318,
  "▁bello": 5319,
  "▁bysso": 5320,
  "▁cilic": 5321,
  "▁cucur": 5322,
  "▁ducit": 5323,
  "▁eduxi": 5324,
  "▁infer": 5325,
  "▁intus": 5326,
  "▁nupti": 5327,
  "▁ordin": 5328,
  "▁potum": 5329,
  "▁psall": 5330,
  "▁redem": 5331,
  "▁spoli": 5332,
  "▁velum": 5333,
  "▁veste": 5334,
  "▁videt": 5335,
  "Locutus": 5336,
  "issemus": 5337,
  "▁Samson": 5338,
  "▁austra": 5339,
  "▁bestia": 5340,
  "▁colles": 5341,
  "▁disced": 5342,
  "▁duorum": 5343,
  "▁explor": 5344,
  "▁lacrim": 5345,
  "▁libera": 5346,
  "▁messis": 5347,
  "▁tergum": 5348,
  "▁turbas": 5349,
  "▁utique": 5350,
  "▁Joannis": 5351,
  "▁alteram": 5352,
  "▁angelis": 5353,
  "▁bestiis": 5354,
  "▁operuit": 5355,
  "▁pallium": 5356,
  "▁quærunt": 5357,
  "▁stantes": 5358,
  "▁venerat": 5359,
  "▁videbis": 5360,
  "▁Ægyptii": 5361,
  "▁Abiathar": 5362,
  "▁Bersabee": 5363,
  "▁Galilæam": 5364,
  "▁Sedecias": 5365,
  "▁conversi": 5366,
  "▁duxerunt": 5367,
  "▁imaginem": 5368,
  "▁loquetur": 5369,
  "▁oculorum": 5370,
  "▁profecti": 5371,
  "▁propinqu": 5372,
  "▁regiones": 5373,
  "▁virgines": 5374,
  "▁virtutes": 5375,
  "▁disperdam": 5376,
  "▁holocaust": 5377,
  "▁novissima": 5378,
  "▁videlicet": 5379,
  "▁ædificare": 5380,
  "▁Benedictus": 5381,
  "▁fortissimi": 5382,
  "▁holocausti": 5383,
  "▁ignominiam": 5384,
  "▁novissimis": 5385,
  "▁peccaverit": 5386,
  "▁pollicitus": 5387,
  "▁sacrificia": 5388,
  "▁testamenti": 5389,
  "▁peccaverunt": 5390,
  "▁vestimentis": 5391,
  "▁misericordiæ": 5392,
  "▁indignationem": 5393,
  "Inc": 5394,
  "Res": 5395,
  "Sub": 5396,
  "Sus": 5397,
  "dom": 5398,
  "don": 5399,
  "ind": 5400,
  "rui": 5401,
  "Laud": 5402,
  "Muli": 5403,
  "Serv": 5404,
  "acim": 5405,
  "dium": 5406,
  "lelu": 5407,
  "ties": 5408,
  "▁Esd": 5409,
  "▁God": 5410,
  "▁Gom": 5411,
  "▁Han": 5412,
  "▁Jas": 5413,
  "▁Nec": 5414,
  "▁adm": 5415,
  "▁bar": 5416,
  "▁jec": 5417,
  "▁uni": 5418,
  "iculo": 5419,
  "ortun": 5420,
  "▁Pasc": 5421,
  "▁boum": 5422,
  "▁vict": 5423,
  "abilem": 5424,
  "idisti": 5425,
  "ientis": 5426,
  "leluja": 5427,
  "▁Adhuc": 5428,
  "▁Jojad": 5429,
  "▁Sehon": 5430,
  "▁Tolle": 5431,
  "▁acerv": 5432,
  "▁agric": 5433,
  "▁incur": 5434,
  "▁infid": 5435,
  "▁matut": 5436,
  "▁ponet": 5437,
  "▁senex": 5438,
  "▁stans": 5439,
  "▁Godoli": 5440,
  "▁access": 5441,
  "▁comput": 5442,
  "▁concit": 5443,
  "▁confug": 5444,
  "▁conter": 5445,
  "▁deorum": 5446,
  "▁dignus": 5447,
  "▁fontem": 5448,
  "▁germen": 5449,
  "▁inebri": 5450,
  "▁levavi": 5451,
  "▁octavo": 5452,
  "▁omnino": 5453,
  "▁operis": 5454,
  "▁plenus": 5455,
  "▁scelus": 5456,
  "▁victor": 5457,
  "ursumque": 5458,
  "▁Galilæa": 5459,
  "▁carcere": 5460,
  "▁dicetis": 5461,
  "▁divisit": 5462,
  "▁fiducia": 5463,
  "▁furorem": 5464,
  "▁hostiam": 5465,
  "▁oblitus": 5466,
  "▁oriente": 5467,
  "▁secutus": 5468,
  "▁stultus": 5469,
  "▁tradidi": 5470,
  "▁transib": 5471,
  "▁Salomoni": 5472,
  "▁custodit": 5473,
  "▁exemplum": 5474,
  "▁fecisset": 5475,
  "▁memoriam": 5476,
  "▁parvulus": 5477,
  "▁perambul": 5478,
  "▁potentes": 5479,
  "▁scientes": 5480,
  "▁transire": 5481,
  "▁ultionem": 5482,
  "▁vidistis": 5483,
  "averuntque": 5484,
  "gressusque": 5485,
  "▁Respondit": 5486,
  "▁ambulavit": 5487,
  "▁dimittere": 5488,
  "▁facientes": 5489,
  "▁habitabit": 5490,
  "▁principis": 5491,
  "▁scandaliz": 5492,
  "▁succendit": 5493,
  "▁bellatores": 5494,
  "▁dimiserunt": 5495,
  "▁oblationem": 5496,
  "▁revertatur": 5497,
  "▁sacrificio": 5498,
  "▁Ægyptiorum": 5499,
  "▁incircumcis": 5500,
  "▁interficiam": 5501,
  "▁nuntiaverunt": 5502,
  "Car": 5503,
  "His": 5504,
  "Pos": 5505,
  "Sem": 5506,
  "eos": 5507,
  "ica": 5508,
  "pro": 5509,
  "rap": 5510,
  "vam": 5511,
  "▁Væ": 5512,
  "Paul": 5513,
  "ater": 5514,
  "hath": 5515,
  "uero": 5516,
  "▁Cis": 5517,
  "▁Hai": 5518,
  "▁Oph": 5519,
  "▁Sep": 5520,
  "▁Vir": 5521,
  "▁Voc": 5522,
  "▁fit": 5523,
  "▁fix": 5524,
  "▁gal": 5525,
  "▁oss": 5526,
  "▁reb": 5527,
  "dique": 5528,
  "entio": 5529,
  "estig": 5530,
  "isque": 5531,
  "verit": 5532,
  "▁Arab": 5533,
  "▁Erat": 5534,
  "▁Græc": 5535,
  "▁Homo": 5536,
  "▁boni": 5537,
  "▁cith": 5538,
  "▁crud": 5539,
  "▁equi": 5540,
  "▁frig": 5541,
  "▁heri": 5542,
  "▁ibat": 5543,
  "▁lanc": 5544,
  "▁plan": 5545,
  "▁sati": 5546,
  "▁taur": 5547,
  "iculam": 5548,
  "iendum": 5549,
  "inquin": 5550,
  "orific": 5551,
  "unctus": 5552,
  "▁Judææ": 5553,
  "▁cibos": 5554,
  "▁incly": 5555,
  "▁injur": 5556,
  "▁insta": 5557,
  "▁latus": 5558,
  "▁malis": 5559,
  "▁nullo": 5560,
  "▁retro": 5561,
  "▁satis": 5562,
  "▁setim": 5563,
  "itionis": 5564,
  "osollam": 5565,
  "▁Baruch": 5566,
  "▁Jojada": 5567,
  "▁Judith": 5568,
  "▁Ramoth": 5569,
  "▁Saphan": 5570,
  "▁amicos": 5571,
  "▁amicus": 5572,
  "▁diffic": 5573,
  "▁dilect": 5574,
  "▁ferrum": 5575,
  "▁longin": 5576,
  "▁primit": 5577,
  "▁quarto": 5578,
  "▁quiesc": 5579,
  "▁salvos": 5580,
  "▁sciens": 5581,
  "▁sponte": 5582,
  "▁stulti": 5583,
  "▁subdit": 5584,
  "▁turbam": 5585,
  "▁ventil": 5586,
  "▁ventus": 5587,
  "▁vivens": 5588,
  "Ascendit": 5589,
  "▁Jeremiæ": 5590,
  "▁Johanan": 5591,
  "▁accipit": 5592,
  "▁bestias": 5593,
  "▁caritas": 5594,
  "▁complet": 5595,
  "▁confess": 5596,
  "▁creavit": 5597,
  "▁daturus": 5598,
  "▁egressa": 5599,
  "▁ejusdem": 5600,
  "▁habitac": 5601,
  "▁hostium": 5602,
  "▁inventa": 5603,
  "▁inventi": 5604,
  "▁jugiter": 5605,
  "▁laborem": 5606,
  "▁loquens": 5607,
  "▁mortuos": 5608,
  "▁perfect": 5609,
  "▁pervers": 5610,
  "▁polluta": 5611,
  "▁præsens": 5612,
  "▁repente": 5613,
  "▁sabbato": 5614,
  "▁sanctos": 5615,
  "▁servire": 5616,
  "▁species": 5617,
  "▁tertius": 5618,
  "▁viderit": 5619,
  "Similiter": 5620,
  "▁Babylone": 5621,
  "▁Manasses": 5622,
  "▁corporis": 5623,
  "▁crucifix": 5624,
  "▁deinceps": 5625,
  "▁elegerit": 5626,
  "▁hostibus": 5627,
  "▁implevit": 5628,
  "▁jumentis": 5629,
  "▁miserere": 5630,
  "▁noctibus": 5631,
  "▁particip": 5632,
  "▁parvulos": 5633,
  "▁pontifex": 5634,
  "▁potestis": 5635,
  "▁rationem": 5636,
  "▁suscepit": 5637,
  "▁triticum": 5638,
  "▁volumine": 5639,
  "▁centesimo": 5640,
  "▁ecclesiam": 5641,
  "▁generatio": 5642,
  "▁introitum": 5643,
  "▁priusquam": 5644,
  "▁adduxerunt": 5645,
  "▁transtulit": 5646,
  "▁candelabrum": 5647,
  "▁generatione": 5648,
  "▁recesserunt": 5649,
  "▁surrexerunt": 5650,
  "▁quadringenti": 5651,
  "▁justificationes": 5652,
  "Am": 5653,
  "Att": 5654,
  "Vox": 5655,
  "aal": 5656,
  "dos": 5657,
  "esb": 5658,
  "ido": 5659,
  "ipe": 5660,
  "par": 5661,
  "rot": 5662,
  "uge": 5663,
  "viæ": 5664,
  "voc": 5665,
  "▁Ut": 5666,
  "Aper": 5667,
  "Conc": 5668,
  "Dies": 5669,
  "Homo": 5670,
  "Prin": 5671,
  "Unus": 5672,
  "alim": 5673,
  "aram": 5674,
  "atas": 5675,
  "cumb": 5676,
  "illa": 5677,
  "inde": 5678,
  "olum": 5679,
  "ster": 5680,
  "uran": 5681,
  "▁Cen": 5682,
  "▁Jop": 5683,
  "▁Nin": 5684,
  "▁Seb": 5685,
  "▁bos": 5686,
  "▁fud": 5687,
  "▁fun": 5688,
  "▁juv": 5689,
  "▁lud": 5690,
  "▁pil": 5691,
  "Habit": 5692,
  "aturæ": 5693,
  "iadem": 5694,
  "iamur": 5695,
  "inees": 5696,
  "ligit": 5697,
  "ollam": 5698,
  "▁Barn": 5699,
  "▁Beel": 5700,
  "▁Euph": 5701,
  "▁Melc": 5702,
  "▁Quam": 5703,
  "▁Saba": 5704,
  "▁Them": 5705,
  "▁clar": 5706,
  "▁etsi": 5707,
  "▁frug": 5708,
  "▁irru": 5709,
  "▁jung": 5710,
  "▁osti": 5711,
  "▁volo": 5712,
  "▁vota": 5713,
  "Circum": 5714,
  "cussit": 5715,
  "ortare": 5716,
  "▁Amnon": 5717,
  "▁Baasa": 5718,
  "▁Jabes": 5719,
  "▁Susan": 5720,
  "▁adimp": 5721,
  "▁dedic": 5722,
  "▁inund": 5723,
  "▁recon": 5724,
  "▁ritum": 5725,
  "▁secre": 5726,
  "abitque": 5727,
  "gredere": 5728,
  "odecimo": 5729,
  "▁accinc": 5730,
  "▁amicum": 5731,
  "▁animal": 5732,
  "▁commor": 5733,
  "▁compos": 5734,
  "▁dissol": 5735,
  "▁gratiæ": 5736,
  "▁impium": 5737,
  "▁implet": 5738,
  "▁leonum": 5739,
  "▁luctum": 5740,
  "▁lumine": 5741,
  "▁mansit": 5742,
  "▁percip": 5743,
  "▁periit": 5744,
  "▁posita": 5745,
  "▁posset": 5746,
  "▁pueros": 5747,
  "▁quarum": 5748,
  "▁quinta": 5749,
  "▁scidit": 5750,
  "▁scriba": 5751,
  "▁sortem": 5752,
  "▁terris": 5753,
  "▁vestes": 5754,
  "▁volens": 5755,
  "dixitque": 5756,
  "▁Euphrat": 5757,
  "▁Simonem": 5758,
  "▁auditum": 5759,
  "▁brachio": 5760,
  "▁cognovi": 5761,
  "▁commend": 5762,
  "▁diceret": 5763,
  "▁discumb": 5764,
  "▁equitum": 5765,
  "▁facient": 5766,
  "▁futurum": 5767,
  "▁haberet": 5768,
  "▁linguis": 5769,
  "▁lætific": 5770,
  "▁nominis": 5771,
  "▁reliqua": 5772,
  "▁surgens": 5773,
  "▁tabulis": 5774,
  "▁timorem": 5775,
  "▁undecim": 5776,
  "▁undique": 5777,
  "▁vocifer": 5778,
  "▁Mosollam": 5779,
  "▁Pharaoni": 5780,
  "▁adinvent": 5781,
  "▁aspectus": 5782,
  "▁carnibus": 5783,
  "▁dimittam": 5784,
  "▁dixistis": 5785,
  "▁dæmonium": 5786,
  "▁fueritis": 5787,
  "▁investig": 5788,
  "▁meretric": 5789,
  "▁perrexit": 5790,
  "▁quippiam": 5791,
  "▁sedentem": 5792,
  "▁trecenti": 5793,
  "▁viventem": 5794,
  "▁volucres": 5795,
  "▁Demetrius": 5796,
  "▁ascendere": 5797,
  "▁contumeli": 5798,
  "▁invenerit": 5799,
  "▁judicabit": 5800,
  "▁loquentes": 5801,
  "▁prudentia": 5802,
  "▁præceptis": 5803,
  "▁transibit": 5804,
  "▁vestrarum": 5805,
  "▁audieritis": 5806,
  "▁habitantes": 5807,
  "▁necessaria": 5808,
  "▁persecutus": 5809,
  "▁sacerdotio": 5810,
  "▁verumtamen": 5811,
  "▁confusionem": 5812,
  "▁interficere": 5813,
  "▁magistratus": 5814,
  "▁possederunt": 5815,
  "▁descenderunt": 5816,
  "▁habitatoribus": 5817,
  "Ins": 5818,
  "Par": 5819,
  "Quo": 5820,
  "Red": 5821,
  "Sex": 5822,
  "Tim": 5823,
  "ait": 5824,
  "dis": 5825,
  "lon": 5826,
  "ooz": 5827,
  "sic": 5828,
  "ure": 5829,
  "Nemo": 5830,
  "alam": 5831,
  "cili": 5832,
  "elem": 5833,
  "esse": 5834,
  "illi": 5835,
  "imam": 5836,
  "isus": 5837,
  "plex": 5838,
  "rips": 5839,
  "uens": 5840,
  "ugit": 5841,
  "▁Cor": 5842,
  "▁Ner": 5843,
  "▁fod": 5844,
  "▁gub": 5845,
  "▁mir": 5846,
  "▁ora": 5847,
  "▁rei": 5848,
  "▁vix": 5849,
  "abili": 5850,
  "achin": 5851,
  "asper": 5852,
  "endas": 5853,
  "iator": 5854,
  "icula": 5855,
  "rimis": 5856,
  "ruxit": 5857,
  "teret": 5858,
  "▁Phal": 5859,
  "▁Serv": 5860,
  "▁Unde": 5861,
  "▁alas": 5862,
  "▁elig": 5863,
  "▁erig": 5864,
  "▁jurg": 5865,
  "▁lass": 5866,
  "▁luna": 5867,
  "▁muro": 5868,
  "▁pell": 5869,
  "▁tinc": 5870,
  "▁torm": 5871,
  "▁Ælam": 5872,
  "Confit": 5873,
  "Filius": 5874,
  "▁Achis": 5875,
  "▁Eliam": 5876,
  "▁Nabat": 5877,
  "▁agere": 5878,
  "▁aliam": 5879,
  "▁annus": 5880,
  "▁belli": 5881,
  "▁calig": 5882,
  "▁didic": 5883,
  "▁donum": 5884,
  "▁emund": 5885,
  "▁fores": 5886,
  "▁gente": 5887,
  "▁lutum": 5888,
  "▁mensa": 5889,
  "▁refug": 5890,
  "▁sedes": 5891,
  "▁solet": 5892,
  "▁ubera": 5893,
  "▁venio": 5894,
  "▁vides": 5895,
  "▁volup": 5896,
  "Convert": 5897,
  "ietatem": 5898,
  "▁Gerson": 5899,
  "▁Jojadæ": 5900,
  "▁Machab": 5901,
  "▁Sarviæ": 5902,
  "▁Venite": 5903,
  "▁advenæ": 5904,
  "▁assist": 5905,
  "▁audito": 5906,
  "▁dabunt": 5907,
  "▁fratre": 5908,
  "▁incens": 5909,
  "▁inique": 5910,
  "▁irruit": 5911,
  "▁juravi": 5912,
  "▁labore": 5913,
  "▁lepros": 5914,
  "▁locuta": 5915,
  "▁missus": 5916,
  "▁mittet": 5917,
  "▁nondum": 5918,
  "▁parati": 5919,
  "▁pisces": 5920,
  "▁potius": 5921,
  "▁prælio": 5922,
  "▁reprom": 5923,
  "▁rursus": 5924,
  "▁salvus": 5925,
  "▁senect": 5926,
  "▁sursum": 5927,
  "▁videbo": 5928,
  "Profecti": 5929,
  "Secundum": 5930,
  "itudines": 5931,
  "▁Azarias": 5932,
  "▁Benadad": 5933,
  "▁erubesc": 5934,
  "▁intrare": 5935,
  "▁malorum": 5936,
  "▁mensuræ": 5937,
  "▁parvuli": 5938,
  "▁pessima": 5939,
  "▁proverb": 5940,
  "▁psalter": 5941,
  "▁reversa": 5942,
  "▁abundant": 5943,
  "▁carceris": 5944,
  "▁caritate": 5945,
  "▁cognomin": 5946,
  "▁communic": 5947,
  "▁concepit": 5948,
  "▁fluminis": 5949,
  "▁fortiter": 5950,
  "▁hyacinth": 5951,
  "▁libamina": 5952,
  "▁misertus": 5953,
  "▁mulieris": 5954,
  "▁peccavit": 5955,
  "▁synagoga": 5956,
  "▁venerant": 5957,
  "▁verticem": 5958,
  "▁Nequaquam": 5959,
  "▁doctrinam": 5960,
  "▁indicavit": 5961,
  "▁liberabit": 5962,
  "▁nonaginta": 5963,
  "▁optimates": 5964,
  "▁percutiam": 5965,
  "▁purissimo": 5966,
  "▁quærebant": 5967,
  "▁subvertit": 5968,
  "▁suscitabo": 5969,
  "▁unicuique": 5970,
  "▁abundantia": 5971,
  "▁jumentorum": 5972,
  "▁servierunt": 5973,
  "▁suburbanis": 5974,
  "Responderunt": 5975,
  "▁cognationum": 5976,
  "▁longitudine": 5977,
  "▁septingenti": 5978,
  "▁possessionis": 5979,
  "▁generationibus": 5980,
  "Im": 5981,
  "næ": 5982,
  "æo": 5983,
  "ër": 5984,
  "Sum": 5985,
  "gna": 5986,
  "hiæ": 5987,
  "sam": 5988,
  "zer": 5989,
  "▁Hi": 5990,
  "Ille": 5991,
  "Spir": 5992,
  "atic": 5993,
  "erez": 5994,
  "lant": 5995,
  "oque": 5996,
  "orob": 5997,
  "▁Bac": 5998,
  "▁Mal": 5999,
  "▁Nam": 6000,
  "▁Sis": 6001,
  "▁jug": 6002,
  "▁pes": 6003,
  "▁rug": 6004,
  "▁tit": 6005,
  "Anima": 6006,
  "achaz": 6007,
  "idens": 6008,
  "ienti": 6009,
  "illos": 6010,
  "minis": 6011,
  "▁Cain": 6012,
  "▁Cham": 6013,
  "▁Gess": 6014,
  "▁Maas": 6015,
  "▁Præc": 6016,
  "▁acet": 6017,
  "▁cern": 6018,
  "▁dolo": 6019,
  "▁haur": 6020,
  "▁odit": 6021,
  "▁pane": 6022,
  "▁purg": 6023,
  "▁quer": 6024,
  "▁spic": 6025,
  "Beatus": 6026,
  "atoris": 6027,
  "eratis": 6028,
  "itione": 6029,
  "quando": 6030,
  "▁Dixit": 6031,
  "▁Ezech": 6032,
  "▁Omnia": 6033,
  "▁consp": 6034,
  "▁dimic": 6035,
  "▁disco": 6036,
  "▁divin": 6037,
  "▁fugam": 6038,
  "▁fumus": 6039,
  "▁hypoc": 6040,
  "▁immin": 6041,
  "▁indig": 6042,
  "▁insan": 6043,
  "▁invid": 6044,
  "▁libri": 6045,
  "▁magnæ": 6046,
  "▁maled": 6047,
  "▁melle": 6048,
  "▁minor": 6049,
  "▁mitte": 6050,
  "▁mutuo": 6051,
  "▁naves": 6052,
  "▁nulla": 6053,
  "▁pecus": 6054,
  "▁solio": 6055,
  "▁sorte": 6056,
  "▁totam": 6057,
  "abimini": 6058,
  "▁Baalim": 6059,
  "▁Pherez": 6060,
  "▁Sellum": 6061,
  "▁alteri": 6062,
  "▁benign": 6063,
  "▁dignum": 6064,
  "▁dispos": 6065,
  "▁erimus": 6066,
  "▁fornac": 6067,
  "▁gentis": 6068,
  "▁gratis": 6069,
  "▁impetu": 6070,
  "▁introë": 6071,
  "▁latron": 6072,
  "▁locust": 6073,
  "▁macula": 6074,
  "▁mortua": 6075,
  "▁pastor": 6076,
  "▁prodig": 6077,
  "▁rebell": 6078,
  "▁satrap": 6079,
  "▁scimus": 6080,
  "▁sedens": 6081,
  "▁vallem": 6082,
  "Videntes": 6083,
  "metipsos": 6084,
  "orobabel": 6085,
  "ropterea": 6086,
  "▁Ascende": 6087,
  "▁Damasci": 6088,
  "▁Joachaz": 6089,
  "▁Medorum": 6090,
  "▁altaria": 6091,
  "▁auditis": 6092,
  "▁distrib": 6093,
  "▁divites": 6094,
  "▁egerunt": 6095,
  "▁homicid": 6096,
  "▁inducam": 6097,
  "▁lavabit": 6098,
  "▁necesse": 6099,
  "▁reducam": 6100,
  "▁repleta": 6101,
  "▁sabbata": 6102,
  "▁sonitus": 6103,
  "▁tertium": 6104,
  "▁idolorum": 6105,
  "▁ingressa": 6106,
  "▁lacrimis": 6107,
  "▁litteras": 6108,
  "▁loquente": 6109,
  "▁multorum": 6110,
  "▁opportun": 6111,
  "▁parvulis": 6112,
  "▁persever": 6113,
  "▁responde": 6114,
  "▁sagittas": 6115,
  "▁venturus": 6116,
  "▁ascendens": 6117,
  "▁assumpsit": 6118,
  "▁convertit": 6119,
  "▁cubiculum": 6120,
  "▁devoravit": 6121,
  "▁introivit": 6122,
  "▁morientur": 6123,
  "▁nuntiatum": 6124,
  "▁placuerit": 6125,
  "▁portantes": 6126,
  "▁propitius": 6127,
  "▁scandalum": 6128,
  "▁vindictam": 6129,
  "▁vocabatur": 6130,
  "▁voluntate": 6131,
  "▁Antiochiam": 6132,
  "▁nationibus": 6133,
  "▁præpositus": 6134,
  "▁sequebatur": 6135,
  "▁terribilis": 6136,
  "▁vestibulum": 6137,
  "Responditque": 6138,
  "▁Amorrhæorum": 6139,
  "▁Philisthæos": 6140,
  "▁longitudinis": 6141,
  "oh": 6142,
  "Læt": 6143,
  "Pet": 6144,
  "diu": 6145,
  "ona": 6146,
  "rut": 6147,
  "yma": 6148,
  "▁Il": 6149,
  "▁La": 6150,
  "▁Ra": 6151,
  "▁do": 6152,
  "▁sæ": 6153,
  "▁æs": 6154,
  "Noli": 6155,
  "Surg": 6156,
  "ecce": 6157,
  "emos": 6158,
  "entæ": 6159,
  "olus": 6160,
  "pice": 6161,
  "unda": 6162,
  "▁Bel": 6163,
  "▁cer": 6164,
  "▁lor": 6165,
  "▁mus": 6166,
  ".)\"\"\"": 6167,
  "achis": 6168,
  "ertur": 6169,
  "ibant": 6170,
  "iebam": 6171,
  "illis": 6172,
  "misit": 6173,
  "tores": 6174,
  "▁Abia": 6175,
  "▁Booz": 6176,
  "▁Mich": 6177,
  "▁Viri": 6178,
  "▁clav": 6179,
  "▁emin": 6180,
  "▁ephi": 6181,
  "▁frag": 6182,
  "▁hymn": 6183,
  "▁junc": 6184,
  "▁misc": 6185,
  "▁muri": 6186,
  "▁obsc": 6187,
  "▁reus": 6188,
  "▁sord": 6189,
  "▁trah": 6190,
  "▁verm": 6191,
  "▁vuln": 6192,
  "Sacerd": 6193,
  "Videte": 6194,
  "amento": 6195,
  "aticin": 6196,
  "ellect": 6197,
  "uerant": 6198,
  "Ædific": 6199,
  "▁Absit": 6200,
  "▁Anath": 6201,
  "▁Arnon": 6202,
  "▁Etiam": 6203,
  "▁Masph": 6204,
  "▁Paulo": 6205,
  "▁Super": 6206,
  "▁adjic": 6207,
  "▁amico": 6208,
  "▁bobus": 6209,
  "▁cadet": 6210,
  "▁campo": 6211,
  "▁cæcus": 6212,
  "▁depos": 6213,
  "▁dolor": 6214,
  "▁fiunt": 6215,
  "▁genua": 6216,
  "▁ibant": 6217,
  "▁majus": 6218,
  "▁oculo": 6219,
  "▁ortus": 6220,
  "▁quæso": 6221,
  "▁quæst": 6222,
  "▁robur": 6223,
  "▁sibil": 6224,
  "▁solem": 6225,
  "▁tonit": 6226,
  "▁vidua": 6227,
  "itudini": 6228,
  "ordecim": 6229,
  "rabitis": 6230,
  "▁Ismaël": 6231,
  "▁Libano": 6232,
  "▁asinum": 6233,
  "▁comede": 6234,
  "▁commut": 6235,
  "▁concep": 6236,
  "▁conjug": 6237,
  "▁cooper": 6238,
  "▁diadem": 6239,
  "▁dicant": 6240,
  "▁dormit": 6241,
  "▁flevit": 6242,
  "▁hircos": 6243,
  "▁incurv": 6244,
  "▁iniqui": 6245,
  "▁lectum": 6246,
  "▁linguæ": 6247,
  "▁magnis": 6248,
  "▁menses": 6249,
  "▁merces": 6250,
  "▁myster": 6251,
  "▁nullum": 6252,
  "▁plebem": 6253,
  "▁portis": 6254,
  "▁potuit": 6255,
  "▁produc": 6256,
  "▁pulvis": 6257,
  "▁quinto": 6258,
  "▁remitt": 6259,
  "▁simile": 6260,
  "▁torcul": 6261,
  "▁ulcisc": 6262,
  "▁vident": 6263,
  "Egressus": 6264,
  "Venerunt": 6265,
  "cujusque": 6266,
  "▁Accaron": 6267,
  "▁Amasias": 6268,
  "▁Dimitte": 6269,
  "▁Galilææ": 6270,
  "▁Phinees": 6271,
  "▁Simonis": 6272,
  "▁ambulat": 6273,
  "▁audiens": 6274,
  "▁audiunt": 6275,
  "▁austrum": 6276,
  "▁calicem": 6277,
  "▁comedat": 6278,
  "▁corpora": 6279,
  "▁dimidiæ": 6280,
  "▁dimitte": 6281,
  "▁effudit": 6282,
  "▁indutus": 6283,
  "▁maximum": 6284,
  "▁meridie": 6285,
  "▁ossibus": 6286,
  "▁possent": 6287,
  "▁pulchra": 6288,
  "▁quantum": 6289,
  "▁reddere": 6290,
  "▁scelera": 6291,
  "▁teipsum": 6292,
  "▁totidem": 6293,
  "▁vincula": 6294,
  "reptionem": 6295,
  "▁accessit": 6296,
  "▁ambulant": 6297,
  "▁ancillam": 6298,
  "▁animalia": 6299,
  "▁coinquin": 6300,
  "▁conteram": 6301,
  "▁dilectus": 6302,
  "▁fermento": 6303,
  "▁frumenti": 6304,
  "▁gregibus": 6305,
  "▁parentes": 6306,
  "▁plurimos": 6307,
  "▁quemquam": 6308,
  "▁salvabit": 6309,
  "▁signific": 6310,
  "▁tradetur": 6311,
  "▁usquequo": 6312,
  "▁Zorobabel": 6313,
  "▁egreditur": 6314,
  "▁gratiarum": 6315,
  "▁honorific": 6316,
  "▁hyacintho": 6317,
  "▁interitum": 6318,
  "▁invocatum": 6319,
  "▁janitores": 6320,
  "▁patientia": 6321,
  "▁reconcili": 6322,
  "▁summitate": 6323,
  "▁supellect": 6324,
  "▁tentorium": 6325,
  "▁veniebant": 6326,
  "▁venientes": 6327,
  "▁viventium": 6328,
  "▁considerat": 6329,
  "▁misericors": 6330,
  "▁omnipotens": 6331,
  "▁pugnatorum": 6332,
  "▁statuerunt": 6333,
  "▁vestimento": 6334,
  "▁confidenter": 6335,
  "▁immaculatos": 6336,
  "▁imposuerunt": 6337,
  "▁pugnaverunt": 6338,
  "▁regnavitque": 6339,
  "▁indignatione": 6340,
  "▁quatuordecim": 6341,
  "▁circumdederunt": 6342,
  "ct": 6343,
  "mæ": 6344,
  "Div": 6345,
  "Pon": 6346,
  "Sap": 6347,
  "ave": 6348,
  "ede": 6349,
  "ene": 6350,
  "err": 6351,
  "ivo": 6352,
  "rux": 6353,
  "ubi": 6354,
  "ymb": 6355,
  "ymp": 6356,
  "▁Cy": 6357,
  "▁Og": 6358,
  "▁ro": 6359,
  "▁ur": 6360,
  "Audi": 6361,
  "Sanc": 6362,
  "Vade": 6363,
  "ello": 6364,
  "elus": 6365,
  "entu": 6366,
  "etit": 6367,
  "ides": 6368,
  "imil": 6369,
  "piam": 6370,
  "utem": 6371,
  "▁Aff": 6372,
  "▁Haz": 6373,
  "▁Pax": 6374,
  "▁Pha": 6375,
  "▁Put": 6376,
  "▁Quo": 6377,
  "▁alb": 6378,
  "▁far": 6379,
  "▁gut": 6380,
  "▁juc": 6381,
  "▁ori": 6382,
  "▁sar": 6383,
  "Beati": 6384,
  "Judic": 6385,
  "Memor": 6386,
  "acula": 6387,
  "endos": 6388,
  "esset": 6389,
  "estin": 6390,
  "ratis": 6391,
  "retis": 6392,
  "tulit": 6393,
  "venit": 6394,
  "▁Amos": 6395,
  "▁Surg": 6396,
  "▁Thar": 6397,
  "▁caud": 6398,
  "▁damn": 6399,
  "▁epul": 6400,
  "▁lact": 6401,
  "▁lamp": 6402,
  "▁mœch": 6403,
  "▁onus": 6404,
  "▁pend": 6405,
  "▁siti": 6406,
  "▁tubæ": 6407,
  "▁urbs": 6408,
  "Gratia": 6409,
  "arific": 6410,
  "ebimus": 6411,
  "entque": 6412,
  "ominus": 6413,
  "opotam": 6414,
  "rentes": 6415,
  "▁agros": 6416,
  "▁bibit": 6417,
  "▁capit": 6418,
  "▁colli": 6419,
  "▁debet": 6420,
  "▁decep": 6421,
  "▁deris": 6422,
  "▁famem": 6423,
  "▁ficus": 6424,
  "▁justa": 6425,
  "▁morti": 6426,
  "▁nativ": 6427,
  "▁palli": 6428,
  "▁parad": 6429,
  "▁pedem": 6430,
  "▁prior": 6431,
  "▁recta": 6432,
  "▁renes": 6433,
  "▁summo": 6434,
  "▁surge": 6435,
  "▁visio": 6436,
  "Fratres": 6437,
  "iderant": 6438,
  "▁Abisai": 6439,
  "▁Lachis": 6440,
  "▁Maacha": 6441,
  "▁Maspha": 6442,
  "▁Pascha": 6443,
  "▁Raguel": 6444,
  "▁alieni": 6445,
  "▁asinos": 6446,
  "▁consue": 6447,
  "▁currum": 6448,
  "▁dimiss": 6449,
  "▁docens": 6450,
  "▁duabus": 6451,
  "▁gregis": 6452,
  "▁hircum": 6453,
  "▁impios": 6454,
  "▁intrav": 6455,
  "▁juvent": 6456,
  "▁lumbos": 6457,
  "▁multam": 6458,
  "▁platea": 6459,
  "▁provid": 6460,
  "▁specul": 6461,
  "▁spirit": 6462,
  "▁subito": 6463,
  "▁subjic": 6464,
  "▁sublev": 6465,
  "ruxerunt": 6466,
  "▁Benedic": 6467,
  "▁complac": 6468,
  "▁conflat": 6469,
  "▁decimam": 6470,
  "▁dolorem": 6471,
  "▁exasper": 6472,
  "▁fecimus": 6473,
  "▁grandis": 6474,
  "▁immunda": 6475,
  "▁judicas": 6476,
  "▁liberos": 6477,
  "▁militum": 6478,
  "▁moritur": 6479,
  "▁nubibus": 6480,
  "▁offerre": 6481,
  "▁ostende": 6482,
  "▁patiens": 6483,
  "▁penitus": 6484,
  "▁propiti": 6485,
  "▁saturab": 6486,
  "▁septies": 6487,
  "▁similes": 6488,
  "▁statuam": 6489,
  "▁sustent": 6490,
  "Rursumque": 6491,
  "▁Mathathi": 6492,
  "▁accipies": 6493,
  "▁altitudo": 6494,
  "▁ambulare": 6495,
  "▁cantores": 6496,
  "▁clarific": 6497,
  "▁contempl": 6498,
  "▁dicerent": 6499,
  "▁dimittet": 6500,
  "▁invenire": 6501,
  "▁judicare": 6502,
  "▁offerens": 6503,
  "▁offerunt": 6504,
  "▁pauperis": 6505,
  "▁pauperum": 6506,
  "▁placitum": 6507,
  "▁possumus": 6508,
  "▁quispiam": 6509,
  "▁remansit": 6510,
  "▁salvator": 6511,
  "▁sollicit": 6512,
  "▁thymiama": 6513,
  "▁uxoribus": 6514,
  "▁veniebat": 6515,
  "▁victimam": 6516,
  "▁vigesima": 6517,
  "▁Mesopotam": 6518,
  "▁benedicat": 6519,
  "▁custodias": 6520,
  "▁ecclesiis": 6521,
  "▁noluerunt": 6522,
  "▁percutiet": 6523,
  "▁præsidium": 6524,
  "▁revertere": 6525,
  "▁sepulchro": 6526,
  "▁simulacra": 6527,
  "▁venientem": 6528,
  "▁benedictus": 6529,
  "▁confusione": 6530,
  "▁nescierunt": 6531,
  "▁altitudinem": 6532,
  "▁infirmitate": 6533,
  "▁projecerunt": 6534,
  "▁revertentur": 6535,
  "▁afflictionem": 6536,
  "▁sanctificata": 6537,
  "▁consuetudinem": 6538,
  "▁uniuscujusque": 6539,
  "▁u": 6540,
  "Dis": 6541,
  "Dom": 6542,
  "arg": 6543,
  "eta": 6544,
  "iga": 6545,
  "ila": 6546,
  "mol": 6547,
  "orp": 6548,
  "pec": 6549,
  "rid": 6550,
  "uis": 6551,
  "▁It": 6552,
  "▁Ly": 6553,
  "▁Tr": 6554,
  "▁ty": 6555,
  "Erit": 6556,
  "Illi": 6557,
  "ania": 6558,
  "erer": 6559,
  "inea": 6560,
  "oniæ": 6561,
  "otis": 6562,
  "stis": 6563,
  "uite": 6564,
  "▁Ath": 6565,
  "▁Bes": 6566,
  "▁Hen": 6567,
  "▁Rem": 6568,
  "▁emp": 6569,
  "▁eph": 6570,
  "▁eru": 6571,
  "▁gav": 6572,
  "▁jun": 6573,
  "▁pun": 6574,
  "▁rip": 6575,
  "▁sag": 6576,
  "▁sob": 6577,
  "Facta": 6578,
  "anaël": 6579,
  "aroth": 6580,
  "athem": 6581,
  "humer": 6582,
  "illus": 6583,
  "iores": 6584,
  "ophel": 6585,
  "roper": 6586,
  "turam": 6587,
  "▁Abel": 6588,
  "▁Pecc": 6589,
  "▁Quem": 6590,
  "▁acqu": 6591,
  "▁cymb": 6592,
  "▁fung": 6593,
  "▁gent": 6594,
  "▁istæ": 6595,
  "▁jure": 6596,
  "▁nutr": 6597,
  "▁sede": 6598,
  "▁sens": 6599,
  "▁silv": 6600,
  "▁ulla": 6601,
  "▁vana": 6602,
  "Custod": 6603,
  "arezer": 6604,
  "escent": 6605,
  "gnific": 6606,
  "iantes": 6607,
  "rophet": 6608,
  "▁Bacch": 6609,
  "▁Ephes": 6610,
  "▁Filio": 6611,
  "▁Nabal": 6612,
  "▁Trans": 6613,
  "▁appos": 6614,
  "▁certe": 6615,
  "▁collo": 6616,
  "▁crast": 6617,
  "▁dicas": 6618,
  "▁genti": 6619,
  "▁horam": 6620,
  "▁incid": 6621,
  "▁malus": 6622,
  "▁nutri": 6623,
  "▁parum": 6624,
  "▁prist": 6625,
  "▁regio": 6626,
  "▁salvi": 6627,
  "▁spati": 6628,
  "▁unxit": 6629,
  "▁vento": 6630,
  "▁villæ": 6631,
  "▁visum": 6632,
  "▁votum": 6633,
  "Dicebat": 6634,
  "Egressi": 6635,
  "ariorum": 6636,
  "iperent": 6637,
  "issimas": 6638,
  "▁Antioc": 6639,
  "▁Idumæa": 6640,
  "▁Machir": 6641,
  "▁Naboth": 6642,
  "▁Petrum": 6643,
  "▁Phares": 6644,
  "▁Thamar": 6645,
  "▁accers": 6646,
  "▁amicis": 6647,
  "▁dentes": 6648,
  "▁dolore": 6649,
  "▁electi": 6650,
  "▁expect": 6651,
  "▁falsum": 6652,
  "▁fronte": 6653,
  "▁gubern": 6654,
  "▁hebdom": 6655,
  "▁herbam": 6656,
  "▁idolum": 6657,
  "▁insidi": 6658,
  "▁noctis": 6659,
  "▁plaust": 6660,
  "▁potero": 6661,
  "▁pretio": 6662,
  "▁proper": 6663,
  "▁puella": 6664,
  "▁ration": 6665,
  "▁reginæ": 6666,
  "▁sepult": 6667,
  "▁tectum": 6668,
  "▁timens": 6669,
  "▁venund": 6670,
  "▁videat": 6671,
  "Spiritus": 6672,
  "venerunt": 6673,
  "▁Bethsam": 6674,
  "▁Ithamar": 6675,
  "▁Jezabel": 6676,
  "▁Jordane": 6677,
  "▁Obsecro": 6678,
  "▁Omnipot": 6679,
  "▁arietum": 6680,
  "▁assimil": 6681,
  "▁clamavi": 6682,
  "▁dissolv": 6683,
  "▁divitiæ": 6684,
  "▁fecerim": 6685,
  "▁judicet": 6686,
  "▁levavit": 6687,
  "▁misisti": 6688,
  "▁muliere": 6689,
  "▁quosdam": 6690,
  "▁scripsi": 6691,
  "▁vaticin": 6692,
  "▁veniant": 6693,
  "▁ventura": 6694,
  "▁Adarezer": 6695,
  "▁Ezechiam": 6696,
  "▁Masphath": 6697,
  "▁Samuelem": 6698,
  "▁accipiet": 6699,
  "▁alioquin": 6700,
  "▁antiquis": 6701,
  "▁audiente": 6702,
  "▁comedere": 6703,
  "▁curribus": 6704,
  "▁custodes": 6705,
  "▁diligunt": 6706,
  "▁eduxisti": 6707,
  "▁forsitan": 6708,
  "▁injustit": 6709,
  "▁innocens": 6710,
  "▁lignorum": 6711,
  "▁magister": 6712,
  "▁masculum": 6713,
  "▁mulierum": 6714,
  "▁numerati": 6715,
  "▁projecit": 6716,
  "▁quæritis": 6717,
  "▁revertar": 6718,
  "▁sedentes": 6719,
  "▁seniorum": 6720,
  "▁siquidem": 6721,
  "▁venirent": 6722,
  "▁Alexander": 6723,
  "▁Chananæum": 6724,
  "▁appendens": 6725,
  "▁circumcid": 6726,
  "▁consurget": 6727,
  "▁epistolas": 6728,
  "▁loquimini": 6729,
  "▁semetipso": 6730,
  "▁suburbana": 6731,
  "▁transivit": 6732,
  "▁abscondito": 6733,
  "▁adjutorium": 6734,
  "▁cognatione": 6735,
  "▁custodivit": 6736,
  "▁dereliquit": 6737,
  "▁exclamavit": 6738,
  "▁hæreditate": 6739,
  "▁patientiam": 6740,
  "▁peccavimus": 6741,
  "▁tenebrarum": 6742,
  "▁vocavitque": 6743,
  "▁altitudinis": 6744,
  "▁dominabitur": 6745,
  "▁exaltabitur": 6746,
  "▁hæreditatis": 6747,
  "▁immaculatum": 6748,
  "▁adolescentia": 6749,
  "▁fortitudinis": 6750,
  "▁iniquitatibus": 6751,
  "xi": 6752,
  "Dec": 6753,
  "Jos": 6754,
  "Sit": 6755,
  "dal": 6756,
  "det": 6757,
  "ong": 6758,
  "vid": 6759,
  "▁py": 6760,
  "Cogn": 6761,
  "Ergo": 6762,
  "Pecc": 6763,
  "Scio": 6764,
  "esby": 6765,
  "item": 6766,
  "modo": 6767,
  "ogit": 6768,
  "oron": 6769,
  "umna": 6770,
  "▁App": 6771,
  "▁Elc": 6772,
  "▁Sin": 6773,
  "▁Sur": 6774,
  "▁fus": 6775,
  "▁gig": 6776,
  "▁hyd": 6777,
  "▁ite": 6778,
  "▁myr": 6779,
  "▁nit": 6780,
  "▁ros": 6781,
  "▁spe": 6782,
  "Exaud": 6783,
  "andit": 6784,
  "assar": 6785,
  "atham": 6786,
  "citis": 6787,
  "ginem": 6788,
  "jecit": 6789,
  "tarum": 6790,
  "uetur": 6791,
  "▁Assu": 6792,
  "▁Nach": 6793,
  "▁Post": 6794,
  "▁Tham": 6795,
  "▁barb": 6796,
  "▁clem": 6797,
  "▁coqu": 6798,
  "▁cort": 6799,
  "▁cæci": 6800,
  "▁dona": 6801,
  "▁edic": 6802,
  "▁fict": 6803,
  "▁flux": 6804,
  "▁gust": 6805,
  "▁insc": 6806,
  "▁subt": 6807,
  "▁tymp": 6808,
  "▁vado": 6809,
  "▁vera": 6810,
  "▁æris": 6811,
  "Iterum": 6812,
  "Posuit": 6813,
  "eperit": 6814,
  "rantur": 6815,
  "▁Nadab": 6816,
  "▁Petro": 6817,
  "▁appon": 6818,
  "▁cecin": 6819,
  "▁commo": 6820,
  "▁depon": 6821,
  "▁dolos": 6822,
  "▁exire": 6823,
  "▁horre": 6824,
  "▁humum": 6825,
  "▁inaur": 6826,
  "▁justo": 6827,
  "▁lucos": 6828,
  "▁luxur": 6829,
  "▁matre": 6830,
  "▁mensæ": 6831,
  "▁potes": 6832,
  "▁radix": 6833,
  "▁scept": 6834,
  "▁sedet": 6835,
  "▁simus": 6836,
  "▁still": 6837,
  "▁verbi": 6838,
  "▁virgo": 6839,
  "▁vocat": 6840,
  "athites": 6841,
  "averant": 6842,
  "iditque": 6843,
  "issimos": 6844,
  "rabitur": 6845,
  "▁Ahicam": 6846,
  "▁Rebecc": 6847,
  "▁advena": 6848,
  "▁audiet": 6849,
  "▁austri": 6850,
  "▁condit": 6851,
  "▁cubiti": 6852,
  "▁dilexi": 6853,
  "▁fortem": 6854,
  "▁majest": 6855,
  "▁mearum": 6856,
  "▁melior": 6857,
  "▁mercen": 6858,
  "▁misere": 6859,
  "▁mortic": 6860,
  "▁mortuo": 6861,
  "▁nudius": 6862,
  "▁obsecr": 6863,
  "▁octing": 6864,
  "▁oratio": 6865,
  "▁plagas": 6866,
  "▁presby": 6867,
  "▁progen": 6868,
  "▁pronus": 6869,
  "▁prælia": 6870,
  "▁suspic": 6871,
  "▁tradet": 6872,
  "▁vulgus": 6873,
  "Alleluja": 6874,
  "Canticum": 6875,
  "Misitque": 6876,
  "entariis": 6877,
  "▁Herodes": 6878,
  "▁advenis": 6879,
  "▁anathem": 6880,
  "▁angelos": 6881,
  "▁angulos": 6882,
  "▁apostol": 6883,
  "▁attulit": 6884,
  "▁columna": 6885,
  "▁curruum": 6886,
  "▁dixeris": 6887,
  "▁eleemos": 6888,
  "▁famulus": 6889,
  "▁fluctus": 6890,
  "▁fraudul": 6891,
  "▁inferno": 6892,
  "▁ingress": 6893,
  "▁innumer": 6894,
  "▁milites": 6895,
  "▁miserat": 6896,
  "▁nuntius": 6897,
  "▁offeres": 6898,
  "▁peditum": 6899,
  "▁pulvere": 6900,
  "▁quemdam": 6901,
  "▁sedecim": 6902,
  "▁seminis": 6903,
  "▁stabunt": 6904,
  "▁subsann": 6905,
  "▁viscera": 6906,
  "▁visione": 6907,
  "▁Damascum": 6908,
  "▁Pharaone": 6909,
  "▁ceperunt": 6910,
  "▁cessavit": 6911,
  "▁clamorem": 6912,
  "▁crucifig": 6913,
  "▁exaudiam": 6914,
  "▁extremis": 6915,
  "▁filiarum": 6916,
  "▁indicare": 6917,
  "▁injuriam": 6918,
  "▁inveniet": 6919,
  "▁loquaris": 6920,
  "▁mendacii": 6921,
  "▁obtinuit": 6922,
  "▁quærebat": 6923,
  "▁spelunca": 6924,
  "▁torrente": 6925,
  "Maledictus": 6926,
  "Vocavitque": 6927,
  "▁Euphraten": 6928,
  "▁Nathanaël": 6929,
  "▁Zacharias": 6930,
  "▁animalium": 6931,
  "▁capitibus": 6932,
  "▁ceciderit": 6933,
  "▁cogitavit": 6934,
  "▁combussit": 6935,
  "▁conspersa": 6936,
  "▁epistolam": 6937,
  "▁habitatio": 6938,
  "▁ignominia": 6939,
  "▁juramento": 6940,
  "▁perierunt": 6941,
  "▁recensiti": 6942,
  "▁sententia": 6943,
  "▁synagogis": 6944,
  "▁torrentis": 6945,
  "▁videritis": 6946,
  "Profectique": 6947,
  "▁bellatorum": 6948,
  "▁confitebor": 6949,
  "▁custodiunt": 6950,
  "▁discipulus": 6951,
  "▁juramentum": 6952,
  "▁ministerii": 6953,
  "▁munitiones": 6954,
  "▁pauperibus": 6955,
  "▁possidebit": 6956,
  "▁prudentiam": 6957,
  "▁præparavit": 6958,
  "▁superhumer": 6959,
  "▁apparuerunt": 6960,
  "▁intellectum": 6961,
  "▁interfectis": 6962,
  "▁prævaricati": 6963,
  "▁relinquetur": 6964,
  "▁afflictionis": 6965,
  "▁confundentur": 6966,
  "▁ingredientur": 6967,
  "▁constituerunt": 6968,
  "▁intellexerunt": 6969,
  "▁propositionis": 6970,
  "▁appropinquavit": 6971,
  "Mo": 6972,
  "ca": 6973,
  "pa": 6974,
  "Exc": 6975,
  "Imp": 6976,
  "Lev": 6977,
  "alæ": 6978,
  "eis": 6979,
  "eps": 6980,
  "hai": 6981,
  "oto": 6982,
  "præ": 6983,
  "sem": 6984,
  "vum": 6985,
  "æqu": 6986,
  "▁Je": 6987,
  "▁Od": 6988,
  "Fide": 6989,
  "anam": 6990,
  "edom": 6991,
  "enst": 6992,
  "gnum": 6993,
  "oros": 6994,
  "rabo": 6995,
  "riel": 6996,
  "riis": 6997,
  "uras": 6998,
  "urib": 6999,
  "▁And": 7000,
  "▁Asc": 7001,
  "▁Dis": 7002,
  "▁Ist": 7003,
  "▁Jam": 7004,
  "▁Rab": 7005,
  "▁bal": 7006,
  "▁coc": 7007,
  "▁has": 7008,
  "▁nef": 7009,
  "▁nep": 7010,
  "▁obd": 7011,
  "▁riv": 7012,
  "▁rup": 7013,
  "ansit": 7014,
  "atque": 7015,
  "cipes": 7016,
  "edite": 7017,
  "entri": 7018,
  "ignus": 7019,
  "juran": 7020,
  "radic": 7021,
  "taxer": 7022,
  "uncti": 7023,
  "▁Amri": 7024,
  "▁Caph": 7025,
  "▁Chus": 7026,
  "▁Fest": 7027,
  "▁Senn": 7028,
  "▁Soph": 7029,
  "▁Thec": 7030,
  "▁amat": 7031,
  "▁cibo": 7032,
  "▁flor": 7033,
  "▁nova": 7034,
  "▁ovem": 7035,
  "▁rete": 7036,
  "▁uter": 7037,
  "Melius": 7038,
  "Paulus": 7039,
  "Record": 7040,
  "endere": 7041,
  "iamini": 7042,
  "ibilem": 7043,
  "ibilia": 7044,
  "itorum": 7045,
  "ortuus": 7046,
  "rabunt": 7047,
  "umquam": 7048,
  "ædific": 7049,
  "▁Dicit": 7050,
  "▁Heber": 7051,
  "▁Moyse": 7052,
  "▁Omnes": 7053,
  "▁Ozias": 7054,
  "▁Sidon": 7055,
  "▁chris": 7056,
  "▁diluv": 7057,
  "▁direc": 7058,
  "▁ephod": 7059,
  "▁equis": 7060,
  "▁escas": 7061,
  "▁excus": 7062,
  "▁exhib": 7063,
  "▁exper": 7064,
  "▁ferro": 7065,
  "▁fletu": 7066,
  "▁illus": 7067,
  "▁indux": 7068,
  "▁ipsos": 7069,
  "▁judex": 7070,
  "▁medic": 7071,
  "▁menst": 7072,
  "▁monst": 7073,
  "▁murus": 7074,
  "▁nubis": 7075,
  "▁palam": 7076,
  "▁pedis": 7077,
  "▁peric": 7078,
  "▁præda": 7079,
  "▁robor": 7080,
  "▁ruina": 7081,
  "▁tyran": 7082,
  "▁vivum": 7083,
  "▁ægrot": 7084,
  "Memento": 7085,
  "raculum": 7086,
  "tertius": 7087,
  "uissent": 7088,
  "▁Eccles": 7089,
  "▁Hazaël": 7090,
  "▁Helciæ": 7091,
  "▁Mathan": 7092,
  "▁Nachor": 7093,
  "▁Quibus": 7094,
  "▁Sancta": 7095,
  "▁aggrav": 7096,
  "▁angelo": 7097,
  "▁asport": 7098,
  "▁baptis": 7099,
  "▁christ": 7100,
  "▁exsurg": 7101,
  "▁frugum": 7102,
  "▁insulæ": 7103,
  "▁leones": 7104,
  "▁lineis": 7105,
  "▁maxime": 7106,
  "▁murmur": 7107,
  "▁obliti": 7108,
  "▁palati": 7109,
  "▁plagis": 7110,
  "▁possed": 7111,
  "▁profug": 7112,
  "▁puteum": 7113,
  "▁regnis": 7114,
  "▁ruinam": 7115,
  "▁saltus": 7116,
  "▁solent": 7117,
  "▁subtus": 7118,
  "▁summum": 7119,
  "▁terras": 7120,
  "▁thurib": 7121,
  "▁vocati": 7122,
  "Fecerunt": 7123,
  "Interrog": 7124,
  "athiarim": 7125,
  "enditque": 7126,
  "leverunt": 7127,
  "▁Galgala": 7128,
  "▁Joatham": 7129,
  "▁Loquere": 7130,
  "▁aliquem": 7131,
  "▁cithara": 7132,
  "▁dederat": 7133,
  "▁defecit": 7134,
  "▁disperg": 7135,
  "▁dispers": 7136,
  "▁electos": 7137,
  "▁fugiens": 7138,
  "▁idipsum": 7139,
  "▁imperio": 7140,
  "▁inferos": 7141,
  "▁mittens": 7142,
  "▁munitas": 7143,
  "▁pluviam": 7144,
  "▁portare": 7145,
  "▁quærens": 7146,
  "▁radices": 7147,
  "▁retorta": 7148,
  "▁secunda": 7149,
  "▁sedebit": 7150,
  "▁speravi": 7151,
  "▁stratum": 7152,
  "▁tribuum": 7153,
  "▁vanitas": 7154,
  "▁videris": 7155,
  "▁volebat": 7156,
  "Statimque": 7157,
  "vertimini": 7158,
  "▁Anathoth": 7159,
  "▁Godoliam": 7160,
  "▁Nathaniæ": 7161,
  "▁Zachariæ": 7162,
  "▁accedens": 7163,
  "▁accipiat": 7164,
  "▁animabus": 7165,
  "▁caprarum": 7166,
  "▁deliciis": 7167,
  "▁descende": 7168,
  "▁diabolus": 7169,
  "▁improper": 7170,
  "▁introire": 7171,
  "▁jejunium": 7172,
  "▁judicabo": 7173,
  "▁jumentum": 7174,
  "▁manducat": 7175,
  "▁rogabant": 7176,
  "▁sterilis": 7177,
  "▁superfic": 7178,
  "▁venistis": 7179,
  "▁vestigia": 7180,
  "▁vinculis": 7181,
  "▁virtutum": 7182,
  "▁Timotheus": 7183,
  "▁adorabunt": 7184,
  "▁argenteis": 7185,
  "▁argenteos": 7186,
  "▁comederit": 7187,
  "▁constitui": 7188,
  "▁converter": 7189,
  "▁desiderat": 7190,
  "▁destruxit": 7191,
  "▁discooper": 7192,
  "▁equitibus": 7193,
  "▁feceritis": 7194,
  "▁hujusmodi": 7195,
  "▁insipiens": 7196,
  "▁masculini": 7197,
  "▁operantur": 7198,
  "▁percutere": 7199,
  "▁pertinent": 7200,
  "▁presbyter": 7201,
  "▁profundum": 7202,
  "▁quindecim": 7203,
  "▁quingenti": 7204,
  "▁repromiss": 7205,
  "▁sacerdote": 7206,
  "▁septentri": 7207,
  "▁stultorum": 7208,
  "▁tristitia": 7209,
  "▁vulnerati": 7210,
  "Reversusque": 7211,
  "▁Achitophel": 7212,
  "▁ambulantes": 7213,
  "▁appellavit": 7214,
  "▁columnarum": 7215,
  "▁congregata": 7216,
  "▁custodiant": 7217,
  "▁declinavit": 7218,
  "▁egrediatur": 7219,
  "▁intelligit": 7220,
  "▁novissimum": 7221,
  "▁semetipsos": 7222,
  "▁servitutis": 7223,
  "▁stultitiam": 7224,
  "▁ascendentes": 7225,
  "▁captivitate": 7226,
  "▁centuriones": 7227,
  "▁egredientur": 7228,
  "▁firmamentum": 7229,
  "▁fundamentum": 7230,
  "▁nativitatis": 7231,
  "▁operimentum": 7232,
  "▁primogenita": 7233,
  "▁solitudinis": 7234,
  "▁suavissimum": 7235,
  "▁Cariathiarim": 7236,
  "▁multiplicabo": 7237,
  "▁occidentalem": 7238,
  "▁possessiones": 7239,
  "▁nudiustertius": 7240,
  "▁resurrectionem": 7241,
  "Ch": 7242,
  "Jo": 7243,
  "Pl": 7244,
  "ve": 7245,
  "Add": 7246,
  "Ant": 7247,
  "cui": 7248,
  "ebb": 7249,
  "gad": 7250,
  "loc": 7251,
  "ovi": 7252,
  "rag": 7253,
  "vus": 7254,
  "▁Ce": 7255,
  "▁æt": 7256,
  "Just": 7257,
  "adan": 7258,
  "ages": 7259,
  "anem": 7260,
  "aran": 7261,
  "erib": 7262,
  "ersa": 7263,
  "iora": 7264,
  "onia": 7265,
  "onst": 7266,
  "rang": 7267,
  "rate": 7268,
  "turæ": 7269,
  "▁Ada": 7270,
  "▁Ger": 7271,
  "▁Har": 7272,
  "▁Ser": 7273,
  "▁Sib": 7274,
  "▁bel": 7275,
  "▁cœn": 7276,
  "▁lag": 7277,
  "▁rix": 7278,
  "▁sul": 7279,
  "▁tex": 7280,
  "▁vag": 7281,
  "▁vim": 7282,
  "Dedit": 7283,
  "Oculi": 7284,
  "Vixit": 7285,
  "aruit": 7286,
  "ascit": 7287,
  "eatur": 7288,
  "ilias": 7289,
  "isses": 7290,
  "menta": 7291,
  "nonne": 7292,
  "ogran": 7293,
  "omnes": 7294,
  "orrup": 7295,
  "pecta": 7296,
  "regit": 7297,
  "rinis": 7298,
  "uncta": 7299,
  "utrum": 7300,
  "▁Adar": 7301,
  "▁Cont": 7302,
  "▁Jopp": 7303,
  "▁Taph": 7304,
  "▁Toll": 7305,
  "▁Vere": 7306,
  "▁Zara": 7307,
  "▁admi": 7308,
  "▁arce": 7309,
  "▁area": 7310,
  "▁carb": 7311,
  "▁crim": 7312,
  "▁dari": 7313,
  "▁erec": 7314,
  "▁fons": 7315,
  "▁latr": 7316,
  "▁laus": 7317,
  "▁mach": 7318,
  "▁metu": 7319,
  "▁nube": 7320,
  "▁rede": 7321,
  "▁scab": 7322,
  "▁thus": 7323,
  "▁vice": 7324,
  "altare": 7325,
  "anorum": 7326,
  "eremus": 7327,
  "ostoli": 7328,
  "perent": 7329,
  "rasset": 7330,
  "ulisti": 7331,
  "verant": 7332,
  "▁Eleaz": 7333,
  "▁Eliab": 7334,
  "▁Venit": 7335,
  "▁abjic": 7336,
  "▁aciem": 7337,
  "▁armis": 7338,
  "▁atrio": 7339,
  "▁audac": 7340,
  "▁capta": 7341,
  "▁cecid": 7342,
  "▁detra": 7343,
  "▁digna": 7344,
  "▁eamus": 7345,
  "▁equum": 7346,
  "▁habui": 7347,
  "▁impie": 7348,
  "▁ortum": 7349,
  "▁psalm": 7350,
  "▁putas": 7351,
  "▁quint": 7352,
  "▁recte": 7353,
  "▁relig": 7354,
  "▁talia": 7355,
  "▁vadit": 7356,
  "▁video": 7357,
  "▁voces": 7358,
  "Constit": 7359,
  "Vocavit": 7360,
  "abisque": 7361,
  "acherib": 7362,
  "agesimo": 7363,
  "ieritis": 7364,
  "propter": 7365,
  "▁Cæsare": 7366,
  "▁Nazare": 7367,
  "▁Quando": 7368,
  "▁aliena": 7369,
  "▁audita": 7370,
  "▁capere": 7371,
  "▁cervic": 7372,
  "▁cetera": 7373,
  "▁circui": 7374,
  "▁colleg": 7375,
  "▁collum": 7376,
  "▁combur": 7377,
  "▁comedi": 7378,
  "▁corona": 7379,
  "▁custos": 7380,
  "▁detest": 7381,
  "▁ebriet": 7382,
  "▁educam": 7383,
  "▁exitus": 7384,
  "▁fruges": 7385,
  "▁fuisti": 7386,
  "▁grando": 7387,
  "▁hastam": 7388,
  "▁hordei": 7389,
  "▁libert": 7390,
  "▁mendax": 7391,
  "▁nuntii": 7392,
  "▁plebis": 7393,
  "▁pluvia": 7394,
  "▁ponent": 7395,
  "▁possis": 7396,
  "▁promis": 7397,
  "▁puellæ": 7398,
  "▁pullum": 7399,
  "▁regina": 7400,
  "▁requir": 7401,
  "▁reserv": 7402,
  "▁scribe": 7403,
  "▁sensus": 7404,
  "▁stellæ": 7405,
  "▁timuit": 7406,
  "▁tribui": 7407,
  "▁turrim": 7408,
  "▁venter": 7409,
  "Salutate": 7410,
  "altassar": 7411,
  "ratusque": 7412,
  "tionibus": 7413,
  "▁Artaxer": 7414,
  "▁Congreg": 7415,
  "▁Levites": 7416,
  "▁Respond": 7417,
  "▁Tharsis": 7418,
  "▁accepta": 7419,
  "▁aromata": 7420,
  "▁auferet": 7421,
  "▁basibus": 7422,
  "▁camelos": 7423,
  "▁cinerem": 7424,
  "▁columnæ": 7425,
  "▁consens": 7426,
  "▁content": 7427,
  "▁contest": 7428,
  "▁cubitis": 7429,
  "▁cunctas": 7430,
  "▁fideles": 7431,
  "▁grandem": 7432,
  "▁judicat": 7433,
  "▁lapidum": 7434,
  "▁legibus": 7435,
  "▁millium": 7436,
  "▁neminem": 7437,
  "▁phialam": 7438,
  "▁plurima": 7439,
  "▁portans": 7440,
  "▁protect": 7441,
  "▁requies": 7442,
  "▁salvare": 7443,
  "▁sanctam": 7444,
  "▁sciatis": 7445,
  "▁seminat": 7446,
  "▁specios": 7447,
  "▁tertiam": 7448,
  "▁tritici": 7449,
  "▁venisti": 7450,
  "▁vertice": 7451,
  "▁vinctum": 7452,
  "▁vocatus": 7453,
  "▁Obededom": 7454,
  "▁Sedeciam": 7455,
  "▁adolebit": 7456,
  "▁azymorum": 7457,
  "▁cadavera": 7458,
  "▁cervicem": 7459,
  "▁credidit": 7460,
  "▁cucurrit": 7461,
  "▁custodia": 7462,
  "▁cymbalis": 7463,
  "▁divitiis": 7464,
  "▁dixerint": 7465,
  "▁extendam": 7466,
  "▁infernum": 7467,
  "▁inimicum": 7468,
  "▁intrabit": 7469,
  "▁lucernas": 7470,
  "▁multarum": 7471,
  "▁nationum": 7472,
  "▁omnesque": 7473,
  "▁pacifica": 7474,
  "▁primitiv": 7475,
  "▁pugnavit": 7476,
  "▁reddidit": 7477,
  "▁scribere": 7478,
  "▁septimus": 7479,
  "▁sermonis": 7480,
  "▁silentio": 7481,
  "▁supplant": 7482,
  "▁timentes": 7483,
  "▁transeat": 7484,
  "Sacerdotes": 7485,
  "▁Machabæus": 7486,
  "▁civitatum": 7487,
  "▁difficile": 7488,
  "▁dispergam": 7489,
  "▁habuerunt": 7490,
  "▁justitias": 7491,
  "▁lateribus": 7492,
  "▁longitudo": 7493,
  "▁lætabitur": 7494,
  "▁miserebor": 7495,
  "▁muneribus": 7496,
  "▁nominibus": 7497,
  "▁obtulerit": 7498,
  "▁perfectum": 7499,
  "▁poterimus": 7500,
  "▁procedere": 7501,
  "▁sculptile": 7502,
  "▁sinistris": 7503,
  "▁sustinere": 7504,
  "▁ubicumque": 7505,
  "▁vescendum": 7506,
  "▁ædificavi": 7507,
  "▁adolescens": 7508,
  "▁alterutrum": 7509,
  "▁defecerunt": 7510,
  "▁monumentum": 7511,
  "▁proverbium": 7512,
  "▁quingentos": 7513,
  "▁salvabitur": 7514,
  "▁similitudo": 7515,
  "▁Sennacherib": 7516,
  "▁feceruntque": 7517,
  "▁ingredieris": 7518,
  "▁loquebantur": 7519,
  "▁possidebunt": 7520,
  "▁remissionem": 7521,
  "▁cogitaverunt": 7522,
  "▁negotiatores": 7523,
  "▁visitationis": 7524,
  "▁interrogabant": 7525,
  "Em": 7526,
  "Vi": 7527,
  "Dil": 7528,
  "Doc": 7529,
  "Ibi": 7530,
  "anæ": 7531,
  "aræ": 7532,
  "fam": 7533,
  "hun": 7534,
  "lar": 7535,
  "lat": 7536,
  "tif": 7537,
  "uos": 7538,
  "urr": 7539,
  "usa": 7540,
  "uus": 7541,
  "ych": 7542,
  "Alii": 7543,
  "Moys": 7544,
  "Quin": 7545,
  "agon": 7546,
  "anne": 7547,
  "arna": 7548,
  "ilio": 7549,
  "irem": 7550,
  "mine": 7551,
  "ritæ": 7552,
  "terr": 7553,
  "urat": 7554,
  "▁Abd": 7555,
  "▁Aph": 7556,
  "▁Ast": 7557,
  "▁Dix": 7558,
  "▁Men": 7559,
  "▁Pon": 7560,
  "▁fav": 7561,
  "▁lup": 7562,
  "▁mom": 7563,
  "▁neb": 7564,
  "▁org": 7565,
  "▁oro": 7566,
  "▁pig": 7567,
  "▁sax": 7568,
  "▁sop": 7569,
  "▁sug": 7570,
  "Manus": 7571,
  "Surge": 7572,
  "atrix": 7573,
  "dibus": 7574,
  "igail": 7575,
  "lexit": 7576,
  "revit": 7577,
  "roque": 7578,
  "ubuit": 7579,
  "▁Amon": 7580,
  "▁Anan": 7581,
  "▁Idit": 7582,
  "▁Ipse": 7583,
  "▁Jech": 7584,
  "▁Naam": 7585,
  "▁Ooli": 7586,
  "▁Phar": 7587,
  "▁Rama": 7588,
  "▁Rech": 7589,
  "▁avis": 7590,
  "▁erum": 7591,
  "▁expl": 7592,
  "▁mact": 7593,
  "▁navi": 7594,
  "▁odor": 7595,
  "▁palp": 7596,
  "▁reti": 7597,
  "▁rotæ": 7598,
  "▁trid": 7599,
  "▁vivo": 7600,
  "Mulier": 7601,
  "aliter": 7602,
  "aremus": 7603,
  "aturam": 7604,
  "ratias": 7605,
  "rehens": 7606,
  "rentem": 7607,
  "ulerat": 7608,
  "urrens": 7609,
  "▁Oziel": 7610,
  "▁Sauli": 7611,
  "▁Tryph": 7612,
  "▁altum": 7613,
  "▁amput": 7614,
  "▁arrip": 7615,
  "▁canes": 7616,
  "▁cibus": 7617,
  "▁cruci": 7618,
  "▁dejic": 7619,
  "▁demol": 7620,
  "▁detur": 7621,
  "▁festi": 7622,
  "▁hæres": 7623,
  "▁integ": 7624,
  "▁invol": 7625,
  "▁lepræ": 7626,
  "▁munda": 7627,
  "▁munus": 7628,
  "▁muris": 7629,
  "▁obsed": 7630,
  "▁orate": 7631,
  "▁prout": 7632,
  "▁quiet": 7633,
  "▁renov": 7634,
  "▁rerum": 7635,
  "▁salva": 7636,
  "▁sciam": 7637,
  "▁scies": 7638,
  "▁seget": 7639,
  "▁sterc": 7640,
  "▁tract": 7641,
  "▁uxori": 7642,
  "Audivit": 7643,
  "Prophet": 7644,
  "Viginti": 7645,
  "piciens": 7646,
  "quemque": 7647,
  "raverat": 7648,
  "unculos": 7649,
  "▁Elcana": 7650,
  "▁Isaiam": 7651,
  "▁Jephte": 7652,
  "▁Joppen": 7653,
  "▁Michol": 7654,
  "▁Thersa": 7655,
  "▁abyssi": 7656,
  "▁atriis": 7657,
  "▁capiti": 7658,
  "▁dispon": 7659,
  "▁etenim": 7660,
  "▁explet": 7661,
  "▁grandi": 7662,
  "▁hostiæ": 7663,
  "▁ibique": 7664,
  "▁jucund": 7665,
  "▁justos": 7666,
  "▁minimo": 7667,
  "▁necdum": 7668,
  "▁nequam": 7669,
  "▁nescio": 7670,
  "▁passus": 7671,
  "▁perdet": 7672,
  "▁primos": 7673,
  "▁requis": 7674,
  "▁sedere": 7675,
  "▁signis": 7676,
  "▁simila": 7677,
  "▁somnia": 7678,
  "▁subjac": 7679,
  "▁throno": 7680,
  "▁tollet": 7681,
  "▁tribum": 7682,
  "▁turres": 7683,
  "▁umquam": 7684,
  "▁ætatis": 7685,
  "▁Banaias": 7686,
  "▁Carmeli": 7687,
  "▁Eliezer": 7688,
  "▁Idithun": 7689,
  "▁Propter": 7690,
  "▁Satanas": 7691,
  "▁adhæreb": 7692,
  "▁annulos": 7693,
  "▁armenta": 7694,
  "▁bonorum": 7695,
  "▁cibaria": 7696,
  "▁clypeum": 7697,
  "▁columbæ": 7698,
  "▁commisc": 7699,
  "▁confrac": 7700,
  "▁conting": 7701,
  "▁donavit": 7702,
  "▁eloquia": 7703,
  "▁essemus": 7704,
  "▁expedit": 7705,
  "▁extrane": 7706,
  "▁extrema": 7707,
  "▁glorios": 7708,
  "▁hodiern": 7709,
  "▁injuste": 7710,
  "▁judicem": 7711,
  "▁labores": 7712,
  "▁laqueum": 7713,
  "▁majorem": 7714,
  "▁nuptias": 7715,
  "▁occasum": 7716,
  "▁orantes": 7717,
  "▁phialas": 7718,
  "▁positum": 7719,
  "▁priorum": 7720,
  "▁præpara": 7721,
  "▁reperit": 7722,
  "▁repleti": 7723,
  "▁scribis": 7724,
  "▁septima": 7725,
  "▁sororis": 7726,
  "▁stellas": 7727,
  "▁utroque": 7728,
  "▁volumen": 7729,
  "Percussit": 7730,
  "Quicumque": 7731,
  "uraverunt": 7732,
  "▁Danielem": 7733,
  "▁adventum": 7734,
  "▁audieris": 7735,
  "▁comedite": 7736,
  "▁consilia": 7737,
  "▁elevatum": 7738,
  "▁exaudiet": 7739,
  "▁exceptis": 7740,
  "▁extremum": 7741,
  "▁facturus": 7742,
  "▁fecitque": 7743,
  "▁fuissent": 7744,
  "▁habebunt": 7745,
  "▁latitudo": 7746,
  "▁malogran": 7747,
  "▁nescitis": 7748,
  "▁offerent": 7749,
  "▁peccator": 7750,
  "▁percussi": 7751,
  "▁planctum": 7752,
  "▁prodigia": 7753,
  "▁præcipit": 7754,
  "▁refugium": 7755,
  "▁salutari": 7756,
  "▁sedebant": 7757,
  "▁sederunt": 7758,
  "▁tenebros": 7759,
  "▁virginem": 7760,
  "▁viventes": 7761,
  "▁Amorrhæum": 7762,
  "▁benedicam": 7763,
  "▁clamabant": 7764,
  "▁custodite": 7765,
  "▁dormierit": 7766,
  "▁frumentum": 7767,
  "▁fugientes": 7768,
  "▁loquuntur": 7769,
  "▁manifesta": 7770,
  "▁mittentes": 7771,
  "▁pacificas": 7772,
  "▁pecoribus": 7773,
  "▁portabant": 7774,
  "▁portabunt": 7775,
  "▁potentiam": 7776,
  "▁restituet": 7777,
  "▁transiret": 7778,
  "Præcepitque": 7779,
  "▁abscondita": 7780,
  "▁ambulabunt": 7781,
  "▁ascenderet": 7782,
  "▁collocavit": 7783,
  "▁descendens": 7784,
  "▁descendunt": 7785,
  "▁desiderium": 7786,
  "▁frequenter": 7787,
  "▁innocentem": 7788,
  "▁parentibus": 7789,
  "▁peregrinus": 7790,
  "▁principium": 7791,
  "▁respondebo": 7792,
  "▁sapientium": 7793,
  "▁servientes": 7794,
  "▁virtutibus": 7795,
  "▁habitaculum": 7796,
  "▁interficiet": 7797,
  "▁multitudini": 7798,
  "▁narraverunt": 7799,
  "▁perditionem": 7800,
  "▁pharisæorum": 7801,
  "▁possessione": 7802,
  "▁sacerdotium": 7803,
  "▁gazophylacia": 7804,
  "▁habitantibus": 7805,
  "▁peccatoribus": 7806,
  "▁provinciarum": 7807,
  "▁simplicitate": 7808,
  "▁solemnitatem": 7809,
  "▁maledictionem": 7810,
  "▁resurrectione": 7811,
  "▁cogitationibus": 7812,
  "▁consummationem": 7813,
  "▁tabernaculorum": 7814,
  "Ann": 7815,
  "Jam": 7816,
  "acc": 7817,
  "add": 7818,
  "aqu": 7819,
  "icæ": 7820,
  "isa": 7821,
  "orb": 7822,
  "see": 7823,
  "Pers": 7824,
  "abar": 7825,
  "adra": 7826,
  "anto": 7827,
  "ared": 7828,
  "atig": 7829,
  "dias": 7830,
  "egor": 7831,
  "emin": 7832,
  "firm": 7833,
  "inæi": 7834,
  "ires": 7835,
  "isso": 7836,
  "odie": 7837,
  "ohob": 7838,
  "olos": 7839,
  "phal": 7840,
  "reat": 7841,
  "roër": 7842,
  "uchi": 7843,
  "▁Ara": 7844,
  "▁Are": 7845,
  "▁Cas": 7846,
  "▁Ela": 7847,
  "▁Hel": 7848,
  "▁Jaz": 7849,
  "▁San": 7850,
  "▁Sub": 7851,
  "▁ago": 7852,
  "▁bac": 7853,
  "▁dub": 7854,
  "▁exi": 7855,
  "▁heu": 7856,
  "▁hin": 7857,
  "▁leb": 7858,
  "▁rum": 7859,
  "▁teg": 7860,
  "▁æra": 7861,
  "Juxta": 7862,
  "Nihil": 7863,
  "Tolle": 7864,
  "Verba": 7865,
  "adduc": 7866,
  "amine": 7867,
  "autom": 7868,
  "donec": 7869,
  "emque": 7870,
  "idera": 7871,
  "itiis": 7872,
  "ramus": 7873,
  "raret": 7874,
  "ricem": 7875,
  "▁Agni": 7876,
  "▁Asor": 7877,
  "▁Audi": 7878,
  "▁Joël": 7879,
  "▁Mana": 7880,
  "▁Vidi": 7881,
  "▁alio": 7882,
  "▁arcæ": 7883,
  "▁corr": 7884,
  "▁defl": 7885,
  "▁diri": 7886,
  "▁doce": 7887,
  "▁enar": 7888,
  "▁enut": 7889,
  "▁eras": 7890,
  "▁erga": 7891,
  "▁evac": 7892,
  "▁evad": 7893,
  "▁grex": 7894,
  "▁hiem": 7895,
  "▁iret": 7896,
  "▁luce": 7897,
  "▁nono": 7898,
  "▁tend": 7899,
  "▁tond": 7900,
  "Quidam": 7901,
  "arnaum": 7902,
  "iperet": 7903,
  "minist": 7904,
  "sibile": 7905,
  "▁Apoll": 7906,
  "▁Aroër": 7907,
  "▁Horeb": 7908,
  "▁Nehem": 7909,
  "▁Noëmi": 7910,
  "▁Rohob": 7911,
  "▁accub": 7912,
  "▁agens": 7913,
  "▁agite": 7914,
  "▁arund": 7915,
  "▁auris": 7916,
  "▁azyma": 7917,
  "▁beati": 7918,
  "▁bibam": 7919,
  "▁brevi": 7920,
  "▁cœnac": 7921,
  "▁dabat": 7922,
  "▁decor": 7923,
  "▁desid": 7924,
  "▁eruit": 7925,
  "▁excut": 7926,
  "▁fudit": 7927,
  "▁herba": 7928,
  "▁ingem": 7929,
  "▁malos": 7930,
  "▁morem": 7931,
  "▁nubem": 7932,
  "▁onera": 7933,
  "▁perib": 7934,
  "▁peste": 7935,
  "▁posse": 7936,
  "▁sacco": 7937,
  "▁sciat": 7938,
  "▁spern": 7939,
  "▁terti": 7940,
  "▁versa": 7941,
  "▁vices": 7942,
  "▁vineæ": 7943,
  "Insuper": 7944,
  "▁Azariæ": 7945,
  "▁Carmel": 7946,
  "▁Confit": 7947,
  "▁Henoch": 7948,
  "▁Hesron": 7949,
  "▁Judæus": 7950,
  "▁Magdal": 7951,
  "▁Rabsac": 7952,
  "▁Simoni": 7953,
  "▁Theman": 7954,
  "▁absorb": 7955,
  "▁accing": 7956,
  "▁aliquo": 7957,
  "▁anguli": 7958,
  "▁aureis": 7959,
  "▁calend": 7960,
  "▁conjun": 7961,
  "▁consur": 7962,
  "▁decima": 7963,
  "▁deinde": 7964,
  "▁delere": 7965,
  "▁despex": 7966,
  "▁eamdem": 7967,
  "▁evigil": 7968,
  "▁excels": 7969,
  "▁expand": 7970,
  "▁fideli": 7971,
  "▁fletus": 7972,
  "▁foveam": 7973,
  "▁fugere": 7974,
  "▁habeam": 7975,
  "▁labium": 7976,
  "▁manere": 7977,
  "▁mentis": 7978,
  "▁multus": 7979,
  "▁natura": 7980,
  "▁occisi": 7981,
  "▁operit": 7982,
  "▁pectus": 7983,
  "▁pollic": 7984,
  "▁ponere": 7985,
  "▁proxim": 7986,
  "▁reddit": 7987,
  "▁salute": 7988,
  "▁salvam": 7989,
  "▁sciant": 7990,
  "▁tenuit": 7991,
  "▁terræm": 7992,
  "▁turtur": 7993,
  "▁unanim": 7994,
  "▁ventre": 7995,
  "▁vituli": 7996,
  "Usquequo": 7997,
  "entesque": 7998,
  "necionem": 7999,
  "untiavit": 8000,
  "▁Chaldæi": 8001,
  "▁Eliasib": 8002,
  "▁Jacobum": 8003,
  "▁Ramatha": 8004,
  "▁adventu": 8005,
  "▁angulis": 8006,
  "▁aspectu": 8007,
  "▁brachia": 8008,
  "▁calefac": 8009,
  "▁comport": 8010,
  "▁consecr": 8011,
  "▁corruet": 8012,
  "▁delicta": 8013,
  "▁derelin": 8014,
  "▁dicetur": 8015,
  "▁docebat": 8016,
  "▁eripuit": 8017,
  "▁eunuchi": 8018,
  "▁fierent": 8019,
  "▁fulgura": 8020,
  "▁graduum": 8021,
  "▁habitas": 8022,
  "▁habitet": 8023,
  "▁lucerna": 8024,
  "▁malefic": 8025,
  "▁menstru": 8026,
  "▁operati": 8027,
  "▁peccavi": 8028,
  "▁pecorum": 8029,
  "▁percuti": 8030,
  "▁perdere": 8031,
  "▁prodest": 8032,
  "▁præerat": 8033,
  "▁quærere": 8034,
  "▁radicem": 8035,
  "▁respice": 8036,
  "▁sanitas": 8037,
  "▁scitote": 8038,
  "▁scribam": 8039,
  "▁secundi": 8040,
  "▁signati": 8041,
  "▁sorores": 8042,
  "▁statuas": 8043,
  "▁vasorum": 8044,
  "▁videtis": 8045,
  "Iratusque": 8046,
  "propterea": 8047,
  "▁Aminadab": 8048,
  "▁Artaxerx": 8049,
  "▁Chaldæos": 8050,
  "▁Jerimoth": 8051,
  "▁amatores": 8052,
  "▁ancillas": 8053,
  "▁animarum": 8054,
  "▁conteret": 8055,
  "▁corruent": 8056,
  "▁deficiet": 8057,
  "▁dentibus": 8058,
  "▁dimidiam": 8059,
  "▁faciamus": 8060,
  "▁ignorant": 8061,
  "▁incredul": 8062,
  "▁itineris": 8063,
  "▁loquatur": 8064,
  "▁oraculum": 8065,
  "▁permanet": 8066,
  "▁possitis": 8067,
  "▁primitiæ": 8068,
  "▁principe": 8069,
  "▁saturati": 8070,
  "▁scientiæ": 8071,
  "▁timebunt": 8072,
  "▁Ægyptiis": 8073,
  "▁Apostolus": 8074,
  "▁Baltassar": 8075,
  "▁Chananæus": 8076,
  "▁Evangelii": 8077,
  "▁Evangelio": 8078,
  "▁Philippus": 8079,
  "▁angelorum": 8080,
  "▁argenteum": 8081,
  "▁avaritiam": 8082,
  "▁calumniam": 8083,
  "▁carissimi": 8084,
  "▁cogitatio": 8085,
  "▁concilium": 8086,
  "▁confregit": 8087,
  "▁contrario": 8088,
  "▁deficient": 8089,
  "▁egrediens": 8090,
  "▁exaltavit": 8091,
  "▁fenestras": 8092,
  "▁judicavit": 8093,
  "▁loquentem": 8094,
  "▁novissimi": 8095,
  "▁pacificis": 8096,
  "▁præputium": 8097,
  "▁quærentes": 8098,
  "▁redemptor": 8099,
  "▁sanguinum": 8100,
  "▁serviamus": 8101,
  "▁stultitia": 8102,
  "▁vestibulo": 8103,
  "Dormivitque": 8104,
  "Veneruntque": 8105,
  "▁Achimelech": 8106,
  "▁Capharnaum": 8107,
  "▁Holofernes": 8108,
  "▁Holofernis": 8109,
  "▁Mathathias": 8110,
  "▁abominatio": 8111,
  "▁accedentes": 8112,
  "▁accepistis": 8113,
  "▁altitudine": 8114,
  "▁attulerunt": 8115,
  "▁conspectum": 8116,
  "▁dilectione": 8117,
  "▁invenietis": 8118,
  "▁mulieribus": 8119,
  "▁quinquagen": 8120,
  "▁receperunt": 8121,
  "▁resurrexit": 8122,
  "▁sententiam": 8123,
  "▁suavitatis": 8124,
  "▁videntibus": 8125,
  "▁cognoscetis": 8126,
  "▁dixeruntque": 8127,
  "▁immunditiam": 8128,
  "▁intelligens": 8129,
  "▁intelligere": 8130,
  "▁orationibus": 8131,
  "▁possidendam": 8132,
  "▁respiciebat": 8133,
  "▁respondebit": 8134,
  "▁revertimini": 8135,
  "▁sacrificiis": 8136,
  "▁septentrion": 8137,
  "▁unumquemque": 8138,
  "▁contristatus": 8139,
  "▁ingrederetur": 8140,
  "▁multiplicati": 8141,
  "▁deprecationem": 8142,
  "▁gazophylacium": 8143,
  "▁internecionem": 8144,
  "En": 8145,
  "Os": 8146,
  "Dum": 8147,
  "Exp": 8148,
  "Gen": 8149,
  "Hum": 8150,
  "Nol": 8151,
  "bov": 8152,
  "bul": 8153,
  "hum": 8154,
  "lii": 8155,
  "lut": 8156,
  "mer": 8157,
  "nos": 8158,
  "olæ": 8159,
  "▁Eg": 8160,
  "▁Or": 8161,
  "▁aë": 8162,
  "Ante": 8163,
  "Dixi": 8164,
  "Inde": 8165,
  "Onus": 8166,
  "Plac": 8167,
  "cons": 8168,
  "dius": 8169,
  "edec": 8170,
  "eleg": 8171,
  "eliæ": 8172,
  "ensi": 8173,
  "idus": 8174,
  "miss": 8175,
  "phaz": 8176,
  "quot": 8177,
  "rias": 8178,
  "scon": 8179,
  "serv": 8180,
  "sump": 8181,
  "tera": 8182,
  "tunc": 8183,
  "turi": 8184,
  "utam": 8185,
  "æque": 8186,
  "▁Ait": 8187,
  "▁Bap": 8188,
  "▁Cap": 8189,
  "▁Ded": 8190,
  "▁Hem": 8191,
  "▁Heu": 8192,
  "▁Hur": 8193,
  "▁Hus": 8194,
  "▁Moh": 8195,
  "▁Nos": 8196,
  "▁Ses": 8197,
  "▁auc": 8198,
  "▁cas": 8199,
  "▁cic": 8200,
  "▁mœr": 8201,
  "▁ran": 8202,
  "▁ris": 8203,
  "▁vor": 8204,
  "Bonum": 8205,
  "Domus": 8206,
  "Pater": 8207,
  "alæst": 8208,
  "ardan": 8209,
  "areth": 8210,
  "culum": 8211,
  "ellis": 8212,
  "empus": 8213,
  "enago": 8214,
  "entas": 8215,
  "escat": 8216,
  "estum": 8217,
  "icord": 8218,
  "ident": 8219,
  "illas": 8220,
  "imaas": 8221,
  "iphib": 8222,
  "ittam": 8223,
  "ittit": 8224,
  "judic": 8225,
  "obaal": 8226,
  "serit": 8227,
  "xerit": 8228,
  "▁Anna": 8229,
  "▁Care": 8230,
  "▁Desc": 8231,
  "▁Eliæ": 8232,
  "▁Jair": 8233,
  "▁Nesc": 8234,
  "▁Oliv": 8235,
  "▁Osee": 8236,
  "▁Phel": 8237,
  "▁Tunc": 8238,
  "▁agis": 8239,
  "▁agit": 8240,
  "▁aram": 8241,
  "▁curs": 8242,
  "▁cute": 8243,
  "▁exor": 8244,
  "▁fere": 8245,
  "▁frac": 8246,
  "▁intu": 8247,
  "▁lacu": 8248,
  "▁legi": 8249,
  "▁nerv": 8250,
  "▁nong": 8251,
  "▁nota": 8252,
  "▁resp": 8253,
  "▁sita": 8254,
  "▁ullo": 8255,
  "▁util": 8256,
  "▁utri": 8257,
  "Melior": 8258,
  "Petrus": 8259,
  "Septem": 8260,
  "mentum": 8261,
  "rarent": 8262,
  "rebant": 8263,
  "vertit": 8264,
  "▁Cenez": 8265,
  "▁Nabuz": 8266,
  "▁Rabbi": 8267,
  "▁Samar": 8268,
  "▁Sarai": 8269,
  "▁Syria": 8270,
  "▁Urias": 8271,
  "▁Zebed": 8272,
  "▁arcus": 8273,
  "▁arena": 8274,
  "▁arrog": 8275,
  "▁balte": 8276,
  "▁dicta": 8277,
  "▁emiss": 8278,
  "▁excub": 8279,
  "▁fatig": 8280,
  "▁forin": 8281,
  "▁illas": 8282,
  "▁impio": 8283,
  "▁innox": 8284,
  "▁inval": 8285,
  "▁juste": 8286,
  "▁ligni": 8287,
  "▁memin": 8288,
  "▁menti": 8289,
  "▁navis": 8290,
  "▁nosse": 8291,
  "▁nudus": 8292,
  "▁orare": 8293,
  "▁pavor": 8294,
  "▁pilos": 8295,
  "▁pleni": 8296,
  "▁ponat": 8297,
  "▁recep": 8298,
  "▁redig": 8299,
  "▁repos": 8300,
  "▁scias": 8301,
  "▁scito": 8302,
  "▁serot": 8303,
  "▁sexto": 8304,
  "▁sexus": 8305,
  "▁somno": 8306,
  "▁summa": 8307,
  "▁talis": 8308,
  "▁utile": 8309,
  "▁vadat": 8310,
  "▁venti": 8311,
  "▁visus": 8312,
  "▁vixit": 8313,
  "▁zelus": 8314,
  "Populus": 8315,
  "Præcipe": 8316,
  "acumque": 8317,
  "etipsum": 8318,
  "numquid": 8319,
  "uxitque": 8320,
  "▁Esdras": 8321,
  "▁Hermon": 8322,
  "▁Jehiel": 8323,
  "▁Josias": 8324,
  "▁Misach": 8325,
  "▁Ninive": 8326,
  "▁Palæst": 8327,
  "▁Rubrum": 8328,
  "▁Syriam": 8329,
  "▁adimpl": 8330,
  "▁aridam": 8331,
  "▁aureas": 8332,
  "▁bibent": 8333,
  "▁campum": 8334,
  "▁cinere": 8335,
  "▁cultum": 8336,
  "▁disput": 8337,
  "▁dixero": 8338,
  "▁futura": 8339,
  "▁gradus": 8340,
  "▁incend": 8341,
  "▁indust": 8342,
  "▁inquam": 8343,
  "▁involv": 8344,
  "▁januam": 8345,
  "▁moriar": 8346,
  "▁nullam": 8347,
  "▁occidi": 8348,
  "▁oppugn": 8349,
  "▁pallio": 8350,
  "▁parcet": 8351,
  "▁patria": 8352,
  "▁perduc": 8353,
  "▁prædix": 8354,
  "▁querel": 8355,
  "▁recumb": 8356,
  "▁refrig": 8357,
  "▁respex": 8358,
  "▁robore": 8359,
  "▁sagitt": 8360,
  "▁saltem": 8361,
  "▁sociis": 8362,
  "▁suffoc": 8363,
  "▁tenens": 8364,
  "▁terror": 8365,
  "▁tonitr": 8366,
  "▁tradid": 8367,
  "▁traduc": 8368,
  "▁transl": 8369,
  "▁tunica": 8370,
  "▁vacuum": 8371,
  "▁vellet": 8372,
  "▁venies": 8373,
  "▁vertit": 8374,
  "▁vestem": 8375,
  "▁viarum": 8376,
  "▁vulvam": 8377,
  "averimus": 8378,
  "iatorium": 8379,
  "▁Abigail": 8380,
  "▁Afferte": 8381,
  "▁Jebusæi": 8382,
  "▁Jephone": 8383,
  "▁Jonadab": 8384,
  "▁Melchis": 8385,
  "▁Ptolema": 8386,
  "▁Sedeciæ": 8387,
  "▁Siceleg": 8388,
  "▁Sidrach": 8389,
  "▁accepto": 8390,
  "▁accidit": 8391,
  "▁adducet": 8392,
  "▁alienum": 8393,
  "▁aperire": 8394,
  "▁ascende": 8395,
  "▁audiant": 8396,
  "▁bestiam": 8397,
  "▁buccina": 8398,
  "▁cantici": 8399,
  "▁circums": 8400,
  "▁commune": 8401,
  "▁cubitum": 8402,
  "▁delevit": 8403,
  "▁destruc": 8404,
  "▁dilecto": 8405,
  "▁dispens": 8406,
  "▁dolores": 8407,
  "▁facerem": 8408,
  "▁ferment": 8409,
  "▁fidelem": 8410,
  "▁ignorat": 8411,
  "▁impetum": 8412,
  "▁incenso": 8413,
  "▁intulit": 8414,
  "▁jacebat": 8415,
  "▁lætitiæ": 8416,
  "▁maledix": 8417,
  "▁memores": 8418,
  "▁offerat": 8419,
  "▁omnipot": 8420,
  "▁operiet": 8421,
  "▁ordines": 8422,
  "▁paratum": 8423,
  "▁paratus": 8424,
  "▁perterr": 8425,
  "▁psallam": 8426,
  "▁quamdiu": 8427,
  "▁quærite": 8428,
  "▁rapinam": 8429,
  "▁reverti": 8430,
  "▁seipsum": 8431,
  "▁semitam": 8432,
  "▁semitis": 8433,
  "▁servite": 8434,
  "▁speciem": 8435,
  "▁stultum": 8436,
  "▁torrens": 8437,
  "▁tradita": 8438,
  "▁ventris": 8439,
  "▁vicibus": 8440,
  "▁viculis": 8441,
  "▁viveret": 8442,
  "Sanctific": 8443,
  "▁Abdenago": 8444,
  "▁Astaroth": 8445,
  "▁Jerobaal": 8446,
  "▁Usquequo": 8447,
  "▁abscondi": 8448,
  "▁acquiesc": 8449,
  "▁adventus": 8450,
  "▁captivos": 8451,
  "▁circumst": 8452,
  "▁creaturæ": 8453,
  "▁creditis": 8454,
  "▁decretum": 8455,
  "▁ducentos": 8456,
  "▁eleemosy": 8457,
  "▁eruntque": 8458,
  "▁exaudies": 8459,
  "▁expandit": 8460,
  "▁graditur": 8461,
  "▁habeatis": 8462,
  "▁hebdomad": 8463,
  "▁infirmus": 8464,
  "▁labiorum": 8465,
  "▁legitima": 8466,
  "▁liberare": 8467,
  "▁noverunt": 8468,
  "▁partibus": 8469,
  "▁parvulum": 8470,
  "▁pastorem": 8471,
  "▁pertinet": 8472,
  "▁potentia": 8473,
  "▁reliquis": 8474,
  "▁salvavit": 8475,
  "▁sequitur": 8476,
  "▁traderet": 8477,
  "▁tributum": 8478,
  "▁videamus": 8479,
  "▁viventis": 8480,
  "▁æquitate": 8481,
  "iphiboseth": 8482,
  "▁Ptolemæus": 8483,
  "▁anniculum": 8484,
  "▁apparebit": 8485,
  "▁applicuit": 8486,
  "▁audierint": 8487,
  "▁confidunt": 8488,
  "▁contritio": 8489,
  "▁credentes": 8490,
  "▁descendat": 8491,
  "▁ejecerunt": 8492,
  "▁extendens": 8493,
  "▁habebitis": 8494,
  "▁laudabunt": 8495,
  "▁loquentur": 8496,
  "▁manserunt": 8497,
  "▁memoriale": 8498,
  "▁moreretur": 8499,
  "▁orientali": 8500,
  "▁plenitudo": 8501,
  "▁thesaurum": 8502,
  "▁unctionis": 8503,
  "▁Nabuzardan": 8504,
  "▁Omnipotens": 8505,
  "▁benedicite": 8506,
  "▁erraverunt": 8507,
  "▁forinsecus": 8508,
  "▁impleretur": 8509,
  "▁invenietur": 8510,
  "▁munitionem": 8511,
  "▁ostenderet": 8512,
  "▁participes": 8513,
  "▁respondere": 8514,
  "▁sculptilia": 8515,
  "▁summitatem": 8516,
  "▁suscitabit": 8517,
  "▁voluntatis": 8518,
  "▁abundantius": 8519,
  "▁amaritudine": 8520,
  "▁cognationem": 8521,
  "▁congregabit": 8522,
  "▁conscientia": 8523,
  "▁constitutus": 8524,
  "▁consumentur": 8525,
  "▁contritione": 8526,
  "▁magnitudine": 8527,
  "▁miserebitur": 8528,
  "▁primogeniti": 8529,
  "▁principatum": 8530,
  "▁remanserunt": 8531,
  "▁sequebantur": 8532,
  "▁absconderunt": 8533,
  "▁comprehendit": 8534,
  "▁conscientiam": 8535,
  "▁exploratores": 8536,
  "▁longitudinem": 8537,
  "▁quartadecima": 8538,
  "▁abominationem": 8539,
  "▁declinaverunt": 8540,
  "▁indignationis": 8541,
  "▁interficerent": 8542,
  "▁supellectilem": 8543,
  "▁pulchritudinem": 8544,
  "▁abominationibus": 8545,
  "▁interrogaverunt": 8546,
  "▁tribulationibus": 8547,
  "Ag": 8548,
  "Ib": 8549,
  "Mi": 8550,
  "Ind": 8551,
  "Tur": 8552,
  "ace": 8553,
  "enu": 8554,
  "eti": 8555,
  "lyt": 8556,
  "vis": 8557,
  "zab": 8558,
  "▁Pr": 8559,
  "Comp": 8560,
  "Ista": 8561,
  "Isti": 8562,
  "Mens": 8563,
  "Quos": 8564,
  "Vidi": 8565,
  "anai": 8566,
  "arch": 8567,
  "eddo": 8568,
  "elix": 8569,
  "enna": 8570,
  "gnis": 8571,
  "ibat": 8572,
  "ilam": 8573,
  "ipso": 8574,
  "lica": 8575,
  "mini": 8576,
  "odor": 8577,
  "olas": 8578,
  "onus": 8579,
  "port": 8580,
  "quir": 8581,
  "seud": 8582,
  "ultu": 8583,
  "utio": 8584,
  "▁Agg": 8585,
  "▁Com": 8586,
  "▁Dab": 8587,
  "▁Dec": 8588,
  "▁Gam": 8589,
  "▁Lam": 8590,
  "▁Lob": 8591,
  "▁Red": 8592,
  "▁Sun": 8593,
  "▁Vad": 8594,
  "▁abl": 8595,
  "▁alv": 8596,
  "▁dei": 8597,
  "▁fel": 8598,
  "▁leæ": 8599,
  "▁nix": 8600,
  "Judas": 8601,
  "Vidit": 8602,
  "andos": 8603,
  "anter": 8604,
  "assem": 8605,
  "assur": 8606,
  "ectis": 8607,
  "ellai": 8608,
  "inthi": 8609,
  "itatu": 8610,
  "super": 8611,
  "taxat": 8612,
  "tique": 8613,
  "torem": 8614,
  "ustum": 8615,
  "▁Ammi": 8616,
  "▁Aram": 8617,
  "▁Atha": 8618,
  "▁Bene": 8619,
  "▁Cons": 8620,
  "▁Ipsi": 8621,
  "▁Nisi": 8622,
  "▁Sede": 8623,
  "▁Zech": 8624,
  "▁aves": 8625,
  "▁crep": 8626,
  "▁exec": 8627,
  "▁exig": 8628,
  "▁flos": 8629,
  "▁genu": 8630,
  "▁ivit": 8631,
  "▁jact": 8632,
  "▁jant": 8633,
  "▁litt": 8634,
  "▁lust": 8635,
  "▁luto": 8636,
  "▁more": 8637,
  "▁myrr": 8638,
  "▁null": 8639,
  "▁ortu": 8640,
  "▁ovis": 8641,
  "▁peri": 8642,
  "▁plum": 8643,
  "▁pran": 8644,
  "▁rite": 8645,
  "▁suad": 8646,
  "▁tuli": 8647,
  "▁ægyp": 8648,
  "▁æqua": 8649,
  "Factus": 8650,
  "Moyses": 8651,
  "Venite": 8652,
  "aribus": 8653,
  "eravit": 8654,
  "fficit": 8655,
  "gentum": 8656,
  "ittere": 8657,
  "quibus": 8658,
  "quorum": 8659,
  "rescet": 8660,
  "versus": 8661,
  "▁Amram": 8662,
  "▁Asaël": 8663,
  "▁Barac": 8664,
  "▁Caree": 8665,
  "▁Cilic": 8666,
  "▁Dagon": 8667,
  "▁Nihil": 8668,
  "▁Salut": 8669,
  "▁admir": 8670,
  "▁agris": 8671,
  "▁arbor": 8672,
  "▁asini": 8673,
  "▁datur": 8674,
  "▁draco": 8675,
  "▁excit": 8676,
  "▁gravi": 8677,
  "▁hædum": 8678,
  "▁ignob": 8679,
  "▁imped": 8680,
  "▁infin": 8681,
  "▁invas": 8682,
  "▁irent": 8683,
  "▁malle": 8684,
  "▁manip": 8685,
  "▁navim": 8686,
  "▁petræ": 8687,
  "▁plagæ": 8688,
  "▁pseud": 8689,
  "▁quæsi": 8690,
  "▁redux": 8691,
  "▁relin": 8692,
  "▁revoc": 8693,
  "▁sedem": 8694,
  "▁socii": 8695,
  "▁state": 8696,
  "▁strid": 8697,
  "▁sulph": 8698,
  "▁summi": 8699,
  "▁terga": 8700,
  "▁texit": 8701,
  "▁utres": 8702,
  "▁vivat": 8703,
  "▁volui": 8704,
  "▁æneum": 8705,
  "Circumd": 8706,
  "Univers": 8707,
  "epitque": 8708,
  "idcirco": 8709,
  "itiarum": 8710,
  "orsitan": 8711,
  "▁Ephrat": 8712,
  "▁Ephron": 8713,
  "▁Joanne": 8714,
  "▁Lysias": 8715,
  "▁Mariam": 8716,
  "▁accepi": 8717,
  "▁amplex": 8718,
  "▁asinis": 8719,
  "▁audiam": 8720,
  "▁beatus": 8721,
  "▁bibens": 8722,
  "▁calamo": 8723,
  "▁cedros": 8724,
  "▁commod": 8725,
  "▁compon": 8726,
  "▁crucem": 8727,
  "▁decimo": 8728,
  "▁delebo": 8729,
  "▁demoli": 8730,
  "▁deserv": 8731,
  "▁digito": 8732,
  "▁errore": 8733,
  "▁hostis": 8734,
  "▁impiis": 8735,
  "▁induit": 8736,
  "▁intuit": 8737,
  "▁januas": 8738,
  "▁lumbis": 8739,
  "▁magnas": 8740,
  "▁mellis": 8741,
  "▁mittit": 8742,
  "▁ordine": 8743,
  "▁partis": 8744,
  "▁pascua": 8745,
  "▁paucis": 8746,
  "▁pignus": 8747,
  "▁pullos": 8748,
  "▁quales": 8749,
  "▁qualis": 8750,
  "▁sacram": 8751,
  "▁sensum": 8752,
  "▁spicas": 8753,
  "▁tincto": 8754,
  "▁tribut": 8755,
  "▁unigen": 8756,
  "▁variis": 8757,
  "Reversus": 8758,
  "familias": 8759,
  "itatores": 8760,
  "▁Achitob": 8761,
  "▁Eliphaz": 8762,
  "▁Elisama": 8763,
  "▁Hethæum": 8764,
  "▁Michaël": 8765,
  "▁Raphaim": 8766,
  "▁Salathi": 8767,
  "▁Tollite": 8768,
  "▁addidit": 8769,
  "▁admirab": 8770,
  "▁agentes": 8771,
  "▁aliquam": 8772,
  "▁apertum": 8773,
  "▁armiger": 8774,
  "▁avertit": 8775,
  "▁benefic": 8776,
  "▁catenis": 8777,
  "▁cedrina": 8778,
  "▁confreg": 8779,
  "▁confusi": 8780,
  "▁contrem": 8781,
  "▁corrump": 8782,
  "▁credunt": 8783,
  "▁decorem": 8784,
  "▁delinqu": 8785,
  "▁diadema": 8786,
  "▁dividet": 8787,
  "▁ducenta": 8788,
  "▁ducibus": 8789,
  "▁effusus": 8790,
  "▁ejiciam": 8791,
  "▁flumine": 8792,
  "▁fluvius": 8793,
  "▁foribus": 8794,
  "▁fugeret": 8795,
  "▁gladiis": 8796,
  "▁humeris": 8797,
  "▁initium": 8798,
  "▁memento": 8799,
  "▁mercede": 8800,
  "▁nuntium": 8801,
  "▁paralyt": 8802,
  "▁pepigit": 8803,
  "▁piscium": 8804,
  "▁pondere": 8805,
  "▁prudens": 8806,
  "▁prætere": 8807,
  "▁puellam": 8808,
  "▁quartam": 8809,
  "▁recepit": 8810,
  "▁recipit": 8811,
  "▁residui": 8812,
  "▁servile": 8813,
  "▁sonitum": 8814,
  "▁tollere": 8815,
  "▁tributa": 8816,
  "▁tunicam": 8817,
  "▁victimæ": 8818,
  "▁viribus": 8819,
  "▁vocatum": 8820,
  "adraginta": 8821,
  "▁Antiochi": 8822,
  "▁Israëlem": 8823,
  "▁Ochozias": 8824,
  "▁abiisset": 8825,
  "▁angustiæ": 8826,
  "▁audietur": 8827,
  "▁caligine": 8828,
  "▁citharis": 8829,
  "▁civitati": 8830,
  "▁clamabat": 8831,
  "▁creatura": 8832,
  "▁delictum": 8833,
  "▁dimidium": 8834,
  "▁dumtaxat": 8835,
  "▁exeuntes": 8836,
  "▁haberent": 8837,
  "▁incorrup": 8838,
  "▁judicate": 8839,
  "▁jusserat": 8840,
  "▁libenter": 8841,
  "▁lætitiam": 8842,
  "▁oratione": 8843,
  "▁pacifice": 8844,
  "▁palmarum": 8845,
  "▁parabola": 8846,
  "▁pastorum": 8847,
  "▁pepercit": 8848,
  "▁perfecta": 8849,
  "▁personam": 8850,
  "▁pessimum": 8851,
  "▁pollutum": 8852,
  "▁promisit": 8853,
  "▁prostern": 8854,
  "▁protulit": 8855,
  "▁præsenti": 8856,
  "▁respexit": 8857,
  "▁sceptrum": 8858,
  "▁secundam": 8859,
  "▁sequenti": 8860,
  "▁servient": 8861,
  "▁solemnem": 8862,
  "▁substant": 8863,
  "▁tenentes": 8864,
  "▁tetendit": 8865,
  "▁timebant": 8866,
  "▁tumultus": 8867,
  "▁voluisti": 8868,
  "▁Altissimi": 8869,
  "▁Antiochum": 8870,
  "▁Bethsames": 8871,
  "▁Israëlitæ": 8872,
  "▁Philippum": 8873,
  "▁Sodomorum": 8874,
  "▁Zachariam": 8875,
  "▁acceperat": 8876,
  "▁acceperit": 8877,
  "▁accipiens": 8878,
  "▁bestiarum": 8879,
  "▁clamabunt": 8880,
  "▁custodiat": 8881,
  "▁derelicta": 8882,
  "▁dimiserit": 8883,
  "▁doloribus": 8884,
  "▁duodecimo": 8885,
  "▁exercitui": 8886,
  "▁fructibus": 8887,
  "▁habitatis": 8888,
  "▁hypocritæ": 8889,
  "▁juventute": 8890,
  "▁monumento": 8891,
  "▁moriemini": 8892,
  "▁occiderit": 8893,
  "▁osculatus": 8894,
  "▁parabolis": 8895,
  "▁plantavit": 8896,
  "▁prohibere": 8897,
  "▁protector": 8898,
  "▁prædicans": 8899,
  "▁quiescere": 8900,
  "▁reliquiis": 8901,
  "▁senectute": 8902,
  "▁sepulchra": 8903,
  "▁tempestas": 8904,
  "▁trigesimo": 8905,
  "▁videbatur": 8906,
  "Unusquisque": 8907,
  "▁apparuerit": 8908,
  "▁aromatibus": 8909,
  "▁benedictio": 8910,
  "▁consurgent": 8911,
  "▁dimittetur": 8912,
  "▁diviserunt": 8913,
  "▁dormierunt": 8914,
  "▁habitaculo": 8915,
  "▁holocausto": 8916,
  "▁impietatem": 8917,
  "▁ingreditur": 8918,
  "▁intellexit": 8919,
  "▁interioris": 8920,
  "▁majestatis": 8921,
  "▁ministrent": 8922,
  "▁misereatur": 8923,
  "▁prophetant": 8924,
  "▁provinciis": 8925,
  "▁quæsierunt": 8926,
  "▁societatem": 8927,
  "▁tantummodo": 8928,
  "▁terræmotus": 8929,
  "▁transgress": 8930,
  "▁voluptatis": 8931,
  "▁Miphiboseth": 8932,
  "▁absconditus": 8933,
  "▁adversarios": 8934,
  "▁credidistis": 8935,
  "▁extinguetur": 8936,
  "▁interficiat": 8937,
  "▁ministrabat": 8938,
  "▁reputabitur": 8939,
  "▁volatilibus": 8940,
  "▁captivitatis": 8941,
  "▁commovebitur": 8942,
  "▁confundantur": 8943,
  "▁convertentur": 8944,
  "▁egrediebatur": 8945,
  "▁exsultatione": 8946,
  "▁magnitudinem": 8947,
  "▁ministrabant": 8948,
  "▁reverteretur": 8949,
  "▁fornicationem": 8950,
  "▁fornicationes": 8951,
  "▁concupiscentia": 8952,
  "▁solemnitatibus": 8953,
  "Da": 8954,
  "Is": 8955,
  "Or": 8956,
  "Aff": 8957,
  "Cap": 8958,
  "Cec": 8959,
  "Des": 8960,
  "Duc": 8961,
  "Duo": 8962,
  "Fug": 8963,
  "Ita": 8964,
  "Lab": 8965,
  "Pop": 8966,
  "Rog": 8967,
  "Vol": 8968,
  "cel": 8969,
  "dia": 8970,
  "gar": 8971,
  "hic": 8972,
  "hur": 8973,
  "ibo": 8974,
  "lul": 8975,
  "otæ": 8976,
  "pos": 8977,
  "rai": 8978,
  "rar": 8979,
  "rud": 8980,
  "sas": 8981,
  "▁Er": 8982,
  "▁Ga": 8983,
  "▁bl": 8984,
  "▁pe": 8985,
  "Gaud": 8986,
  "Iste": 8987,
  "Loqu": 8988,
  "Mane": 8989,
  "Mult": 8990,
  "Nunt": 8991,
  "Trad": 8992,
  "agit": 8993,
  "asin": 8994,
  "este": 8995,
  "illo": 8996,
  "mana": 8997,
  "mitt": 8998,
  "mort": 8999,
  "omor": 9000,
  "tori": 9001,
  "ufer": 9002,
  "▁Alc": 9003,
  "▁Eth": 9004,
  "▁Ext": 9005,
  "▁Gog": 9006,
  "▁Imp": 9007,
  "▁Isb": 9008,
  "▁Ita": 9009,
  "▁Jap": 9010,
  "▁Mod": 9011,
  "▁Par": 9012,
  "▁Res": 9013,
  "▁Sel": 9014,
  "▁Ter": 9015,
  "▁Vis": 9016,
  "▁aus": 9017,
  "▁oll": 9018,
  "▁pug": 9019,
  "▁rid": 9020,
  "▁spi": 9021,
  "▁vom": 9022,
  "David": 9023,
  "Quasi": 9024,
  "Terra": 9025,
  "ameel": 9026,
  "asson": 9027,
  "athed": 9028,
  "bovem": 9029,
  "eplac": 9030,
  "ibili": 9031,
  "ilius": 9032,
  "latha": 9033,
  "oniis": 9034,
  "rabat": 9035,
  "turum": 9036,
  "uplum": 9037,
  "xisti": 9038,
  "▁Fiat": 9039,
  "▁Iste": 9040,
  "▁Sich": 9041,
  "▁Verb": 9042,
  "▁ager": 9043,
  "▁agni": 9044,
  "▁arch": 9045,
  "▁attr": 9046,
  "▁cing": 9047,
  "▁crem": 9048,
  "▁curv": 9049,
  "▁domi": 9050,
  "▁dura": 9051,
  "▁egit": 9052,
  "▁eunt": 9053,
  "▁evas": 9054,
  "▁foli": 9055,
  "▁grab": 9056,
  "▁idem": 9057,
  "▁mira": 9058,
  "▁orta": 9059,
  "▁porc": 9060,
  "▁præf": 9061,
  "▁rore": 9062,
  "▁scut": 9063,
  "▁sume": 9064,
  "▁tale": 9065,
  "▁tred": 9066,
  "Deinde": 9067,
  "Humili": 9068,
  "Justus": 9069,
  "abimur": 9070,
  "entius": 9071,
  "icorum": 9072,
  "imento": 9073,
  "inaria": 9074,
  "iretur": 9075,
  "onites": 9076,
  "rantem": 9077,
  "riptum": 9078,
  "▁Andre": 9079,
  "▁Cedar": 9080,
  "▁Darii": 9081,
  "▁Eglon": 9082,
  "▁Inter": 9083,
  "▁Jonas": 9084,
  "▁Jozab": 9085,
  "▁Patri": 9086,
  "▁Thare": 9087,
  "▁addit": 9088,
  "▁adipe": 9089,
  "▁animi": 9090,
  "▁aperi": 9091,
  "▁arcem": 9092,
  "▁auric": 9093,
  "▁capre": 9094,
  "▁carni": 9095,
  "▁copul": 9096,
  "▁curam": 9097,
  "▁curru": 9098,
  "▁cœtus": 9099,
  "▁digni": 9100,
  "▁effus": 9101,
  "▁eripe": 9102,
  "▁evacu": 9103,
  "▁exult": 9104,
  "▁indum": 9105,
  "▁ipsam": 9106,
  "▁irrig": 9107,
  "▁istas": 9108,
  "▁lilia": 9109,
  "▁limen": 9110,
  "▁lotus": 9111,
  "▁mitto": 9112,
  "▁odium": 9113,
  "▁operi": 9114,
  "▁orans": 9115,
  "▁ornam": 9116,
  "▁ostio": 9117,
  "▁pacti": 9118,
  "▁palmæ": 9119,
  "▁piger": 9120,
  "▁polym": 9121,
  "▁promp": 9122,
  "▁ramis": 9123,
  "▁ramos": 9124,
  "▁redde": 9125,
  "▁scind": 9126,
  "▁sequi": 9127,
  "▁sinum": 9128,
  "▁stirp": 9129,
  "▁terre": 9130,
  "▁turbo": 9131,
  "▁venis": 9132,
  "▁vivos": 9133,
  "▁vocab": 9134,
  "▁æstus": 9135,
  "Custodi": 9136,
  "Juravit": 9137,
  "Laudate": 9138,
  "untiate": 9139,
  "uperunt": 9140,
  "▁Beroth": 9141,
  "▁Gomorr": 9142,
  "▁Hethæi": 9143,
  "▁Moholi": 9144,
  "▁Naaman": 9145,
  "▁Rechab": 9146,
  "▁Remmon": 9147,
  "▁Saphat": 9148,
  "▁accipe": 9149,
  "▁alarum": 9150,
  "▁aperit": 9151,
  "▁aperti": 9152,
  "▁append": 9153,
  "▁aquilæ": 9154,
  "▁avibus": 9155,
  "▁calvit": 9156,
  "▁cathed": 9157,
  "▁clausa": 9158,
  "▁collem": 9159,
  "▁comple": 9160,
  "▁conced": 9161,
  "▁copios": 9162,
  "▁cubile": 9163,
  "▁decore": 9164,
  "▁docuit": 9165,
  "▁domest": 9166,
  "▁eradic": 9167,
  "▁evagin": 9168,
  "▁exquis": 9169,
  "▁festiv": 9170,
  "▁figuli": 9171,
  "▁gallus": 9172,
  "▁gaudii": 9173,
  "▁gemmas": 9174,
  "▁habita": 9175,
  "▁hortum": 9176,
  "▁incant": 9177,
  "▁indica": 9178,
  "▁iniqua": 9179,
  "▁instit": 9180,
  "▁insurg": 9181,
  "▁lament": 9182,
  "▁laqueo": 9183,
  "▁laudis": 9184,
  "▁libros": 9185,
  "▁maneat": 9186,
  "▁maxima": 9187,
  "▁mediam": 9188,
  "▁messem": 9189,
  "▁modico": 9190,
  "▁nescis": 9191,
  "▁nihilo": 9192,
  "▁nostis": 9193,
  "▁oppida": 9194,
  "▁pelles": 9195,
  "▁pereat": 9196,
  "▁potent": 9197,
  "▁profec": 9198,
  "▁rectus": 9199,
  "▁redund": 9200,
  "▁sadduc": 9201,
  "▁subjug": 9202,
  "▁tabulæ": 9203,
  "▁tollat": 9204,
  "▁transi": 9205,
  "▁turris": 9206,
  "▁valida": 9207,
  "▁vendit": 9208,
  "▁videam": 9209,
  "▁virent": 9210,
  "▁virgas": 9211,
  "Dicebant": 9212,
  "Tulitque": 9213,
  "apropter": 9214,
  "automata": 9215,
  "ebantque": 9216,
  "iatumque": 9217,
  "▁Adonias": 9218,
  "▁Apollon": 9219,
  "▁Damasco": 9220,
  "▁Danieli": 9221,
  "▁Jonatha": 9222,
  "▁Josedec": 9223,
  "▁Nicanor": 9224,
  "▁Populus": 9225,
  "▁Romeliæ": 9226,
  "▁adhæsit": 9227,
  "▁adorare": 9228,
  "▁afferte": 9229,
  "▁arborem": 9230,
  "▁audient": 9231,
  "▁auxilio": 9232,
  "▁averter": 9233,
  "▁baculum": 9234,
  "▁bibetis": 9235,
  "▁captivi": 9236,
  "▁cessare": 9237,
  "▁ceteros": 9238,
  "▁clamans": 9239,
  "▁cunctam": 9240,
  "▁debemus": 9241,
  "▁debetis": 9242,
  "▁dederis": 9243,
  "▁deducet": 9244,
  "▁demonst": 9245,
  "▁dijudic": 9246,
  "▁displic": 9247,
  "▁diximus": 9248,
  "▁docebit": 9249,
  "▁dormies": 9250,
  "▁electus": 9251,
  "▁eratque": 9252,
  "▁exacerb": 9253,
  "▁excelsi": 9254,
  "▁excepto": 9255,
  "▁feminam": 9256,
  "▁fortior": 9257,
  "▁fuistis": 9258,
  "▁funibus": 9259,
  "▁habeant": 9260,
  "▁humiles": 9261,
  "▁indigen": 9262,
  "▁jecoris": 9263,
  "▁liberat": 9264,
  "▁littore": 9265,
  "▁meipsum": 9266,
  "▁mulieri": 9267,
  "▁officio": 9268,
  "▁paradis": 9269,
  "▁pauperi": 9270,
  "▁permans": 9271,
  "▁plurimi": 9272,
  "▁possint": 9273,
  "▁profert": 9274,
  "▁profund": 9275,
  "▁præstit": 9276,
  "▁præstol": 9277,
  "▁pugnare": 9278,
  "▁quartum": 9279,
  "▁quæsivi": 9280,
  "▁ratione": 9281,
  "▁robusti": 9282,
  "▁similia": 9283,
  "▁sponsus": 9284,
  "▁sublime": 9285,
  "▁terrore": 9286,
  "▁thronus": 9287,
  "▁timebis": 9288,
  "▁tristis": 9289,
  "▁tumultu": 9290,
  "▁tunicas": 9291,
  "▁uterque": 9292,
  "Custodite": 9293,
  "Ingressus": 9294,
  "pitudinem": 9295,
  "▁Assyrios": 9296,
  "▁Chananæi": 9297,
  "▁Isboseth": 9298,
  "▁Jebusæum": 9299,
  "▁ambulate": 9300,
  "▁assumens": 9301,
  "▁audirent": 9302,
  "▁australi": 9303,
  "▁biberunt": 9304,
  "▁castella": 9305,
  "▁clamoris": 9306,
  "▁collibus": 9307,
  "▁comedunt": 9308,
  "▁concilio": 9309,
  "▁confusio": 9310,
  "▁deditque": 9311,
  "▁desideri": 9312,
  "▁epistolæ": 9313,
  "▁fundavit": 9314,
  "▁infideli": 9315,
  "▁instaura": 9316,
  "▁interitu": 9317,
  "▁interius": 9318,
  "▁introdux": 9319,
  "▁inventum": 9320,
  "▁lampades": 9321,
  "▁machinas": 9322,
  "▁nequando": 9323,
  "▁noluerit": 9324,
  "▁offertur": 9325,
  "▁oporteat": 9326,
  "▁pessimis": 9327,
  "▁portabit": 9328,
  "▁possedit": 9329,
  "▁possimus": 9330,
  "▁psallite": 9331,
  "▁pusillum": 9332,
  "▁regnabit": 9333,
  "▁regnaret": 9334,
  "▁requiram": 9335,
  "▁residuum": 9336,
  "▁robustus": 9337,
  "▁sementem": 9338,
  "▁stuporem": 9339,
  "▁terminis": 9340,
  "▁tonitrua": 9341,
  "▁tredecim": 9342,
  "▁videbant": 9343,
  "▁videntis": 9344,
  "▁Ægyptios": 9345,
  "▁Ingredere": 9346,
  "▁Salathiel": 9347,
  "▁Timotheum": 9348,
  "▁accipient": 9349,
  "▁ambulabat": 9350,
  "▁ambuletis": 9351,
  "▁amicitiam": 9352,
  "▁australem": 9353,
  "▁baptizati": 9354,
  "▁camelorum": 9355,
  "▁coluerunt": 9356,
  "▁conclusit": 9357,
  "▁conspersæ": 9358,
  "▁contrivit": 9359,
  "▁dicentium": 9360,
  "▁diligatis": 9361,
  "▁diligebat": 9362,
  "▁fornicata": 9363,
  "▁glorietur": 9364,
  "▁gloriosus": 9365,
  "▁habitator": 9366,
  "▁invenitur": 9367,
  "▁mansuetud": 9368,
  "▁moriantur": 9369,
  "▁occidente": 9370,
  "▁orationis": 9371,
  "▁perfectus": 9372,
  "▁pharisæis": 9373,
  "▁prophetiæ": 9374,
  "▁provinciæ": 9375,
  "▁quacumque": 9376,
  "▁sapientem": 9377,
  "▁scabellum": 9378,
  "▁silentium": 9379,
  "▁trecentos": 9380,
  "Egressusque": 9381,
  "▁Scripturas": 9382,
  "▁accipietis": 9383,
  "▁confortare": 9384,
  "▁consolatus": 9385,
  "▁cæremoniis": 9386,
  "▁disciplina": 9387,
  "▁dæmoniorum": 9388,
  "▁exsultabit": 9389,
  "▁humilitate": 9390,
  "▁mandaverat": 9391,
  "▁meretricis": 9392,
  "▁mirabantur": 9393,
  "▁mundissimo": 9394,
  "▁oblationes": 9395,
  "▁peccatoris": 9396,
  "▁propositum": 9397,
  "▁requiescet": 9398,
  "▁respiciens": 9399,
  "▁sacrificii": 9400,
  "▁sempiterno": 9401,
  "▁sepulchris": 9402,
  "▁sollicitus": 9403,
  "▁tradiderit": 9404,
  "▁transisset": 9405,
  "▁tribulatio": 9406,
  "▁vocaverunt": 9407,
  "▁Mesopotamia": 9408,
  "▁absconditum": 9409,
  "▁confundetur": 9410,
  "▁contumeliam": 9411,
  "▁conturbatus": 9412,
  "▁derelinquam": 9413,
  "▁derelinquet": 9414,
  "▁habitantium": 9415,
  "▁humilitatem": 9416,
  "▁impossibile": 9417,
  "▁iniquitatum": 9418,
  "▁necessarium": 9419,
  "▁occurrerunt": 9420,
  "▁percussisti": 9421,
  "▁remanserant": 9422,
  "▁tradiderunt": 9423,
  "▁transeuntes": 9424,
  "▁vosmetipsos": 9425,
  "▁adolescentiæ": 9426,
  "▁celebrabitis": 9427,
  "▁habitationis": 9428,
  "▁ingrediuntur": 9429,
  "▁magnitudinis": 9430,
  "▁ædificaverat": 9431,
  "▁adinventiones": 9432,
  "▁magnificentia": 9433,
  "▁sanctificavit": 9434,
  "▁tribulationem": 9435,
  "▁ædificationem": 9436,
  "Ac": 9437,
  "Eo": 9438,
  "Fl": 9439,
  "uf": 9440,
  "yg": 9441,
  "Aut": 9442,
  "Dep": 9443,
  "Dim": 9444,
  "Eff": 9445,
  "Lib": 9446,
  "Nov": 9447,
  "Rep": 9448,
  "bar": 9449,
  "cam": 9450,
  "cut": 9451,
  "dux": 9452,
  "ezi": 9453,
  "his": 9454,
  "mam": 9455,
  "mus": 9456,
  "nan": 9457,
  "org": 9458,
  "pes": 9459,
  "set": 9460,
  "uro": 9461,
  "vor": 9462,
  "vos": 9463,
  "xad": 9464,
  "yss": 9465,
  "zeb": 9466,
  "▁Co": 9467,
  "▁Ty": 9468,
  "▁cu": 9469,
  "▁tæ": 9470,
  "Diss": 9471,
  "Mitt": 9472,
  "Prot": 9473,
  "areb": 9474,
  "arib": 9475,
  "arie": 9476,
  "ebar": 9477,
  "eneb": 9478,
  "erus": 9479,
  "essa": 9480,
  "hias": 9481,
  "hirc": 9482,
  "ibis": 9483,
  "iezi": 9484,
  "ihel": 9485,
  "inat": 9486,
  "mata": 9487,
  "mina": 9488,
  "ogor": 9489,
  "ollo": 9490,
  "oria": 9491,
  "orte": 9492,
  "pera": 9493,
  "quos": 9494,
  "sequ": 9495,
  "trad": 9496,
  "uria": 9497,
  "▁Ana": 9498,
  "▁Cyp": 9499,
  "▁Dib": 9500,
  "▁Gen": 9501,
  "▁Hag": 9502,
  "▁Jem": 9503,
  "▁Leb": 9504,
  "▁Mos": 9505,
  "▁Net": 9506,
  "▁Nob": 9507,
  "▁Pos": 9508,
  "▁Rog": 9509,
  "▁Sec": 9510,
  "▁Sum": 9511,
  "▁Val": 9512,
  "▁age": 9513,
  "▁bot": 9514,
  "▁cun": 9515,
  "▁cæm": 9516,
  "▁der": 9517,
  "▁dit": 9518,
  "▁fru": 9519,
  "▁ful": 9520,
  "▁mam": 9521,
  "▁nat": 9522,
  "▁niv": 9523,
  "▁not": 9524,
  "▁sto": 9525,
  "▁und": 9526,
  "Atque": 9527,
  "Cogit": 9528,
  "Defec": 9529,
  "Etiam": 9530,
  "Simon": 9531,
  "abeth": 9532,
  "addai": 9533,
  "ambri": 9534,
  "elial": 9535,
  "facta": 9536,
  "inxit": 9537,
  "liter": 9538,
  "occup": 9539,
  "oloch": 9540,
  "otius": 9541,
  "stitu": 9542,
  "terem": 9543,
  "tifex": 9544,
  "▁Abiu": 9545,
  "▁Acha": 9546,
  "▁Adad": 9547,
  "▁Asia": 9548,
  "▁Dies": 9549,
  "▁Laud": 9550,
  "▁Mamb": 9551,
  "▁Ruth": 9552,
  "▁Sama": 9553,
  "▁Seth": 9554,
  "▁Soba": 9555,
  "▁Tyro": 9556,
  "▁Vide": 9557,
  "▁arte": 9558,
  "▁avol": 9559,
  "▁bruc": 9560,
  "▁capi": 9561,
  "▁card": 9562,
  "▁clib": 9563,
  "▁crat": 9564,
  "▁culp": 9565,
  "▁erue": 9566,
  "▁fama": 9567,
  "▁ferv": 9568,
  "▁frem": 9569,
  "▁gyro": 9570,
  "▁hinn": 9571,
  "▁humo": 9572,
  "▁ibit": 9573,
  "▁olim": 9574,
  "▁pede": 9575,
  "▁prol": 9576,
  "▁prun": 9577,
  "▁pyth": 9578,
  "▁rubi": 9579,
  "▁sata": 9580,
  "▁sola": 9581,
  "▁spar": 9582,
  "▁spei": 9583,
  "▁sphæ": 9584,
  "▁sæpe": 9585,
  "▁tard": 9586,
  "▁uvas": 9587,
  "▁vidu": 9588,
  "▁ædes": 9589,
  "Abomin": 9590,
  "Exaudi": 9591,
  "Tempus": 9592,
  "ebatis": 9593,
  "entote": 9594,
  "idelis": 9595,
  "issimæ": 9596,
  "itatur": 9597,
  "phaxad": 9598,
  "ripsit": 9599,
  "tumque": 9600,
  "zellai": 9601,
  "▁Azoti": 9602,
  "▁Cujus": 9603,
  "▁Gazam": 9604,
  "▁Manue": 9605,
  "▁Samma": 9606,
  "▁Saram": 9607,
  "▁Selem": 9608,
  "▁Zabad": 9609,
  "▁addat": 9610,
  "▁addet": 9611,
  "▁agunt": 9612,
  "▁alias": 9613,
  "▁aream": 9614,
  "▁asinæ": 9615,
  "▁campi": 9616,
  "▁canis": 9617,
  "▁ceper": 9618,
  "▁darem": 9619,
  "▁datus": 9620,
  "▁delub": 9621,
  "▁diabo": 9622,
  "▁ducti": 9623,
  "▁egreg": 9624,
  "▁eleph": 9625,
  "▁eruat": 9626,
  "▁evell": 9627,
  "▁excid": 9628,
  "▁femur": 9629,
  "▁flere": 9630,
  "▁humus": 9631,
  "▁ibunt": 9632,
  "▁imput": 9633,
  "▁lacer": 9634,
  "▁locup": 9635,
  "▁lucis": 9636,
  "▁macul": 9637,
  "▁marit": 9638,
  "▁motus": 9639,
  "▁movit": 9640,
  "▁novam": 9641,
  "▁novis": 9642,
  "▁olivæ": 9643,
  "▁passi": 9644,
  "▁patru": 9645,
  "▁penet": 9646,
  "▁petit": 9647,
  "▁plebi": 9648,
  "▁proni": 9649,
  "▁præsc": 9650,
  "▁refer": 9651,
  "▁repon": 9652,
  "▁repud": 9653,
  "▁retin": 9654,
  "▁ruinæ": 9655,
  "▁sapph": 9656,
  "▁scorp": 9657,
  "▁secur": 9658,
  "▁serve": 9659,
  "▁sicli": 9660,
  "▁spinæ": 9661,
  "▁sumps": 9662,
  "▁tabul": 9663,
  "▁talem": 9664,
  "▁tales": 9665,
  "▁timet": 9666,
  "▁tinea": 9667,
  "▁torqu": 9668,
  "▁vadis": 9669,
  "▁vener": 9670,
  "▁virgæ": 9671,
  "▁vultu": 9672,
  "▁vulva": 9673,
  "▁æreum": 9674,
  "Audiens": 9675,
  "Gratias": 9676,
  "Mortuus": 9677,
  "Obsecro": 9678,
  "ariolum": 9679,
  "liciter": 9680,
  "raverit": 9681,
  "▁Azotum": 9682,
  "▁Belial": 9683,
  "▁Gratia": 9684,
  "▁Hevæum": 9685,
  "▁Jahiel": 9686,
  "▁Jemini": 9687,
  "▁Moloch": 9688,
  "▁Pharan": 9689,
  "▁Septem": 9690,
  "▁Sodoma": 9691,
  "▁Videte": 9692,
  "▁Zechri": 9693,
  "▁ablata": 9694,
  "▁accept": 9695,
  "▁animad": 9696,
  "▁attenu": 9697,
  "▁austro": 9698,
  "▁caligo": 9699,
  "▁canist": 9700,
  "▁clamat": 9701,
  "▁comped": 9702,
  "▁contic": 9703,
  "▁dedero": 9704,
  "▁dextræ": 9705,
  "▁dissim": 9706,
  "▁dorsum": 9707,
  "▁dulced": 9708,
  "▁eumdem": 9709,
  "▁euntes": 9710,
  "▁expoli": 9711,
  "▁extoll": 9712,
  "▁femina": 9713,
  "▁ferrea": 9714,
  "▁festum": 9715,
  "▁flammæ": 9716,
  "▁fregit": 9717,
  "▁horrea": 9718,
  "▁hostia": 9719,
  "▁inclus": 9720,
  "▁inquir": 9721,
  "▁instar": 9722,
  "▁latera": 9723,
  "▁lepram": 9724,
  "▁liberi": 9725,
  "▁neglig": 9726,
  "▁nescit": 9727,
  "▁odoris": 9728,
  "▁offens": 9729,
  "▁optima": 9730,
  "▁paries": 9731,
  "▁perrex": 9732,
  "▁plenas": 9733,
  "▁primis": 9734,
  "▁profer": 9735,
  "▁quæque": 9736,
  "▁quæris": 9737,
  "▁scutum": 9738,
  "▁solvit": 9739,
  "▁sperat": 9740,
  "▁spinas": 9741,
  "▁superf": 9742,
  "▁throni": 9743,
  "▁turbis": 9744,
  "▁utinam": 9745,
  "▁vadens": 9746,
  "▁viduam": 9747,
  "▁ædibus": 9748,
  "Deditque": 9749,
  "Quidquid": 9750,
  "agesimum": 9751,
  "iteantur": 9752,
  "rantibus": 9753,
  "▁Assueri": 9754,
  "▁Azariam": 9755,
  "▁Barachi": 9756,
  "▁Bethsan": 9757,
  "▁Eliacim": 9758,
  "▁Eliseum": 9759,
  "▁Ochoziæ": 9760,
  "▁Peccavi": 9761,
  "▁Rebecca": 9762,
  "▁Salmana": 9763,
  "▁assumam": 9764,
  "▁auferes": 9765,
  "▁cecinit": 9766,
  "▁commota": 9767,
  "▁complev": 9768,
  "▁confusa": 9769,
  "▁contriv": 9770,
  "▁curavit": 9771,
  "▁dabitis": 9772,
  "▁daboque": 9773,
  "▁deambul": 9774,
  "▁derisum": 9775,
  "▁dicemus": 9776,
  "▁digitum": 9777,
  "▁dimidia": 9778,
  "▁duxerit": 9779,
  "▁ejicere": 9780,
  "▁eritque": 9781,
  "▁evadere": 9782,
  "▁formido": 9783,
  "▁fratern": 9784,
  "▁ignoras": 9785,
  "▁insulis": 9786,
  "▁laqueus": 9787,
  "▁lectulo": 9788,
  "▁locustæ": 9789,
  "▁lætatus": 9790,
  "▁maculam": 9791,
  "▁malitiæ": 9792,
  "▁mansuet": 9793,
  "▁minimus": 9794,
  "▁montana": 9795,
  "▁nepotes": 9796,
  "▁nobiles": 9797,
  "▁occisus": 9798,
  "▁operari": 9799,
  "▁palatii": 9800,
  "▁perturb": 9801,
  "▁pingued": 9802,
  "▁positus": 9803,
  "▁promitt": 9804,
  "▁quartus": 9805,
  "▁quievit": 9806,
  "▁relicto": 9807,
  "▁require": 9808,
  "▁rogavit": 9809,
  "▁sagitta": 9810,
  "▁salvabo": 9811,
  "▁satrapæ": 9812,
  "▁secreto": 9813,
  "▁septimi": 9814,
  "▁sequens": 9815,
  "▁servare": 9816,
  "▁subsist": 9817,
  "▁subvers": 9818,
  "▁sumptus": 9819,
  "▁tollens": 9820,
  "▁tradent": 9821,
  "▁tribuat": 9822,
  "▁tribuit": 9823,
  "▁videram": 9824,
  "▁vocatis": 9825,
  "▁Ægyptus": 9826,
  "Principes": 9827,
  "gredimini": 9828,
  "hircumque": 9829,
  "▁Abinadab": 9830,
  "▁Achimaas": 9831,
  "▁Apostoli": 9832,
  "▁Bethoron": 9833,
  "▁Nazareth": 9834,
  "▁Scriptum": 9835,
  "▁adducite": 9836,
  "▁ambulans": 9837,
  "▁anathema": 9838,
  "▁armentis": 9839,
  "▁ascendam": 9840,
  "▁ascendat": 9841,
  "▁audierat": 9842,
  "▁beneplac": 9843,
  "▁carbones": 9844,
  "▁certamen": 9845,
  "▁circulos": 9846,
  "▁concidit": 9847,
  "▁consenti": 9848,
  "▁contempt": 9849,
  "▁contigit": 9850,
  "▁desolata": 9851,
  "▁docentes": 9852,
  "▁effectus": 9853,
  "▁excelsus": 9854,
  "▁judiciis": 9855,
  "▁legistis": 9856,
  "▁liberabo": 9857,
  "▁magnalia": 9858,
  "▁masculus": 9859,
  "▁meretrix": 9860,
  "▁moriemur": 9861,
  "▁mortific": 9862,
  "▁narravit": 9863,
  "▁paulatim": 9864,
  "▁perfecti": 9865,
  "▁perpetua": 9866,
  "▁persecut": 9867,
  "▁pessimas": 9868,
  "▁portavit": 9869,
  "▁principi": 9870,
  "▁prospere": 9871,
  "▁præerant": 9872,
  "▁relictus": 9873,
  "▁resurrex": 9874,
  "▁steterit": 9875,
  "▁stipulam": 9876,
  "▁subjecta": 9877,
  "▁temporum": 9878,
  "▁transfug": 9879,
  "▁vendidit": 9880,
  "▁vestivit": 9881,
  "▁victimis": 9882,
  "▁visiones": 9883,
  "Ædificavit": 9884,
  "▁Bethsabee": 9885,
  "▁Hebræorum": 9886,
  "▁Magdalene": 9887,
  "▁audiebant": 9888,
  "▁cogitabat": 9889,
  "▁comedatis": 9890,
  "▁complevit": 9891,
  "▁consumpti": 9892,
  "▁crastinum": 9893,
  "▁cunctarum": 9894,
  "▁eduxerunt": 9895,
  "▁faciendum": 9896,
  "▁fornicati": 9897,
  "▁ignoratis": 9898,
  "▁impleatur": 9899,
  "▁intellexi": 9900,
  "▁interitus": 9901,
  "▁intermiss": 9902,
  "▁invenient": 9903,
  "▁invenimus": 9904,
  "▁invenisti": 9905,
  "▁laboribus": 9906,
  "▁longinqua": 9907,
  "▁percussus": 9908,
  "▁percuties": 9909,
  "▁periculis": 9910,
  "▁plaustrum": 9911,
  "▁prioribus": 9912,
  "▁prudentiæ": 9913,
  "▁pugnarent": 9914,
  "▁recordati": 9915,
  "▁solliciti": 9916,
  "▁stellarum": 9917,
  "▁susceptor": 9918,
  "▁synagogam": 9919,
  "▁transiens": 9920,
  "▁unguentum": 9921,
  "▁utriusque": 9922,
  "▁volatilia": 9923,
  "Surrexerunt": 9924,
  "untiaverunt": 9925,
  "▁Salvatoris": 9926,
  "▁acetabulum": 9927,
  "▁alienigenæ": 9928,
  "▁ambularent": 9929,
  "▁aperuisset": 9930,
  "▁complesset": 9931,
  "▁custodiens": 9932,
  "▁disciplinæ": 9933,
  "▁divitiarum": 9934,
  "▁egredieris": 9935,
  "▁exasperans": 9936,
  "▁humiliatus": 9937,
  "▁immaculata": 9938,
  "▁levaverunt": 9939,
  "▁manifestum": 9940,
  "▁occasionem": 9941,
  "▁ostendisti": 9942,
  "▁polluerunt": 9943,
  "▁posteriora": 9944,
  "▁pœnitentiæ": 9945,
  "▁quemcumque": 9946,
  "▁quærentium": 9947,
  "▁sabbatorum": 9948,
  "▁sacrificum": 9949,
  "▁sceleribus": 9950,
  "▁sempiterna": 9951,
  "▁servitutem": 9952,
  "▁tempestate": 9953,
  "▁transibunt": 9954,
  "Turpitudinem": 9955,
  "▁Philisthæus": 9956,
  "▁adversariis": 9957,
  "▁animantibus": 9958,
  "▁ascenderent": 9959,
  "▁circumdedit": 9960,
  "▁custodieris": 9961,
  "▁custodierit": 9962,
  "▁ignorantiam": 9963,
  "▁introierunt": 9964,
  "▁obtinuerunt": 9965,
  "▁perrexerunt": 9966,
  "▁persequeris": 9967,
  "▁primitiarum": 9968,
  "▁primogenito": 9969,
  "▁sapientibus": 9970,
  "▁tentationem": 9971,
  "▁ascendissent": 9972,
  "▁benedictione": 9973,
  "▁commentariis": 9974,
  "▁confortamini": 9975,
  "▁corruptionem": 9976,
  "▁custodierunt": 9977,
  "▁desolationem": 9978,
  "▁fornicatione": 9979,
  "▁humiliabitur": 9980,
  "▁infirmitatem": 9981,
  "▁munitionibus": 9982,
  "▁obliviscaris": 9983,
  "▁redemptionem": 9984,
  "▁turpitudinem": 9985,
  "▁manducaverunt": 9986,
  "▁retributionem": 9987,
  "▁sanctificatus": 9988,
  "▁congregaverunt": 9989,
  "▁superhumeralis": 9990,
  "Du": 9991,
  "eæ": 9992,
  "rb": 9993,
  "Col": 9994,
  "Cur": 9995,
  "Ext": 9996,
  "Lex": 9997,
  "Lon": 9998,
  "Occ": 9999,
  "Reg": 10000,
  "Rem": 10001,
  "ago": 10002,
  "auc": 10003,
  "bet": 10004,
  "com": 10005,
  "eba": 10006,
  "hus": 10007,
  "hæc": 10008,
  "hæi": 10009,
  "ors": 10010,
  "tes": 10011,
  "vac": 10012,
  "val": 10013,
  "vas": 10014,
  "vol": 10015,
  "▁Aj": 10016,
  "Fiat": 10017,
  "Omni": 10018,
  "Stet": 10019,
  "Test": 10020,
  "Tibi": 10021,
  "acee": 10022,
  "asar": 10023,
  "asse": 10024,
  "cari": 10025,
  "cont": 10026,
  "daia": 10027,
  "egit": 10028,
  "elia": 10029,
  "gnus": 10030,
  "ioth": 10031,
  "ipse": 10032,
  "itor": 10033,
  "odit": 10034,
  "opul": 10035,
  "præc": 10036,
  "quil": 10037,
  "rite": 10038,
  "unde": 10039,
  "veni": 10040,
  "▁Arb": 10041,
  "▁Bos": 10042,
  "▁Des": 10043,
  "▁Dom": 10044,
  "▁Dor": 10045,
  "▁Inc": 10046,
  "▁Phœ": 10047,
  "▁Præ": 10048,
  "▁Tim": 10049,
  "▁Viv": 10050,
  "▁Zam": 10051,
  "▁Zel": 10052,
  "▁all": 10053,
  "▁cac": 10054,
  "▁cep": 10055,
  "▁dor": 10056,
  "▁lut": 10057,
  "▁mig": 10058,
  "▁ruf": 10059,
  "Acced": 10060,
  "Ambul": 10061,
  "Avert": 10062,
  "Eodem": 10063,
  "Immol": 10064,
  "Levit": 10065,
  "allat": 10066,
  "atric": 10067,
  "barne": 10068,
  "enias": 10069,
  "ensis": 10070,
  "eonis": 10071,
  "ereth": 10072,
  "eroth": 10073,
  "ertis": 10074,
  "estus": 10075,
  "gelus": 10076,
  "hites": 10077,
  "iavit": 10078,
  "inter": 10079,
  "minum": 10080,
  "ondam": 10081,
  "ontes": 10082,
  "oriis": 10083,
  "rippa": 10084,
  "roduc": 10085,
  "taret": 10086,
  "ulier": 10087,
  "ullus": 10088,
  "vimus": 10089,
  "yssop": 10090,
  "zebub": 10091,
  "▁Adon": 10092,
  "▁Agar": 10093,
  "▁Asiæ": 10094,
  "▁Cant": 10095,
  "▁Char": 10096,
  "▁Cust": 10097,
  "▁Elim": 10098,
  "▁Gera": 10099,
  "▁Gorg": 10100,
  "▁Mara": 10101,
  "▁Oziæ": 10102,
  "▁Rect": 10103,
  "▁Sech": 10104,
  "▁Sela": 10105,
  "▁Sequ": 10106,
  "▁Siba": 10107,
  "▁Soch": 10108,
  "▁Thom": 10109,
  "▁Uriæ": 10110,
  "▁Vast": 10111,
  "▁beat": 10112,
  "▁cent": 10113,
  "▁cohæ": 10114,
  "▁cæde": 10115,
  "▁cœtu": 10116,
  "▁habe": 10117,
  "▁imit": 10118,
  "▁inex": 10119,
  "▁juda": 10120,
  "▁jugo": 10121,
  "▁lint": 10122,
  "▁mass": 10123,
  "▁modi": 10124,
  "▁nolo": 10125,
  "▁priv": 10126,
  "▁puls": 10127,
  "▁rogo": 10128,
  "▁rota": 10129,
  "▁sali": 10130,
  "▁sals": 10131,
  "▁scin": 10132,
  "▁sedi": 10133,
  "▁subl": 10134,
  "▁truc": 10135,
  "▁usum": 10136,
  "▁vivi": 10137,
  "▁ærea": 10138,
  "▁æstu": 10139,
  "Dicunt": 10140,
  "Pharis": 10141,
  "Suscip": 10142,
  "ansque": 10143,
  "eratio": 10144,
  "ilatus": 10145,
  "inorum": 10146,
  "ladius": 10147,
  "opheth": 10148,
  "quebar": 10149,
  "randum": 10150,
  "rendum": 10151,
  "terent": 10152,
  "ularum": 10153,
  "▁Cyren": 10154,
  "▁Dabir": 10155,
  "▁Dibon": 10156,
  "▁Eamus": 10157,
  "▁Excel": 10158,
  "▁Gazer": 10159,
  "▁Giezi": 10160,
  "▁Haran": 10161,
  "▁Heman": 10162,
  "▁Jazer": 10163,
  "▁Mitte": 10164,
  "▁Neque": 10165,
  "▁Pauli": 10166,
  "▁Rasin": 10167,
  "▁Rubro": 10168,
  "▁Saule": 10169,
  "▁Sobal": 10170,
  "▁Uriam": 10171,
  "▁antea": 10172,
  "▁bibat": 10173,
  "▁bibes": 10174,
  "▁bonos": 10175,
  "▁bovis": 10176,
  "▁camin": 10177,
  "▁colub": 10178,
  "▁curab": 10179,
  "▁cæcum": 10180,
  "▁cœnam": 10181,
  "▁cœtum": 10182,
  "▁derid": 10183,
  "▁devit": 10184,
  "▁dolum": 10185,
  "▁ducam": 10186,
  "▁ejeci": 10187,
  "▁elong": 10188,
  "▁enutr": 10189,
  "▁equus": 10190,
  "▁esses": 10191,
  "▁exili": 10192,
  "▁expos": 10193,
  "▁falsa": 10194,
  "▁ficum": 10195,
  "▁frang": 10196,
  "▁hasta": 10197,
  "▁intum": 10198,
  "▁invis": 10199,
  "▁invit": 10200,
  "▁lebet": 10201,
  "▁manna": 10202,
  "▁natum": 10203,
  "▁navem": 10204,
  "▁perem": 10205,
  "▁plebe": 10206,
  "▁plenæ": 10207,
  "▁prægn": 10208,
  "▁rebus": 10209,
  "▁scuta": 10210,
  "▁sphær": 10211,
  "▁tanta": 10212,
  "▁tecta": 10213,
  "▁valet": 10214,
  "▁vicos": 10215,
  "▁vivam": 10216,
  "▁vulgi": 10217,
  "Confund": 10218,
  "Eritque": 10219,
  "Exsurge": 10220,
  "Fuerunt": 10221,
  "Respice": 10222,
  "abernac": 10223,
  "atisque": 10224,
  "ebatque": 10225,
  "isitque": 10226,
  "quomodo": 10227,
  "raviter": 10228,
  "▁Bethan": 10229,
  "▁Cedron": 10230,
  "▁Chusai": 10231,
  "▁Hanani": 10232,
  "▁Iscari": 10233,
  "▁Jether": 10234,
  "▁Justus": 10235,
  "▁Lamech": 10236,
  "▁Mambre": 10237,
  "▁Phacee": 10238,
  "▁accend": 10239,
  "▁aperta": 10240,
  "▁approp": 10241,
  "▁aquila": 10242,
  "▁audias": 10243,
  "▁cadens": 10244,
  "▁capiet": 10245,
  "▁castig": 10246,
  "▁caudam": 10247,
  "▁cavern": 10248,
  "▁collis": 10249,
  "▁compar": 10250,
  "▁conduc": 10251,
  "▁confin": 10252,
  "▁correp": 10253,
  "▁cubili": 10254,
  "▁cunctæ": 10255,
  "▁decern": 10256,
  "▁desper": 10257,
  "▁despon": 10258,
  "▁divulg": 10259,
  "▁dolosa": 10260,
  "▁egimus": 10261,
  "▁ejecit": 10262,
  "▁erexit": 10263,
  "▁errare": 10264,
  "▁eruere": 10265,
  "▁exstru": 10266,
  "▁faciei": 10267,
  "▁fundes": 10268,
  "▁gravis": 10269,
  "▁horrib": 10270,
  "▁hymnis": 10271,
  "▁hyssop": 10272,
  "▁ibimus": 10273,
  "▁imprud": 10274,
  "▁inanis": 10275,
  "▁insens": 10276,
  "▁judico": 10277,
  "▁manete": 10278,
  "▁meipso": 10279,
  "▁mirati": 10280,
  "▁obdorm": 10281,
  "▁oblata": 10282,
  "▁pascit": 10283,
  "▁patrui": 10284,
  "▁positi": 10285,
  "▁prælii": 10286,
  "▁saccis": 10287,
  "▁scribo": 10288,
  "▁sortes": 10289,
  "▁sponsa": 10290,
  "▁staret": 10291,
  "▁stulto": 10292,
  "▁suavis": 10293,
  "▁summam": 10294,
  "▁summus": 10295,
  "▁supput": 10296,
  "▁thalam": 10297,
  "▁timebo": 10298,
  "▁totius": 10299,
  "▁tradat": 10300,
  "▁tremor": 10301,
  "▁ubique": 10302,
  "▁umbram": 10303,
  "▁ventos": 10304,
  "▁vermis": 10305,
  "▁vocare": 10306,
  "▁vocari": 10307,
  "▁æterna": 10308,
  "Justitia": 10309,
  "Venitque": 10310,
  "ectionem": 10311,
  "ilitatem": 10312,
  "oprophet": 10313,
  "raverant": 10314,
  "secundum": 10315,
  "▁Bethuli": 10316,
  "▁Cariath": 10317,
  "▁Cæsaris": 10318,
  "▁Helcias": 10319,
  "▁Japheth": 10320,
  "▁Joachin": 10321,
  "▁Mageddo": 10322,
  "▁Samarit": 10323,
  "▁Tryphon": 10324,
  "▁abstuli": 10325,
  "▁aquæduc": 10326,
  "▁artifex": 10327,
  "▁audiret": 10328,
  "▁auferas": 10329,
  "▁calumni": 10330,
  "▁camelis": 10331,
  "▁clamabo": 10332,
  "▁comedam": 10333,
  "▁commiss": 10334,
  "▁concinn": 10335,
  "▁consequ": 10336,
  "▁cunctus": 10337,
  "▁current": 10338,
  "▁dabimus": 10339,
  "▁deduxit": 10340,
  "▁delebit": 10341,
  "▁deleret": 10342,
  "▁dentium": 10343,
  "▁descrip": 10344,
  "▁dicente": 10345,
  "▁dilecti": 10346,
  "▁discess": 10347,
  "▁edictum": 10348,
  "▁electis": 10349,
  "▁fiebant": 10350,
  "▁frontem": 10351,
  "▁fugerit": 10352,
  "▁impetus": 10353,
  "▁inaures": 10354,
  "▁iniquus": 10355,
  "▁laminis": 10356,
  "▁molesti": 10357,
  "▁negotia": 10358,
  "▁negotio": 10359,
  "▁oppidum": 10360,
  "▁optimum": 10361,
  "▁paravit": 10362,
  "▁pariete": 10363,
  "▁placeat": 10364,
  "▁placent": 10365,
  "▁plorans": 10366,
  "▁propria": 10367,
  "▁puellis": 10368,
  "▁quintam": 10369,
  "▁quondam": 10370,
  "▁redemit": 10371,
  "▁scelere": 10372,
  "▁sciebat": 10373,
  "▁seducat": 10374,
  "▁serviet": 10375,
  "▁sperabo": 10376,
  "▁stabili": 10377,
  "▁stagnum": 10378,
  "▁supplic": 10379,
  "▁tangere": 10380,
  "▁termini": 10381,
  "▁tollent": 10382,
  "▁transit": 10383,
  "▁tremore": 10384,
  "▁vastata": 10385,
  "▁velamen": 10386,
  "▁veteres": 10387,
  "▁vinctos": 10388,
  "▁vinctus": 10389,
  "▁vivimus": 10390,
  "▁voverit": 10391,
  "entissime": 10392,
  "▁Galgalis": 10393,
  "▁accincti": 10394,
  "▁ancillis": 10395,
  "▁aperiens": 10396,
  "▁bibendum": 10397,
  "▁bonitate": 10398,
  "▁ciliciis": 10399,
  "▁cisterna": 10400,
  "▁coccoque": 10401,
  "▁cognatio": 10402,
  "▁columnam": 10403,
  "▁commemor": 10404,
  "▁convivii": 10405,
  "▁cornibus": 10406,
  "▁cælestis": 10407,
  "▁dabuntur": 10408,
  "▁dedisset": 10409,
  "▁diligite": 10410,
  "▁diluvium": 10411,
  "▁ducentis": 10412,
  "▁effundam": 10413,
  "▁epistola": 10414,
  "▁exterius": 10415,
  "▁festinus": 10416,
  "▁fugisset": 10417,
  "▁graviter": 10418,
  "▁hircorum": 10419,
  "▁honorare": 10420,
  "▁insidiis": 10421,
  "▁inutilis": 10422,
  "▁inveniat": 10423,
  "▁lacrimas": 10424,
  "▁latrones": 10425,
  "▁litteris": 10426,
  "▁mendacio": 10427,
  "▁militiam": 10428,
  "▁montanis": 10429,
  "▁negotium": 10430,
  "▁noluisti": 10431,
  "▁nongenti": 10432,
  "▁obediunt": 10433,
  "▁olivarum": 10434,
  "▁omnemque": 10435,
  "▁omnisque": 10436,
  "▁pecunias": 10437,
  "▁portarum": 10438,
  "▁poterunt": 10439,
  "▁pretiosa": 10440,
  "▁pretioso": 10441,
  "▁procedit": 10442,
  "▁procidit": 10443,
  "▁profugus": 10444,
  "▁pugnabat": 10445,
  "▁pugnabit": 10446,
  "▁relictis": 10447,
  "▁repletus": 10448,
  "▁replevit": 10449,
  "▁robustam": 10450,
  "▁robustos": 10451,
  "▁serviant": 10452,
  "▁servivit": 10453,
  "▁silvarum": 10454,
  "▁speciosa": 10455,
  "▁superbiæ": 10456,
  "▁terrorem": 10457,
  "▁tumultum": 10458,
  "▁tympanis": 10459,
  "▁ululatus": 10460,
  "▁venerint": 10461,
  "▁veritati": 10462,
  "▁vescetur": 10463,
  "▁viderant": 10464,
  "▁vivifica": 10465,
  "▁volueris": 10466,
  "▁Æthiopiæ": 10467,
  "Confitebor": 10468,
  "Egressique": 10469,
  "Quapropter": 10470,
  "▁Apostolis": 10471,
  "▁Ascendite": 10472,
  "▁Beelzebub": 10473,
  "▁Berzellai": 10474,
  "▁Demetrium": 10475,
  "▁Revertere": 10476,
  "▁accinctus": 10477,
  "▁alienorum": 10478,
  "▁argenteam": 10479,
  "▁ascendent": 10480,
  "▁calvitium": 10481,
  "▁congregat": 10482,
  "▁contradix": 10483,
  "▁cunctorum": 10484,
  "▁custodivi": 10485,
  "▁cœnaculum": 10486,
  "▁descendet": 10487,
  "▁desideria": 10488,
  "▁dixeritis": 10489,
  "▁electorum": 10490,
  "▁exstruxit": 10491,
  "▁fecissent": 10492,
  "▁fenestram": 10493,
  "▁funiculus": 10494,
  "▁hodiernum": 10495,
  "▁infirmata": 10496,
  "▁interpell": 10497,
  "▁intrabunt": 10498,
  "▁introëunt": 10499,
  "▁luminaria": 10500,
  "▁majoribus": 10501,
  "▁ministros": 10502,
  "▁mysterium": 10503,
  "▁nascuntur": 10504,
  "▁nullusque": 10505,
  "▁occidetur": 10506,
  "▁offerrent": 10507,
  "▁orationes": 10508,
  "▁particeps": 10509,
  "▁platearum": 10510,
  "▁polluetur": 10511,
  "▁possidere": 10512,
  "▁posuitque": 10513,
  "▁pretiosum": 10514,
  "▁primitiva": 10515,
  "▁processit": 10516,
  "▁projiciam": 10517,
  "▁prædicare": 10518,
  "▁relinquam": 10519,
  "▁requievit": 10520,
  "▁responsum": 10521,
  "▁retribuet": 10522,
  "▁revelabis": 10523,
  "▁separavit": 10524,
  "▁sequuntur": 10525,
  "▁succendam": 10526,
  "▁surgentes": 10527,
  "▁thuribula": 10528,
  "▁transeunt": 10529,
  "▁transfret": 10530,
  "▁trecentis": 10531,
  "▁vanitatem": 10532,
  "▁visitabit": 10533,
  "▁voluntati": 10534,
  "▁ædificabo": 10535,
  "mortariolum": 10536,
  "▁Cadesbarne": 10537,
  "▁Macedoniam": 10538,
  "▁Mardochæum": 10539,
  "▁Moabitarum": 10540,
  "▁accepisset": 10541,
  "▁annuntiant": 10542,
  "▁annuntiate": 10543,
  "▁ascendamus": 10544,
  "▁benedicens": 10545,
  "▁campestria": 10546,
  "▁cogitabant": 10547,
  "▁cognovimus": 10548,
  "▁conflatile": 10549,
  "▁consumpsit": 10550,
  "▁convocatis": 10551,
  "▁corruerunt": 10552,
  "▁devorandum": 10553,
  "▁dissipavit": 10554,
  "▁divisiones": 10555,
  "▁dormientes": 10556,
  "▁excelsorum": 10557,
  "▁exsultatio": 10558,
  "▁festinavit": 10559,
  "▁firmamento": 10560,
  "▁immunditia": 10561,
  "▁libertatem": 10562,
  "▁mercenarii": 10563,
  "▁monimentum": 10564,
  "▁morabantur": 10565,
  "▁novissimus": 10566,
  "▁offerentes": 10567,
  "▁paraverunt": 10568,
  "▁pavimentum": 10569,
  "▁pertransit": 10570,
  "▁provincias": 10571,
  "▁recordabor": 10572,
  "▁scripturam": 10573,
  "▁sustinebit": 10574,
  "▁temetipsum": 10575,
  "▁timentibus": 10576,
  "▁vaticinare": 10577,
  "Descenditque": 10578,
  "▁Apostolorum": 10579,
  "▁Philisthæum": 10580,
  "▁afflictione": 10581,
  "▁ambulaveris": 10582,
  "▁audientibus": 10583,
  "▁calceamenta": 10584,
  "▁confortatus": 10585,
  "▁congregatus": 10586,
  "▁convertetur": 10587,
  "▁direptionem": 10588,
  "▁egrederetur": 10589,
  "▁exsultabunt": 10590,
  "▁extrinsecus": 10591,
  "▁fortissimus": 10592,
  "▁habitabitis": 10593,
  "▁ingredimini": 10594,
  "▁intellectus": 10595,
  "▁intraverunt": 10596,
  "▁laudaverunt": 10597,
  "▁operationem": 10598,
  "▁perditionis": 10599,
  "▁pervenerunt": 10600,
  "▁portaverunt": 10601,
  "▁prophetabis": 10602,
  "▁prophetavit": 10603,
  "▁quadrigarum": 10604,
  "▁requiescere": 10605,
  "▁revelabitur": 10606,
  "▁reversusque": 10607,
  "▁tentaverunt": 10608,
  "▁benedixerunt": 10609,
  "▁cognovissent": 10610,
  "▁constituisti": 10611,
  "▁correptionem": 10612,
  "▁dereliquisti": 10613,
  "▁descendentem": 10614,
  "▁destruxerunt": 10615,
  "▁fraudulenter": 10616,
  "▁generationis": 10617,
  "▁possidebitis": 10618,
  "▁quadragesimo": 10619,
  "▁quintadecima": 10620,
  "▁robustissimi": 10621,
  "▁succenderunt": 10622,
  "▁circumcisione": 10623,
  "▁concitaverunt": 10624,
  "▁holocaustorum": 10625,
  "▁ingrederentur": 10626,
  "▁interpretatio": 10627,
  "▁pseudoprophet": 10628,
  "▁sollicitudine": 10629,
  "▁apprehenderunt": 10630,
  "▁consecrationis": 10631,
  "▁ingrediebantur": 10632,
  "▁intelligentiam": 10633,
  "▁propitiatorium": 10634,
  "▁benedictionibus": 10635,
  "▁peregrinationis": 10636,
  "▁sanctificabitur": 10637,
  "Ap": 10638,
  "Ir": 10639,
  "Pa": 10640,
  "Det": 10641,
  "Eli": 10642,
  "Ira": 10643,
  "Nar": 10644,
  "Off": 10645,
  "Ost": 10646,
  "Sen": 10647,
  "Ser": 10648,
  "Vis": 10649,
  "asp": 10650,
  "bam": 10651,
  "del": 10652,
  "eca": 10653,
  "ego": 10654,
  "esa": 10655,
  "hoc": 10656,
  "iar": 10657,
  "iau": 10658,
  "icc": 10659,
  "jul": 10660,
  "mut": 10661,
  "nai": 10662,
  "nea": 10663,
  "nes": 10664,
  "noc": 10665,
  "nom": 10666,
  "oro": 10667,
  "rie": 10668,
  "tat": 10669,
  "▁Eo": 10670,
  "▁cy": 10671,
  "Abra": 10672,
  "Elev": 10673,
  "Erip": 10674,
  "Hunc": 10675,
  "Mihi": 10676,
  "Vere": 10677,
  "Viam": 10678,
  "aber": 10679,
  "asne": 10680,
  "baal": 10681,
  "diel": 10682,
  "dite": 10683,
  "enum": 10684,
  "hior": 10685,
  "iten": 10686,
  "moth": 10687,
  "oham": 10688,
  "onam": 10689,
  "orii": 10690,
  "post": 10691,
  "quin": 10692,
  "redo": 10693,
  "ribe": 10694,
  "rigu": 10695,
  "tuum": 10696,
  "ubal": 10697,
  "usta": 10698,
  "œnit": 10699,
  "▁Exs": 10700,
  "▁Ham": 10701,
  "▁Hat": 10702,
  "▁Jeb": 10703,
  "▁Jed": 10704,
  "▁Mat": 10705,
  "▁Nem": 10706,
  "▁Tha": 10707,
  "▁exh": 10708,
  "▁fos": 10709,
  "▁geh": 10710,
  "▁len": 10711,
  "▁nig": 10712,
  "▁rac": 10713,
  "▁rad": 10714,
  "▁sud": 10715,
  "▁tel": 10716,
  "▁uvæ": 10717,
  "▁vap": 10718,
  "Homin": 10719,
  "Nomen": 10720,
  "atore": 10721,
  "atuor": 10722,
  "citur": 10723,
  "edech": 10724,
  "elaus": 10725,
  "ensas": 10726,
  "illic": 10727,
  "inisc": 10728,
  "ipite": 10729,
  "itiem": 10730,
  "lorum": 10731,
  "parti": 10732,
  "ruthi": 10733,
  "sisti": 10734,
  "tavit": 10735,
  "turas": 10736,
  "uscit": 10737,
  "ussit": 10738,
  "veris": 10739,
  "▁Agag": 10740,
  "▁Anim": 10741,
  "▁Bani": 10742,
  "▁Beor": 10743,
  "▁Clam": 10744,
  "▁Cyri": 10745,
  "▁Eliu": 10746,
  "▁Euge": 10747,
  "▁Isti": 10748,
  "▁Liby": 10749,
  "▁Mess": 10750,
  "▁Naas": 10751,
  "▁Nemo": 10752,
  "▁Omne": 10753,
  "▁Prin": 10754,
  "▁Sume": 10755,
  "▁Unus": 10756,
  "▁Zare": 10757,
  "▁agam": 10758,
  "▁amov": 10759,
  "▁ausc": 10760,
  "▁bonæ": 10761,
  "▁caul": 10762,
  "▁cave": 10763,
  "▁crev": 10764,
  "▁ebur": 10765,
  "▁emit": 10766,
  "▁esca": 10767,
  "▁exar": 10768,
  "▁exqu": 10769,
  "▁fasc": 10770,
  "▁fatu": 10771,
  "▁fine": 10772,
  "▁fodi": 10773,
  "▁gest": 10774,
  "▁horr": 10775,
  "▁marc": 10776,
  "▁moll": 10777,
  "▁nata": 10778,
  "▁obru": 10779,
  "▁orbe": 10780,
  "▁pene": 10781,
  "▁piet": 10782,
  "▁prem": 10783,
  "▁rami": 10784,
  "▁spre": 10785,
  "▁trab": 10786,
  "▁vari": 10787,
  "▁vase": 10788,
  "▁visa": 10789,
  "▁zelo": 10790,
  "Disper": 10791,
  "Festin": 10792,
  "Iratus": 10793,
  "Scimus": 10794,
  "Utinam": 10795,
  "abilia": 10796,
  "amquam": 10797,
  "averim": 10798,
  "ecutus": 10799,
  "emplum": 10800,
  "espere": 10801,
  "gnavit": 10802,
  "ibiles": 10803,
  "ientiæ": 10804,
  "inumer": 10805,
  "ittite": 10806,
  "iturus": 10807,
  "rabant": 10808,
  "rantis": 10809,
  "respon": 10810,
  "uratus": 10811,
  "urrent": 10812,
  "▁Amman": 10813,
  "▁Ascal": 10814,
  "▁Baana": 10815,
  "▁Barab": 10816,
  "▁Chusi": 10817,
  "▁Ennom": 10818,
  "▁Hasab": 10819,
  "▁Hodie": 10820,
  "▁Isaar": 10821,
  "▁Mello": 10822,
  "▁Miser": 10823,
  "▁Oniam": 10824,
  "▁Sanab": 10825,
  "▁Segor": 10826,
  "▁Sunam": 10827,
  "▁Tyrum": 10828,
  "▁Vadam": 10829,
  "▁Zebee": 10830,
  "▁abduc": 10831,
  "▁abire": 10832,
  "▁addam": 10833,
  "▁adæqu": 10834,
  "▁agnus": 10835,
  "▁armig": 10836,
  "▁armum": 10837,
  "▁aruit": 10838,
  "▁asino": 10839,
  "▁basim": 10840,
  "▁colla": 10841,
  "▁compa": 10842,
  "▁conqu": 10843,
  "▁culpa": 10844,
  "▁decid": 10845,
  "▁demor": 10846,
  "▁demus": 10847,
  "▁deven": 10848,
  "▁digne": 10849,
  "▁erump": 10850,
  "▁famam": 10851,
  "▁fodit": 10852,
  "▁forma": 10853,
  "▁hæsit": 10854,
  "▁imago": 10855,
  "▁imber": 10856,
  "▁immob": 10857,
  "▁iniit": 10858,
  "▁irrid": 10859,
  "▁jugul": 10860,
  "▁jurab": 10861,
[...]
