{
  "</s>": 0,
  "<unk>": 1,
  ",": 2,
  ".": 3,
  "\u2581de": 4,
  "s": 5,
  "\u2581a": 6,
  "\u2581la": 7,
  "'": 8,
  "\u2581que": 9,
  "\u2581et": 10,
  "\u2581e": 11,
  "e": 12,
  "\u2581di": 13,
  "\u2581l": 14,
  "\u2581en": 15,
  "\u2581o": 16,
  ">>fra<<": 17,
  ">>spa<<": 18,
  "a": 19,
  "\u2581in": 20,
  "\u2581un": 21,
  ":": 22,
  "?": 23,
  "-": 24,
  "\u2581el": 25,
  "\u2581se": 26,
  "\u2581-": 27,
  ">>ita<<": 28,
  "\u2581le": 29,
  "\u2581d": 30,
  "o": 31,
  "r": 32,
  "i": 33,
  ">>por<<": 34,
  "\u2581del": 35,
  "\u2581y": 36,
  "\u2581les": 37,
  "\u2581i": 38,
  "\u2019": 39,
  "m": 40,
  "t": 41,
  "\u2581\u00e0": 42,
  "\u2581": 43,
  "\u2581para": 44,
  "\u2581des": 45,
  "\u2581no": 46,
  "\u2581per": 47,
  ">>ron<<": 48,
  "\u2581te": 49,
  "\u2581(": 50,
  "\u2581il": 51,
  "\u2581con": 52,
  ";": 53,
  "\u2581non": 54,
  "u": 55,
  "\u2581da": 56,
  ">>cat<<": 57,
  ">>lat_Latn<<": 58,
  "\u2581los": 59,
  "\u2581est": 60,
  "\u2581al": 61,
  "re": 62,
  "es": 63,
  "\u2581A": 64,
  "\u2581do": 65,
  "n": 66,
  "\u2581qui": 67,
  "te": 68,
  ")": 69,
  "\u2581si": 70,
  "\u2581una": 71,
  "\u2581por": 72,
  "...": 73,
  ">>glg<<": 74,
  "\u2581che": 75,
  "!": 76,
  "\u2581,": 77,
  "\u2581sa": 78,
  "\u2581yo": 79,
  "\u2581s": 80,
  "\u2581du": 81,
  "to": 82,
  "\u2581'": 83,
  "\u2581las": 84,
  "\u2581ad": 85,
  "\u2581_": 86,
  "\u2581\u00een": 87,
  "le": 88,
  "\u2581es": 89,
  "ta": 90,
  "\u2581ne": 91,
  "\u2581su": 92,
  "\u2581os": 93,
  "l": 94,
  ">>ast<<": 95,
  "`": 96,
  "\u2581\u015fi": 97,
  "\u2581La": 98,
  "se": 99,
  "\u2581E": 100,
  "do": 101,
  "\u2581s\u0103": 102,
  "\u2581n": 103,
  ">>oci<<": 104,
  "\u2581.": 105,
  "\u2581ce": 106,
  "is": 107,
  "\u2581em": 108,
  "\u2581me": 109,
  "\u2581lo": 110,
  "\u2581pour": 111,
  "da": 112,
  "ti": 113,
  "que": 114,
  "\u2581com": 115,
  "\u2581pa": 116,
  "\u2581pas": 117,
  "\u2581nan": 118,
  "nt": 119,
  "\u2581par": 120,
  "\u2581\u00e9": 121,
  "\u2581O": 122,
  "\u2581dans": 123,
  "\u2581ki": 124,
  "\u2581ta": 125,
  "\u00e9": 126,
  "\u2581cu": 127,
  "\u2581li": 128,
  "\u2581ou": 129,
  "\u2581pe": 130,
  "\u2581ha": 131,
  "d": 132,
  "\u2581as": 133,
  "\u2581\u201c": 134,
  "\u2581na": 135,
  "\u2581au": 136,
  "\u2581%": 137,
  "\u2581\"": 138,
  "/": 139,
  "\u2581como": 140,
  "\u2581une": 141,
  "\u2581Se": 142,
  "\u2581:": 143,
  "\u2581nou": 144,
  "ul": 145,
  "am": 146,
  "\u2581re": 147,
  "\u2581No": 148,
  "\u2581tu": 149,
  "um": 150,
  "de": 151,
  ">>hat<<": 152,
  ">>wln<<": 153,
  "ndo": 154,
  ">>fvr<<": 155,
  "\u2581El": 156,
  "\u2581va": 157,
  "\u2581pou": 158,
  "\u2581lui": 159,
  "no": 160,
  "\u25811": 161,
  "\u2581\u00ab": 162,
  "\u2581nos": 163,
  "\u2581um": 164,
  "\u2581&": 165,
  "est": 166,
  "ment": 167,
  "me": 168,
  "\u2581\u00e8": 169,
  "\u2581sur": 170,
  "c": 171,
  "\u2581L": 172,
  "\u2581mi": 173,
  "y": 174,
  "\u2581este": 175,
  "\u2581C": 176,
  "\u2581n\u00e3o": 177,
  "\u2581nu": 178,
  "\u0103": 179,
  "\u2581Si": 180,
  "ar": 181,
  "\u2581\u00bf": 182,
  "un": 183,
  "la": 184,
  "z": 185,
  "ce": 186,
  "\u2581dos": 187,
  "\u00e1": 188,
  "\u2581I": 189,
  "lo": 190,
  "\u2581Il": 191,
  "\u2581cum": 192,
  "\u2581S": 193,
  "\u2581En": 194,
  "\u2581vous": 195,
  "\u2581qu": 196,
  "\u2581ser": 197,
  "\u2581sobre": 198,
  "_": 199,
  "os": 200,
  "va": 201,
  "\u2581c": 202,
  "\u2581ap": 203,
  "\u2581uma": 204,
  "\u2581Le": 205,
  "en": 206,
  "er": 207,
  "\u2581yon": 208,
  "\u2581nous": 209,
  "ci": 210,
  "\u2581eius": 211,
  "\u2581ca": 212,
  "\u2581ut": 213,
  "\u2581son": 214,
  "ri": 215,
  "\u2581della": 216,
  "\u2581De": 217,
  "\u2581t": 218,
  "di": 219,
  "il": 220,
  "\u2581m": 221,
  "\u2581\u201d": 222,
  "us": 223,
  "\u2581autem": 224,
  "ra": 225,
  "mi": 226,
  "\u00e7\u00e3o": 227,
  "\u2581an": 228,
  "A": 229,
  "\u2581c\u0103": 230,
  "\u2581Non": 231,
  "\u2581?": 232,
  "mos": 233,
  "\u2581f\u00e8": 234,
  "\u2581sunt": 235,
  "\u2581je": 236,
  "as": 237,
  "\u2581gen": 238,
  "\u2581\u2014": 239,
  "Name": 240,
  "\u2581ma": 241,
  "mente": 242,
  "\u2581pro": 243,
  "ci\u00f3n": 244,
  "\u2581din": 245,
  "\u0163i": 246,
  "\u2581entre": 247,
  "\u2581ao": 248,
  "\u2581est\u00e1": 249,
  "\u2581Je": 250,
  "\u2581ak": 251,
  "\u2581mais": 252,
  "\u2581mai": 253,
  "\u2581super": 254,
  "\u25812": 255,
  "\u2581fi": 256,
  "b": 257,
  "\u2581ku": 258,
  "\u2581ex": 259,
  "vi": 260,
  "it": 261,
  "na": 262,
  "\u2581sua": 263,
  "\u2581avec": 264,
  "ai": 265,
  "\u2581care": 266,
  "\u2581esta": 267,
  "\u2581moun": 268,
  "\u00f3": 269,
  "ve": 270,
  "li": 271,
  "\u2581era": 272,
  "\u2581plus": 273,
  "on": 274,
  "\u2581els": 275,
  "ca": 276,
  "\u2581sus": 277,
  ">>pap<<": 278,
  "\u2581Un": 279,
  "zione": 280,
  "dos": 281,
  "\u2581Dominus": 282,
  "em": 283,
  "\u2581pentru": 284,
  "ba": 285,
  "\u2581ti": 286,
  "ro": 287,
  "f": 288,
  "ga": 289,
  "\u2581amb": 290,
  "\u2581dei": 291,
  "nan": 292,
  "k": 293,
  "\u2581quod": 294,
  "\u2581Deus": 295,
  "g": 296,
  "\u2581seu": 297,
  "p": 298,
  "\u2581quae": 299,
  "%": 300,
  "S": 301,
  "ne": 302,
  "\u00bb": 303,
  "\u2581ei": 304,
  "\u2581sont": 305,
  "\u2581come": 306,
  "ci\u00f3": 307,
  "ia": 308,
  "\u2581tout": 309,
  "at": 310,
  "\u2581vos": 311,
  "\u2581sono": 312,
  "\u2581Re": 313,
  "ge": 314,
  "che": 315,
  "co": 316,
  "\u2581eu": 317,
  "\u2581Les": 318,
  "\u2581ci": 319,
  "\u2581contra": 320,
  "\u2581das": 321,
  "ma": 322,
  ").": 323,
  "tu": 324,
  "\u2581sou": 325,
  "\u2581dell": 326,
  "nte": 327,
  "al": 328,
  "\u2581aux": 329,
  "\u2581ka": 330,
  "in": 331,
  "\u2581D": 332,
  "\u2581P": 333,
  "ter": 334,
  "\u2581nel": 335,
  "x": 336,
  "\u2581co": 337,
  "\u2581eum": 338,
  "\u2581ai": 339,
  "\u2581todos": 340,
  "\"": 341,
  "\u00e0": 342,
  "\u2581parte": 343,
  "\u2581\u00e9s": 344,
  "\u2581ri": 345,
  "\u2581casa": 346,
  "\u25813": 347,
  "\u2581Dios": 348,
  "\u2581mas": 349,
  "\u2581Nu": 350,
  "au": 351,
  "\u2581M": 352,
  "\u2581Dieu": 353,
  "\u2581dal": 354,
  "\u2581Et": 355,
  "\u2581ho": 356,
  "\u2581Por": 357,
  "das": 358,
  "\u2581Li": 359,
  "\u2581foi": 360,
  "vit": 361,
  "r\u00e1": 362,
  "\u2581Per": 363,
  "C": 364,
  "\u00ed": 365,
  "\u2581cor": 366,
  "\u2581bien": 367,
  "tion": 368,
  "dor": 369,
  "\u2581terra": 370,
  "mo": 371,
  "\u2581delle": 372,
  "cu": 373,
  "\u2581Israhel": 374,
  "\u2581Con": 375,
  "\u2581alla": 376,
  "\u2581m\u00e1s": 377,
  "\u2581In": 378,
  "une": 379,
  "\u2581Ma": 380,
  "\u2581gli": 381,
  "\u00e8": 382,
  "\u2581quia": 383,
  "bo": 384,
  "\u2581k": 385,
  "\u2581ni": 386,
  "\u2581comme": 387,
  "\u2581am": 388,
  "\u2581tra": 389,
  "an": 390,
  "\u2581Tu": 391,
  "\u2581Ce": 392,
  "\u2581p": 393,
  "\u2581meu": 394,
  "man": 395,
  "B": 396,
  "vo": 397,
  "\u2581David": 398,
  "\u2581\u0219i": 399,
  "\u2581K": 400,
  "ntes": 401,
  "\u2581\u00eatre": 402,
  "\u2581Mi": 403,
  "\u2581\u201d.": 404,
  "ent": 405,
  "\u2581ont": 406,
  "\u2581bo": 407,
  "\u2581N\u00e3o": 408,
  "des": 409,
  "go": 410,
  "mento": 411,
  "ria": 412,
  "),": 413,
  "O": 414,
  "\u2581Y": 415,
  "\u2581w": 416,
  "h": 417,
  "rum": 418,
  "pe": 419,
  "\u2581b": 420,
  "v": 421,
  "\u2581po": 422,
  "ului": 423,
  "r\u00e0": 424,
  "\u2581Di": 425,
  "\u2581leur": 426,
  "rea": 427,
  "sse": 428,
  "\u2581todo": 429,
  "\u2581B": 430,
  "\u2581\u00e9t\u00e9": 431,
  "\u2581Mapa": 432,
  "\u2581)": 433,
  "zi": 434,
  "\u2581\u00bb": 435,
  "t\u0103": 436,
  "\u2581Al": 437,
  "lor": 438,
  "ant": 439,
  "\u2581pre": 440,
  "\u2581Jewova": 441,
  "E": 442,
  "\u2581quando": 443,
  "\u00f2": 444,
  "\u2581voi": 445,
  "\u2581sistema": 446,
  "\u2581d\u00e9": 447,
  "]": 448,
  "\u2581enim": 449,
  "\u2581ele": 450,
  "\u2581teclado": 451,
  "ns": 452,
  "\u2581/": 453,
  "ha": 454,
  "\u2581J": 455,
  "\u2581vi": 456,
  "tes": 457,
  "\u2581fa": 458,
  "\u2581G": 459,
  "or": 460,
  "\u2581ver": 461,
  "chi": 462,
  "\u2581T": 463,
  "\u2581vin": 464,
  "\u2581bon": 465,
  "\u2581fait": 466,
  "sti": 467,
  "\u2581Domini": 468,
  "\u2581sub": 469,
  "\u2581J\u00e9hovah": 470,
  "si": 471,
  "\u2581[": 472,
  "\u25814": 473,
  "\u2581pi": 474,
  "tus": 475,
  "\u2581cette": 476,
  "\u2581sed": 477,
  "\u2581kg": 478,
  "\u2581Ne": 479,
  "\u2581inter": 480,
  "CE": 481,
  "\u2581suo": 482,
  "\u2581Que": 483,
  "\u2581ego": 484,
  "tor": 485,
  "\u2581tua": 486,
  "za": 487,
  "\u2581fer": 488,
  "\u2581eos": 489,
  "\u2581cada": 490,
  "\u2581forma": 491,
  "tur": 492,
  "\u2581nome": 493,
  "pa": 494,
  "\u2581dar": 495,
  "\u2581Es": 496,
  "\u2581Ki": 497,
  "\u00e7\u00f5es": 498,
  "\u2581ar": 499,
  "are": 500,
  "\u2581loro": 501,
  "\u2581dit": 502,
  "\u2581tot": 503,
  "\u2581Israel": 504,
  "\u2581Bondye": 505,
  "\u2581Sun": 506,
  "\u2581fost": 507,
  "\u2581dixit": 508,
  "gi": 509,
  "\u2581!": 510,
  "\u2581cui": 511,
  "\u2581Senhor": 512,
  "\u2581\u00c9": 513,
  "\u2581suis": 514,
  "\u2581porque": 515,
  "\u2581kgm": 516,
  "be": 517,
  "ou": 518,
  "ni": 519,
  "\u2581pot": 520,
  "ram": 521,
  "ts": 522,
  "t\u00e9": 523,
  "\u25815": 524,
  "D": 525,
  "F": 526,
  "\u2581mon": 527,
  "\u2581seus": 528,
  "bit": 529,
  "\u2581aqu\u00ed": 530,
  "je": 531,
  "ver": 532,
  "\u2581F": 533,
  "Comment": 534,
  "\u2581j": 535,
  "\u2581pero": 536,
  "\u2581ces": 537,
  "\u2581on": 538,
  "\u2581Na": 539,
  "ons": 540,
  "\u2581questo": 541,
  "lu": 542,
  "\u2581\u00a1": 543,
  "\u2581Name": 544,
  "\u2581mal": 545,
  "\u2581eorum": 546,
  "tis": 547,
  "et": 548,
  "ado": 549,
  "\u2581all": 550,
  "\u2581car": 551,
  "\u2581\u00ab%": 552,
  "\u2581base": 553,
  "\u2581Lo": 554,
  "\u2581fin": 555,
  "\u2581ils": 556,
  "\u2581so": 557,
  "ur": 558,
  "\u2581tal": 559,
  "\u2581pi\u00f9": 560,
  "el": 561,
  "\u2581filii": 562,
  "\u2581modo": 563,
  "\u2581ab": 564,
  "\u2581file": 565,
  "ron": 566,
  "\u2581vez": 567,
  "\u2581unha": 568,
  "ciones": 569,
  "\u2581vida": 570,
  "ble": 571,
  "ho": 572,
  "les": 573,
  "\u2581N": 574,
  "per": 575,
  "\u2581den": 576,
  "ven": 577,
  "\u2581Da": 578,
  "ye": 579,
  "M": 580,
  "\u2581ora": 581,
  "\u2581Am": 582,
  "\u2581grande": 583,
  "r\u00e9": 584,
  "\u2581Signore": 585,
  "\u2581essere": 586,
  "\u2581Sa": 587,
  "\u2581tous": 588,
  "ch": 589,
  "P": 590,
  "\u00e3o": 591,
  "ja": 592,
  "@": 593,
  "\u2581he": 594,
  "ste": 595,
  "\u2581Eu": 596,
  "pi": 597,
  "\u2581faire": 598,
  "\u2581pode": 599,
  "\u258110": 600,
  "\u2581cuando": 601,
  "ran": 602,
  "\u2581eis": 603,
  "\u2581tan": 604,
  "\u2581peut": 605,
  "\u2581puede": 606,
  "\u2581haec": 607,
  "ir": 608,
  "\u2581sol": 609,
  "ez": 610,
  "\u2581sicut": 611,
  "\u2581tempo": 612,
  "\u2581mea": 613,
  "\u2581l\u00e8": 614,
  "\u258119": 615,
  "\u2581\u00e9l": 616,
  "ie": 617,
  "\u2581omnes": 618,
  "\u2581presente": 619,
  "\u2581todas": 620,
  "G": 621,
  "\u2581r\u00e9": 622,
  "\u2581Ca": 623,
  "uri": 624,
  "\u2581cap": 625,
  "\u2581sin": 626,
  "\u2581caso": 627,
  "fi": 628,
  "\u2581dia": 629,
  "\u2581sau": 630,
  "ada": 631,
  "tura": 632,
  "\u2581Ha": 633,
  "\u2581vobis": 634,
  "res": 635,
  "\u00ad": 636,
  "\u2581Pa": 637,
  "nos": 638,
  "\u2581dire": 639,
  "po": 640,
  "ten": 641,
  "\u2581mes": 642,
  "\u2581As": 643,
  "\u2581nella": 644,
  "\u2581Des": 645,
  "era": 646,
  "\u00e9s": 647,
  "\u2581cosa": 648,
  "\u2581Comment": 649,
  "\u2581vie": 650,
  "tar": 651,
  "\u2581,,": 652,
  "\u2581Pero": 653,
  "\u2581tipo": 654,
  "\u2581ser\u00e1": 655,
  "\u2581solo": 656,
  "hi": 657,
  "\u25816": 658,
  "\u2581ait": 659,
  "\u2581ve": 660,
  "\u2581han": 661,
  "\u258115": 662,
  "\u2581X": 663,
  "\u2581disse": 664,
  "\u2581uno": 665,
  "\u2581\u015ei": 666,
  "tum": 667,
  "\u2581Esta": 668,
  "\u2581temps": 669,
  "qui": 670,
  "\u00c9ternel": 671,
  "\u2581Dei": 672,
  "\u2581moi": 673,
  "\u2581Para": 674,
  "\u2581tibi": 675,
  "los": 676,
  "\u2581Jehovah": 677,
  "\u2581nombre": 678,
  "\u2581elle": 679,
  "\u2581Ho": 680,
  "\u2581cas": 681,
  "\u2581Mais": 682,
  "zioni": 683,
  "\u2581Este": 684,
  "\u2581Los": 685,
  "\u00fa": 686,
  "\u2581m\u00eame": 687,
  "\u2581eo": 688,
  "\u2581Com": 689,
  "\u2581asta": 690,
  "\u2581aos": 691,
  "ibus": 692,
  "\u2581ter": 693,
  "con": 694,
  "\u2581m\u00e9s": 695,
  "ssa": 696,
  "nza": 697,
  "\u2581Dio": 698,
  "\u2581ra": 699,
  "cion": 700,
  "cha": 701,
  "\u2581tuo": 702,
  "j": 703,
  "ke": 704,
  "bi": 705,
  "tto": 706,
  "\u2581mihi": 707,
  "lla": 708,
  "\u2581Os": 709,
  "\u2581sul": 710,
  "\u2581votre": 711,
  ">>arg<<": 712,
  "\u2581degli": 713,
  "(": 714,
  "io": 715,
  "\u2581ante": 716,
  "\u2581Me": 717,
  "\u2581...": 718,
  "fa": 719,
  "\u2581%1": 720,
  "\u2581\u2018": 721,
  "nce": 722,
  "\u2581valor": 723,
  "\u2581erat": 724,
  "\u2581jan": 725,
  "T": 726,
  "\u2581res": 727,
  "\u2581men": 728,
  "\u2581@": 729,
  "\u2581chi": 730,
  "\u2581porta": 731,
  "\u2581pays": 732,
  "\u2581J\u00e9sus": 733,
  "\u2581face": 734,
  "\u2581Vous": 735,
  "\u2581notre": 736,
  "\u2581qu\u00e9": 737,
  "\u2581s\u00e3o": 738,
  "cia": 739,
  "\u2581gran": 740,
  "\u2581Te": 741,
  "\u2581ergo": 742,
  "\u2581lugar": 743,
  "2": 744,
  "\u2581Estados": 745,
  "zo": 746,
  "\u2581V": 747,
  "\u2581durante": 748,
  "I": 749,
  "\u2581\u00e9tait": 750,
  "ya": 751,
  "H": 752,
  "\u2581hai": 753,
  "\u2581Ri": 754,
  "\u2581programa": 755,
  "bat": 756,
  "ei": 757,
  "\u2581Ta": 758,
  "\u2581nom": 759,
  "N": 760,
  "\u2581desde": 761,
  "\u2581lista": 762,
  "\u2581Pre": 763,
  "\u2581hi": 764,
  "elle": 765,
  "gar": 766,
  "\u2581quem": 767,
  "\u2581pelo": 768,
  "\u2581tutti": 769,
  "\u2581hoc": 770,
  "ze": 771,
  "ire": 772,
  "tro": 773,
  "rent": 774,
  "\u2581sera": 775,
  "\u2581\u00cen": 776,
  "\u2581ecce": 777,
  "\u2581ea": 778,
  "\u2581quam": 779,
  "\u021bi": 780,
  "\u2581noi": 781,
  "\u2581causa": 782,
  "\u2581mare": 783,
  "\u2581via": 784,
  "\u258112": 785,
  "\u2581leurs": 786,
  "it\u00e0": 787,
  "\u2581anche": 788,
  "\u2581ton": 789,
  "\u2581aussi": 790,
  "\u2581cal": 791,
  "fe": 792,
  "gu": 793,
  "tori": 794,
  "it\u00e9": 795,
  "\u2581color": 796,
  "\u2581dicit": 797,
  "L": 798,
  "\u2581Vi": 799,
  "\u00ee": 800,
  "\u2581sta": 801,
  "ils": 802,
  "\u2581sempre": 803,
  "V": 804,
  "\u2581bay": 805,
  "\u2581trans": 806,
  "\u2581usque": 807,
  "\u258120": 808,
  "\u2581manera": 809,
  "son": 810,
  "du": 811,
  "\u00e2": 812,
  "\u2581menm": 813,
  "\u2581deve": 814,
  "R": 815,
  "tra": 816,
  "\u258130": 817,
  "ck": 818,
  "\u2581--": 819,
  "\u25817": 820,
  "ine": 821,
  "\u2581On": 822,
  "\u2581tamb\u00e9m": 823,
  "\u2581sum": 824,
  "\".": 825,
  "\u2581rex": 826,
  "\u2581pela": 827,
  "\u2581bene": 828,
  "\u2581erit": 829,
  "cer": 830,
  "\u2581R": 831,
  "3": 832,
  "\u2581for": 833,
  "\u2581Jezi": 834,
  "\u2581An": 835,
  "\u2581Par": 836,
  "\u2581col": 837,
  "pro": 838,
  "\u2581antes": 839,
  "\u2581g": 840,
  "\u2581ba": 841,
  "\u25818": 842,
  "\u2581Men": 843,
  "\u2581Mas": 844,
  "\u2581\u00bb.": 845,
  "pre": 846,
  "\u2581sans": 847,
  "\u2581suas": 848,
  "\u2581tres": 849,
  "\u2581Pe": 850,
  "he": 851,
  "\u2581Domino": 852,
  "ris": 853,
  "nes": 854,
  "\u00eda": 855,
  "\u2581perch\u00e9": 856,
  "\u2581Su": 857,
  "\u2581Dar": 858,
  "\u2581esse": 859,
  "\u2581terram": 860,
  "ele": 861,
  "\u2581tambi\u00e9n": 862,
  "\u2581conta": 863,
  "\u2581Comiss\u00e3o": 864,
  "ere": 865,
  "\u2581Car": 866,
  "tos": 867,
  "ka": 868,
  "gli": 869,
  "r\u00eda": 870,
  "\u2581m\u0103": 871,
  "\u2581medio": 872,
  "ure": 873,
  "\u2581nec": 874,
  "\u2581quasi": 875,
  "\u2581l\u00f2t": 876,
  "\u2581tanto": 877,
  "\u2581nun": 878,
  "\u2581nas": 879,
  "sta": 880,
  "\u2581debe": 881,
  "\u2581as\u00ed": 882,
  "\u2581point": 883,
  "\u2581prin": 884,
  "\u2581Pro": 885,
  "\u2581Ra": 886,
  "\u2581vor": 887,
  "im": 888,
  "\u2581die": 889,
  "tul": 890,
  "\u2581vers": 891,
  "\u2581Em": 892,
  "\u2581van": 893,
  "rie": 894,
  "\u2581fils": 895,
  "\u2581questa": 896,
  "\u2581avait": 897,
  "\u2581Jehov\u00e1": 898,
  "rem": 899,
  "\u2581ses": 900,
  "\u2581d\u00eda": 901,
  "\u2581deux": 902,
  "\u2581bem": 903,
  "ens": 904,
  "\u2581mio": 905,
  "ile": 906,
  "\u2581eam": 907,
  "\u258118": 908,
  "\u2581vol": 909,
  "\u2581toda": 910,
  "ff": 911,
  "\u2581io": 912,
  "tas": 913,
  "las": 914,
  "\u2581Co": 915,
  "cions": 916,
  "bri": 917,
  "\u2581\u2019": 918,
  "\u2581jour": 919,
  "\u015fi": 920,
  "idad": 921,
  "\u2581Va": 922,
  "\u2581Ti": 923,
  "\u2581mar": 924,
  "ber": 925,
  "\u2581mis": 926,
  "th": 927,
  "\u2581vista": 928,
  "\u2581meus": 929,
  "\u2581personal": 930,
  "K": 931,
  "\u2581Domnul": 932,
  "\u2581teu": 933,
  "\u2581favor": 934,
  "\u00e9e": 935,
  "vis": 936,
  "w": 937,
  "\u2581rei": 938,
  "\u2581prima": 939,
  "\u2581tabata": 940,
  "car": 941,
  "\u2581actual": 942,
  "\u2581filius": 943,
  "ces": 944,
  "\u2581Ar": 945,
  "\u2581servi": 946,
  "xi": 947,
  "\u2581quid": 948,
  "\u2581alle": 949,
  "\u2581mesmo": 950,
  "\u2581isso": 951,
  "\u2581Comisi\u00f3n": 952,
  "\u2581mo": 953,
  "mini": 954,
  "\u2581otro": 955,
  "\u2581plan": 956,
  "\u2581cun": 957,
  "\u2581f": 958,
  "\u2581ro": 959,
  "\",": 960,
  "\u2581tem": 961,
  "\u2581pr\u00e9": 962,
  "mus": 963,
  "\u2581num": 964,
  "\u2581mundo": 965,
  "dores": 966,
  "\u2581\u00e7a": 967,
  "\u2581post": 968,
  "\u2581fie": 969,
  "\u2581Mostrar": 970,
  "ite": 971,
  "ais": 972,
  "men": 973,
  "\u2581tiempo": 974,
  "\u2581ob": 975,
  ":%": 976,
  "Y": 977,
  "\u2581quanto": 978,
  "\u2581sei": 979,
  "llo": 980,
  "\u2581bine": 981,
  "lle": 982,
  "\u2581stato": 983,
  "ban": 984,
  "\u2581partir": 985,
  "\u2581fe": 986,
  "\u2581voc\u00ea": 987,
  "\u2581estar": 988,
  "\u2581isto": 989,
  "\u00e1n": 990,
  "\u2581ye": 991,
  "ac": 992,
  "\u2581KDE": 993,
  "\u2581mwen": 994,
  "\u2581fue": 995,
  "tta": 996,
  "\u2581vis": 997,
  "\u2581info": 998,
  "\u2581He": 999,
  "via": 1000,
  "\u2581man": 1001,
  "\u2581sous": 1002,
  "\u2581omnia": 1003,
  "\u2581S\u00ed": 1004,
  "verunt": 1005,
  "ait": 1006,
  "\u2581tutto": 1007,
  "\u2581nada": 1008,
  "\u2581parti": 1009,
  "r\u0103": 1010,
  "\u2581hasta": 1011,
  "zza": 1012,
  "ita": 1013,
  "\u2581venit": 1014,
  "\u2581aquest": 1015,
  "\u2581persona": 1016,
  "stru": 1017,
  "ux": 1018,
  "UE": 1019,
  "\u2581Che": 1020,
  "r\u00e1n": 1021,
  "\u2581s\u00f3": 1022,
  "\u2581qu\u00e8": 1023,
  "\u2581o\u00f9": 1024,
  "BAR": 1025,
  "\u2581DE": 1026,
  "tti": 1027,
  "\u2581dac\u0103": 1028,
  "ner": 1029,
  "\u2581dicens": 1030,
  "\u2581lor": 1031,
  "\u2581Ils": 1032,
  "tiva": 1033,
  "rai": 1034,
  "\u2581Como": 1035,
  "\u2581art\u00edculo": 1036,
  "ki": 1037,
  "\u2581Au": 1038,
  "\u2581Nous": 1039,
  "c\u0103": 1040,
  "\u2581Jes\u00fas": 1041,
  "\u258125": 1042,
  "\u2581momento": 1043,
  "\u2581bi": 1044,
  "\u2581vide": 1045,
  "\u2581quoniam": 1046,
  "\u2581Ci": 1047,
  "\u25819": 1048,
  "\u2581n\u00famero": 1049,
  "\u2581data": 1050,
  "\u2581anpil": 1051,
  "ix": 1052,
  "\u2581Commission": 1053,
  "\u2581Iuda": 1054,
  "\u258117": 1055,
  "\u2581fatto": 1056,
  "\u2581tur": 1057,
  "\u2581ac": 1058,
  "\u2581trabajo": 1059,
  "\u2581texto": 1060,
  "tivo": 1061,
  "\u2581algo": 1062,
  "\u2581at\u00e9": 1063,
  "\u2581s\u00e9": 1064,
  "r\u00f2": 1065,
  "\u2581sido": 1066,
  "\u2581Commissione": 1067,
  "\u2581contre": 1068,
  "\u2581opera": 1069,
  "\u2581dalla": 1070,
  "cri": 1071,
  "\u2581tin": 1072,
  "\u2581Jo": 1073,
  "\u2581nota": 1074,
  "\u2581Parlamento": 1075,
  "xe": 1076,
  "\u25811,": 1077,
  "ut": 1078,
  "\u2581vir": 1079,
  "bre": 1080,
  "\u2581toi": 1081,
  "\u2581ceux": 1082,
  "\u2581dai": 1083,
  "\u2581Sin": 1084,
  "\u2581informaci\u00f3n": 1085,
  "\u2581qual": 1086,
  "\u2581indica": 1087,
  "\u2581Dumnezeu": 1088,
  "itat": 1089,
  "ng": 1090,
  "ret": 1091,
  "\u2581GNOME": 1092,
  "lon": 1093,
  "\u2581problema": 1094,
  "rono": 1095,
  "\u2581importante": 1096,
  "\u2581ed": 1097,
  "\u2581ben": 1098,
  "tore": 1099,
  "bis": 1100,
  "\u2581esto": 1101,
  "\u2581zis": 1102,
  "ida": 1103,
  "1": 1104,
  "\u2581bagay": 1105,
  "jo": 1106,
  "tte": 1107,
  "com": 1108,
  "\u2581hacer": 1109,
  "\u2581sui": 1110,
  "\u2581autres": 1111,
  "\u2581kon": 1112,
  "\u2581Una": 1113,
  "vers": 1114,
  "\u00e1u": 1115,
  "\u2581jwenn": 1116,
  "\u258114": 1117,
  "bu": 1118,
  "cul": 1119,
  "\u2581Clavi\u00e8r": 1120,
  "tio": 1121,
  "tri": 1122,
  "wa": 1123,
  "No": 1124,
  "d\u00e9": 1125,
  "\u2581\u2022": 1126,
  "\u2581Yo": 1127,
  "\u2581f\u0103cut": 1128,
  "dia": 1129,
  "\u2581hab\u00eda": 1130,
  "\u2581dice": 1131,
  "pli": 1132,
  "\u2581Bo": 1133,
  "\u2581fra": 1134,
  "\u2581tiene": 1135,
  "\u2581quis": 1136,
  "\u2581size": 1137,
  "\u2581ficheiro": 1138,
  "ista": 1139,
  "\u2581v\u0103": 1140,
  "\u2581pare": 1141,
  "\u00e7a": 1142,
  "\u2581hanno": 1143,
  "\u2581ellos": 1144,
  "\u2581muito": 1145,
  "nu": 1146,
  "\u2581manu": 1147,
  "\u2581l\u00e0": 1148,
  "\u2581hende": 1149,
  "\u2581dijo": 1150,
  "\u2581meum": 1151,
  "\u2581dies": 1152,
  "\u2581v": 1153,
  "\u2581usar": 1154,
  "\u2581pues": 1155,
  "ente": 1156,
  "\u2581fazer": 1157,
  "\u2581quoque": 1158,
  "\u2581menos": 1159,
  "\u2581montre": 1160,
  "ssi": 1161,
  "\u2581Mar": 1162,
  "unt": 1163,
  "\u2581ela": 1164,
  "\u2581far": 1165,
  "ato": 1166,
  "orum": 1167,
  "\u2581mostrar": 1168,
  "\u2581dels": 1169,
  "\u2581ya": 1170,
  "\u2581carga": 1171,
  "\u2581artigo": 1172,
  "\u2581suum": 1173,
  "ger": 1174,
  "\u2581punto": 1175,
  "tions": 1176,
  "\u2581aix\u00f2": 1177,
  "\u2581sia": 1178,
  "\u2581ale": 1179,
  "\u2581toutes": 1180,
  "U": 1181,
  "esc": 1182,
  "nta": 1183,
  "\u2581\"%": 1184,
  "ient": 1185,
  "\u2581Las": 1186,
  "\u2581aquesta": 1187,
  "bus": 1188,
  "\u2581Oh": 1189,
  "\u2581quand": 1190,
  "\u2581Fa": 1191,
  "\u2581ainsi": 1192,
  "\u00e2t": 1193,
  "nti": 1194,
  "\u258124": 1195,
  "gan": 1196,
  "\u25811.": 1197,
  "\u2581ven": 1198,
  "\u2581hay": 1199,
  "mp": 1200,
  "\u258113": 1201,
  "\u2581hijos": 1202,
  "\u2581to": 1203,
  "\u2581aici": 1204,
  "\u2581dir": 1205,
  "pri": 1206,
  "tre": 1207,
  "gen": 1208,
  "\u2581u": 1209,
  "\u2581tui": 1210,
  "\u00f1a": 1211,
  "\u2581sulla": 1212,
  "\u2581poder": 1213,
  "\u2581So": 1214,
  "\u258111": 1215,
  "cho": 1216,
  "tan": 1217,
  "\u2581Saul": 1218,
  "\u2581Ver": 1219,
  "\u2581Hierusalem": 1220,
  "\u2581terre": 1221,
  "\u2581donc": 1222,
  "\u258116": 1223,
  "\u2581tou": 1224,
  "\u2581especial": 1225,
  "\u2581a\u00f1os": 1226,
  "nd": 1227,
  "\u2581part": 1228,
  "\u2581tre": 1229,
  "\u2581\u00c0": 1230,
  "\u2581mari": 1231,
  "\u2581fare": 1232,
  "\u2581pa\u00edses": 1233,
  "\u2581\u00e1": 1234,
  "ero": 1235,
  "\u2581ja": 1236,
  "\u2581san": 1237,
  "\u2581ir": 1238,
  "\u2581Ba": 1239,
  "\u2581Nun": 1240,
  "par": 1241,
  "\u2581aqui": 1242,
  "\u2581ogni": 1243,
  "\u2581final": 1244,
  "\u2581tierra": 1245,
  "bor": 1246,
  "\u2581seva": 1247,
  "ncia": 1248,
  "\u2581ans": 1249,
  "\u2581mei": 1250,
  "\u2581x": 1251,
  "bra": 1252,
  "\u2581euros": 1253,
  "\u2581pran": 1254,
  "\u2581eles": 1255,
  "\u2581Cu": 1256,
  "\u2581Estado": 1257,
  "m\u0103": 1258,
  "c\u00e9": 1259,
  "vol": 1260,
  "\u2581bater\u00eda": 1261,
  "\u2581toate": 1262,
  "\u2581Porque": 1263,
  "\u2581cari": 1264,
  "Qu\u00e9": 1265,
  "\u2581genyen": 1266,
  "\u2581tuum": 1267,
  "\u2581total": 1268,
  "\u2581propter": 1269,
  "\u2581hora": 1270,
  "\u2581pal": 1271,
  "ser": 1272,
  "\u2581due": 1273,
  "\u2581membres": 1274,
  "\u2581imp": 1275,
  "\u2581maison": 1276,
  "vous": 1277,
  "\u2581anos": 1278,
  "\u2581trebuie": 1279,
  "\u2581sic": 1280,
  ".``": 1281,
  "\u2581\u201d,": 1282,
  ".\"": 1283,
  "\u2581est\u00e1n": 1284,
  "fo": 1285,
  "\u2581mine": 1286,
  "\u2581ipse": 1287,
  "bunt": 1288,
  "\u2581pel": 1289,
  "\u00ea": 1290,
  "ad": 1291,
  "\u2581dup\u0103": 1292,
  "\u25810": 1293,
  "\u2581omnis": 1294,
  "lhe": 1295,
  "\u2581Qui": 1296,
  "xa": 1297,
  "ing": 1298,
  "ura": 1299,
  "entes": 1300,
  "\u2581datos": 1301,
  "\u2581opci\u00f3n": 1302,
  "\u2581moment": 1303,
  "\u2581dwe": 1304,
  "\u2581cel": 1305,
  "\u2581Quando": 1306,
  "\u2581soit": 1307,
  "ront": 1308,
  "tica": 1309,
  "bles": 1310,
  "\u258131": 1311,
  "\u2581nell": 1312,
  "\u2581vero": 1313,
  "ici": 1314,
  "\u2581tine": 1315,
  "\u2581Comit\u00e9": 1316,
  "\u2581medidas": 1317,
  "ina": 1318,
  "idade": 1319,
  "\u2581mort": 1320,
  "\u2581estado": 1321,
  "\u2581Pas": 1322,
  "\u2581toute": 1323,
  "teur": 1324,
  "\u2581ella": 1325,
  "\u2581barra": 1326,
  "\u2581regis": 1327,
  "\u2581U": 1328,
  "\u2581amor": 1329,
  "gna": 1330,
  "bile": 1331,
  "\u2581Pour": 1332,
  "\u2581molt": 1333,
  "\u2581\u00c9s": 1334,
  "\u2581pu\u00f2": 1335,
  "\u2581domum": 1336,
  "W": 1337,
  "rei": 1338,
  "\u2581quo": 1339,
  "\u2581~": 1340,
  "\u2581minha": 1341,
  "\u2581us": 1342,
  "ii": 1343,
  "den": 1344,
  "\u2581suam": 1345,
  "\u2581tant": 1346,
  "\u2581roi": 1347,
  "\u2581enfants": 1348,
  "\u2581monde": 1349,
  "\u2581kapab": 1350,
  "\u2581estas": 1351,
  "info": 1352,
  "ton": 1353,
  "\u2581mismo": 1354,
  "\u2581pu": 1355,
  "\u2581agora": 1356,
  "endo": 1357,
  "\u2581konnen": 1358,
  "\u2581volta": 1359,
  "ea": 1360,
  "\u2581cela": 1361,
  "\u2581doit": 1362,
  "\u2581tema": 1363,
  "zion": 1364,
  "\u2581exemple": 1365,
  "\u2581apr\u00e8s": 1366,
  "qua": 1367,
  "\u2581eso": 1368,
  "bant": 1369,
  "eu": 1370,
  "\u2581pois": 1371,
  "\u2581fason": 1372,
  "\u2581dont": 1373,
  "amente": 1374,
  "zia": 1375,
  "tin": 1376,
  "\u2581mira": 1377,
  "\u2581per\u00f2": 1378,
  "\u2581muy": 1379,
  "\u2581Nome": 1380,
  "\u2581anni": 1381,
  "der": 1382,
  "\u2581Do": 1383,
  "\u2581fu": 1384,
  "\u2581place": 1385,
  "CEE": 1386,
  "ation": 1387,
  "ale": 1388,
  "\u2581Ve": 1389,
  "rio": 1390,
  "\u2581local": 1391,
  "\u00f3n": 1392,
  "\u2581fecit": 1393,
  "age": 1394,
  "\u2581vita": 1395,
  "\u2581fac": 1396,
  "\u2581rey": 1397,
  "4": 1398,
  "\u2581rapport": 1399,
  "gno": 1400,
  "\u2581considera": 1401,
  "\u2581mia": 1402,
  "\u2581significa": 1403,
  "\u2581encore": 1404,
  "\u2581Elle": 1405,
  "ques": 1406,
  "\u2581m\u00e1is": 1407,
  "\u2581Qu": 1408,
  "cos": 1409,
  "t\u00e8": 1410,
  "ont": 1411,
  "\u2581Ora": 1412,
  "\u2581Po": 1413,
  "\u2581autre": 1414,
  "stra": 1415,
  "\u2581padre": 1416,
  "cher": 1417,
  "\u2581filhos": 1418,
  "\u2581Dans": 1419,
  "\u2581usa": 1420,
  "rra": 1421,
  "cta": 1422,
  "\u2581Yehova": 1423,
  "\u2581empresa": 1424,
  "\u2581Hi": 1425,
  "\u2581Presidente": 1426,
  "\u2581estaba": 1427,
  "rii": 1428,
  "\u2581auto": 1429,
  "\u2581nomen": 1430,
  "\u2581principal": 1431,
  "\u2581cre": 1432,
  "bitur": 1433,
  "\u2581quel": 1434,
  "\u2581ede": 1435,
  "min": 1436,
  "\u2581erant": 1437,
  "\u2581red": 1438,
  "\u2581Une": 1439,
  "\u2581s\u00ed": 1440,
  "\u2581onde": 1441,
  "ando": 1442,
  "\u2581terrae": 1443,
  "\u2581Ele": 1444,
  "\u2581Nan": 1445,
  "\u2581locutus": 1446,
  "\u2581avant": 1447,
  "\u2581\u00c9tats": 1448,
  "\u2581sit": 1449,
  "\u2581Cor": 1450,
  "\u2581viv": 1451,
  "\u2581prae": 1452,
  "oso": 1453,
  "\u2581Ai": 1454,
  "ido": 1455,
  "\u2581nostra": 1456,
  "\u2581celui": 1457,
  "\u2581cuenta": 1458,
  "\u2581despre": 1459,
  "\u00eatre": 1460,
  "i\u00f3": 1461,
  "gue": 1462,
  "\u2581uso": 1463,
  "\u2581Conseil": 1464,
  "\u2581Conselho": 1465,
  "\u2581outros": 1466,
  "\u2581compte": 1467,
  "\u2581aplicaci\u00f3n": 1468,
  "g\u00e9": 1469,
  "\u2581general": 1470,
  "ate": 1471,
  "\u2581Entonces": 1472,
  "dis": 1473,
  "ph": 1474,
  "\u2581hijo": 1475,
  "\u201c": 1476,
  "\u2581Fi": 1477,
  "\u2581fichier": 1478,
  "\u2581social": 1479,
  "\u2581h\u00e1": 1480,
  "\u2581konn": 1481,
  "able": 1482,
  "\u00c9": 1483,
  "\u2581neque": 1484,
  "una": 1485,
  "\u2581europea": 1486,
  "ados": 1487,
  "\u2581altri": 1488,
  "\u2581lei": 1489,
  "\u2581tribu": 1490,
  "\u2581mise": 1491,
  "\u2581otros": 1492,
  "\u2581grupo": 1493,
  "\u2581Pi": 1494,
  "ras": 1495,
  "\u2581entra": 1496,
  "dio": 1497,
  "\u2581H": 1498,
  "\u258122": 1499,
  "\u2581mano": 1500,
  "ins": 1501,
  "\u2581Est\u00e1": 1502,
  "\u2581pale": 1503,
  "\u2581campo": 1504,
  "\u2581dois": 1505,
  "rse": 1506,
  "\u2581quan": 1507,
  "\u2581jo": 1508,
  "\u2581vai": 1509,
  "uxta": 1510,
  "por": 1511,
  "e\u015fte": 1512,
  "\u2581Chi": 1513,
  "lin": 1514,
  "fer": 1515,
  "rsi": 1516,
  "\u2581sea": 1517,
  "\u00e8s": 1518,
  "\u00bb.": 1519,
  "\u2581tras": 1520,
  "\u2581ani": 1521,
  "\u2581Sal": 1522,
  "\u2581acuerdo": 1523,
  "\u2581a\u015fa": 1524,
  "gua": 1525,
  "\u2581pol": 1526,
  "\u2581Ex": 1527,
  "cre": 1528,
  "\u2581Io": 1529,
  "ex": 1530,
  "\u2581sens": 1531,
  "\u2581Ent\u00e3o": 1532,
  "dere": 1533,
  "\u015f": 1534,
  "\u2581Mo": 1535,
  "\u2581qua": 1536,
  "\u2581nunc": 1537,
  "autres": 1538,
  "\u2581tr\u00e8s": 1539,
  "quid": 1540,
  "\u00e9es": 1541,
  "\u2581saber": 1542,
  "aci\u00f3n": 1543,
  "\u2581dentro": 1544,
  "\u2581Stati": 1545,
  "\u00eancia": 1546,
  "\u2581assim": 1547,
  "\u2581habita": 1548,
  "\u00e8rent": 1549,
  "\u2581pus": 1550,
  "urile": 1551,
  "\u2581vas": 1552,
  "\u2581archivo": 1553,
  "\u2581d\u00edas": 1554,
  "\u2581b\u00e9": 1555,
  "\u2581forte": 1556,
  "\u2581lhe": 1557,
  "\u2581passa": 1558,
  "\u2581domus": 1559,
  "nda": 1560,
  "\u2581Bib": 1561,
  "\u2581anima": 1562,
  "\u2581Ja": 1563,
  "\u2581be": 1564,
  "\u2581segundo": 1565,
  "\u2581ainda": 1566,
  "\u2581suoi": 1567,
  "ui": 1568,
  "\u2581rive": 1569,
  "\u2581;": 1570,
  "\u2581dins": 1571,
  "\u258123": 1572,
  "\u00ef": 1573,
  "aient": 1574,
  "\u2581illi": 1575,
  "\u2581mostra": 1576,
  "tque": 1577,
  "\u2581byen": 1578,
  "\u2581personas": 1579,
  "ador": 1580,
  "encia": 1581,
  "\u2581n\u00e9n": 1582,
  "\u2581Color": 1583,
  "\u2581pudo": 1584,
  "m\u00e9": 1585,
  "shon": 1586,
  "\u2581control": 1587,
  "amento": 1588,
  "\u2581per\u00edodo": 1589,
  "\u2581hombre": 1590,
  "\u2581Consejo": 1591,
  "\u2581existe": 1592,
  "\u2581Ro": 1593,
  "\u2581salva": 1594,
  "vano": 1595,
  "\u2581ita": 1596,
  "ati": 1597,
  "\u2581ten": 1598,
  "land": 1599,
  "\u2581Bible": 1600,
  "\u258126": 1601,
  "ari": 1602,
  "\u2581notas": 1603,
  "\u2581sem": 1604,
  "\u2581ju": 1605,
  "\u2581pueblo": 1606,
  "ko": 1607,
  "\u2581ru": 1608,
  "\u2581fois": 1609,
  "\u2581mu": 1610,
  "ranno": 1611,
  "menti": 1612,
  "\u2581avoir": 1613,
  "\u2581Cristo": 1614,
  "cas": 1615,
  "\u2581pase": 1616,
  "\u2581sen": 1617,
  "qu\u00e9": 1618,
  "gra": 1619,
  "\u2581superior": 1620,
  "\u2581dall": 1621,
  "\u2581membri": 1622,
  "ement": 1623,
  "\u2581ibi": 1624,
  "\u2581Deo": 1625,
  "\u2581nem": 1626,
  "nde": 1627,
  "\u2581\u00b7": 1628,
  "ora": 1629,
  "\u2581aut": 1630,
  "mor": 1631,
  "ira": 1632,
  "\u2581Tra": 1633,
  "\u25812.": 1634,
  "\u25812,": 1635,
  "pla": 1636,
  "\u2581cos\u00ec": 1637,
  "\u2581Domnului": 1638,
  "\u2581lu": 1639,
  "\u00f5es": 1640,
  "\u2581filiis": 1641,
  "\u2581parce": 1642,
  "\u2581hecho": 1643,
  "\u2581est\u00e0": 1644,
  "\u2581tale": 1645,
  "\u2581cet": 1646,
  "\u2581Dominum": 1647,
  "r\u00e1s": 1648,
  "\u2581regolamento": 1649,
  "\u2581S\u0103": 1650,
  "pos": 1651,
  "\u2581jusqu": 1652,
  "ante": 1653,
  "dat": 1654,
  "\u2581w\u00e8": 1655,
  "\u2581visto": 1656,
  "\u2581liste": 1657,
  "\u2581\u2013": 1658,
  "\u2581W": 1659,
  "\u2581j\u00e1": 1660,
  "\u258128": 1661,
  "\u2581Man": 1662,
  "\u2581afin": 1663,
  "gui": 1664,
  "\u2581contro": 1665,
  "\u2581servir": 1666,
  "\u2581novo": 1667,
  "\u2581Come": 1668,
  "\u2581extra": 1669,
  "\u2581molto": 1670,
  "\u2581familia": 1671,
  "\u2581c\u00e2nd": 1672,
  "lli": 1673,
  "erunt": 1674,
  "n\u0103": 1675,
  "\u2581quello": 1676,
  "\u2581nobis": 1677,
  "ntur": 1678,
  "article": 1679,
  "eux": 1680,
  "\u2581Indica": 1681,
  "\u2581spus": 1682,
  "\u2581mult": 1683,
  "iu": 1684,
  "azione": 1685,
  "\u2581Dis": 1686,
  "tive": 1687,
  "\u258121": 1688,
  "\u2581tener": 1689,
  "\u2581populus": 1690,
  "ap": 1691,
  "\u2581dove": 1692,
  "\u2581Impossible": 1693,
  "\u2581acord": 1694,
  "\u2581sar\u00e0": 1695,
  "\u2581r\u00e8glement": 1696,
  "vos": 1697,
  "ture": 1698,
  "\u2581travail": 1699,
  "\u2581zona": 1700,
  "lia": 1701,
  "ismo": 1702,
  "cio": 1703,
  "\u2581tri": 1704,
  "\u2581filho": 1705,
  "\u2581choses": 1706,
  "\u2581lado": 1707,
  "\u2581europ\u00e9enne": 1708,
  "\u2581pensa": 1709,
  "\u2581pai": 1710,
  "\u2581poate": 1711,
  "\u2581ayuda": 1712,
  "duc": 1713,
  "\u2581comando": 1714,
  "\u00e8l": 1715,
  "\u2581faci": 1716,
  "\u2581homo": 1717,
  "cor": 1718,
  "\u2581pol\u00edtica": 1719,
  "\u2581vei": 1720,
  "cur": 1721,
  "\u2581trabalho": 1722,
  "\u2581\u00e9galement": 1723,
  "tate": 1724,
  "\u2581elementos": 1725,
  "\u2581nunca": 1726,
  "t\u00e1": 1727,
  "\u2581his": 1728,
  "\u2581ano": 1729,
  "\u2581sue": 1730,
  "\u2581(%": 1731,
  "\u2581viri": 1732,
  "col": 1733,
  "\u2581estava": 1734,
  "\u2581sigui": 1735,
  "\u2581siguiente": 1736,
  "\u00ec": 1737,
  "mina": 1738,
  "\u2581gente": 1739,
  "bil": 1740,
  "5": 1741,
  "\u2581riba": 1742,
  "\u2581mercado": 1743,
  "t\u00e0": 1744,
  "\u2581fet": 1745,
  "\u2581nova": 1746,
  "mar": 1747,
  "\u2581Ben": 1748,
  "\u2581ceva": 1749,
  "\u2581Jehov\u00e0": 1750,
  "\u2581Qu\u00e8": 1751,
  "\u2581guerra": 1752,
  "\u2581homme": 1753,
  "\u2581avons": 1754,
  "\u2581peuple": 1755,
  "\u2581Cal": 1756,
  "a\u00e7\u00e3o": 1757,
  "ito": 1758,
  "\u2581web": 1759,
  "\u2581morte": 1760,
  "\u2581principes": 1761,
  "\u2581meam": 1762,
  "\u2581pa\u00eds": 1763,
  "\u2581L\u00e8": 1764,
  "r\u00e3o": 1765,
  "10": 1766,
  "\u2581figlio": 1767,
  "\u2581s\u00e8vi": 1768,
  "osa": 1769,
  "cat": 1770,
  "\u2581Europa": 1771,
  "\u2581<": 1772,
  "v\u00e9": 1773,
  "\u2581ici": 1774,
  "\u2581Sim": 1775,
  "\u2581avez": 1776,
  "\u2581error": 1777,
  "\u00een": 1778,
  "De": 1779,
  "sia": 1780,
  "\u2581Pourquoi": 1781,
  "mine": 1782,
  "articolo": 1783,
  "\u2581unde": 1784,
  "\u2581nici": 1785,
  "\u2581otra": 1786,
  "\u2581r": 1787,
  "fu": 1788,
  "\u2581h": 1789,
  "ssent": 1790,
  "ol": 1791,
  "we": 1792,
  "\u2581Consiglio": 1793,
  "\u2581Im": 1794,
  "\u2581Nom": 1795,
  "aux": 1796,
  "\u2581Du": 1797,
  "\u2581acum": 1798,
  "\u2581m\u00ed": 1799,
  "\u2581giorno": 1800,
  "ndi": 1801,
  "ry": 1802,
  "\u2581lavoro": 1803,
  "ata": 1804,
  "\u2581n\u00f3s": 1805,
  "\u2581discu": 1806,
  "\u2581ancora": 1807,
  "\u00e7o": 1808,
  "\u2581audi": 1809,
  "\u2581illis": 1810,
  "\u2581anterior": 1811,
  "ch\u00e9": 1812,
  "\u0163ii": 1813,
  "\u2581detto": 1814,
  "\u2581id": 1815,
  "\u2581Usar": 1816,
  "stre": 1817,
  "d\u0103": 1818,
  "\u2581partie": 1819,
  "\u2581passe": 1820,
  "\u2581toujours": 1821,
  "\u2581essa": 1822,
  "\u2581foram": 1823,
  "\u2581homem": 1824,
  "cus": 1825,
  "ario": 1826,
  "\u2581Els": 1827,
  "\u2581anti": 1828,
  "ini": 1829,
  "\u2581cosas": 1830,
  "\u2581completa": 1831,
  "op": 1832,
  "\u258129": 1833,
  "tat": 1834,
  "\u2581veni": 1835,
  "ue": 1836,
  "\u2581To": 1837,
  "\u258127": 1838,
  "\u2581Mon": 1839,
  "\u2581omni": 1840,
  "\u2581hic": 1841,
  "nia": 1842,
  "\u2581II": 1843,
  "ments": 1844,
  "ilor": 1845,
  "\u2581dopo": 1846,
  "\u2581informe": 1847,
  "\u2581nei": 1848,
  "\u2581carne": 1849,
  "cum": 1850,
  "\u2581Za": 1851,
  "\u00e9tait": 1852,
  "\u2581omnibus": 1853,
  "\u2581podem": 1854,
  "\u2581cara": 1855,
  "\u2581Nou": 1856,
  "\u2581outro": 1857,
  "\u2581Per\u00f2": 1858,
  "\u2581kote": 1859,
  "\u2581Aaron": 1860,
  "X": 1861,
  "tionem": 1862,
  "\u2581travay": 1863,
  "\u2581havia": 1864,
  "\u2581\u00eentr": 1865,
  "\u2581altre": 1866,
  "\u2581go": 1867,
  "port": 1868,
  "\u2581hommes": 1869,
  "fici": 1870,
  "\u2581fui": 1871,
  "use": 1872,
  "\u2581Ni": 1873,
  "\u2581ficheros": 1874,
  "\u2581General": 1875,
  "\u2581hasi": 1876,
  "\u2581sotto": 1877,
  "rez": 1878,
  "\u2581mane": 1879,
  "\u2581pral": 1880,
  "\u2581date": 1881,
  "\u2581gens": 1882,
  "\u00e8ncia": 1883,
  "\u2581illa": 1884,
  "mon": 1885,
  "\u2581s\u00eent": 1886,
  "\u2581exp": 1887,
  "\u2581peuvent": 1888,
  "\u2581tuus": 1889,
  "\u2581figli": 1890,
  "\u2581n\u00e9": 1891,
  "\u2581cei": 1892,
  "tou": 1893,
  "\u2581Deum": 1894,
  "\u2581paper": 1895,
  "ino": 1896,
  "\u2581Dac\u0103": 1897,
  "\u2581Abrir": 1898,
  "\u2581has": 1899,
  "\u2581Be": 1900,
  "\u2581bu": 1901,
  "\u2581ese": 1902,
  "\u2581tuam": 1903,
  "\u2581senza": 1904,
  "\u00e5": 1905,
  "\u2581article": 1906,
  "\u2581nostro": 1907,
  "\u2581tudo": 1908,
  "\u2581povo": 1909,
  "\u2581entrada": 1910,
  "\u2581obra": 1911,
  "000": 1912,
  "\u2581vaig": 1913,
  "\u2581personnes": 1914,
  "00": 1915,
  "\u2581cual": 1916,
  "han": 1917,
  "t\u00f3": 1918,
  "\u00e7": 1919,
  "\u2581Domine": 1920,
  "\u2581devant": 1921,
  "pen": 1922,
  "\u2581vle": 1923,
  "\u2581numero": 1924,
  "\u2581t\u0103u": 1925,
  "l\u00e9": 1926,
  "\u2581ore": 1927,
  "\u2581est\u00e3o": 1928,
  "\u2581vu": 1929,
  "\u00b7": 1930,
  "para": 1931,
  "\u2581miembros": 1932,
  "\u00e3": 1933,
  "dit": 1934,
  "\u2581Mostra": 1935,
  ">>mwl<<": 1936,
  "\u00e7on": 1937,
  "\u2581anexo": 1938,
  "\u2581fichiers": 1939,
  "\u2581Iesus": 1940,
  "\u2581vue": 1941,
  "this": 1942,
  "teurs": 1943,
  "\u2581peste": 1944,
  "\u2581diebus": 1945,
  "\u2581carpeta": 1946,
  "\u2581chose": 1947,
  "int": 1948,
  "gne": 1949,
  "sion": 1950,
  "\u2581Reglamento": 1951,
  "ros": 1952,
  "\u2581syst\u00e8me": 1953,
  "p\u00e9": 1954,
  "s\u00e3o": 1955,
  "\u2581p\u00e1gina": 1956,
  "\u2581formato": 1957,
  "\u2581anno": 1958,
  "\u2581mediante": 1959,
  "v\u0103": 1960,
  "\u2581primeiro": 1961,
  "tru": 1962,
  "\u2581regem": 1963,
  "\u2581filios": 1964,
  "bla": 1965,
  "\u2581putea": 1966,
  "ru": 1967,
  "\u2581cours": 1968,
  "\u2581voir": 1969,
  "uda": 1970,
  "\u2581\u00e9taient": 1971,
  "\u2581CPU": 1972,
  "\u2581eux": 1973,
  "\u2581depuis": 1974,
  "\u2581As\u00ed": 1975,
  "\u2581primer": 1976,
  "tal": 1977,
  "Z": 1978,
  "\u2581manus": 1979,
  "\u2581D\u00e9u": 1980,
  "\u2581seguir": 1981,
  "\u2581sor": 1982,
  "\u2581sal": 1983,
  "\u2581mim": 1984,
  "pu": 1985,
  "\u2581Uni\u00e3o": 1986,
  "\u2581\u00c8": 1987,
  "eaz\u0103": 1988,
  "\u00e1rio": 1989,
  "\u2581cerca": 1990,
  "\u2581clic": 1991,
  "\u2581D\u00e9": 1992,
  "\u0103m": 1993,
  "\u2581parole": 1994,
  "\u2581siempre": 1995,
  "\u2581fora": 1996,
  "\u2581>": 1997,
  "\u2581aveva": 1998,
  "\u2581im": 1999,
  "\u2581Gen": 2000,
  "\u2581fins": 2001,
  "\u2581ille": 2002,
  "\u2581servidor": 2003,
  "\u2581ara": 2004,
  "\u2581ban": 2005,
  "can": 2006,
  "\u2581Ou": 2007,
  "\u2581miniaplicaci\u00f3n": 2008,
  "bili": 2009,
  "\u2581monte": 2010,
  "nie": 2011,
  "\u2581vel": 2012,
  "\u2581diz": 2013,
  "ji": 2014,
  "\u00f1o": 2015,
  "\u2581jou": 2016,
  "non": 2017,
  "\u2581*": 2018,
  "\u2581verbum": 2019,
  "\u2581bisa": 2020,
  "\u2581jamais": 2021,
  "\u2581Europeia": 2022,
  "aedje": 2023,
  "tele": 2024,
  "area": 2025,
  "\u2581gloria": 2026,
  "\u2581ori": 2027,
  "\u2581dat": 2028,
  "\u2581tutte": 2029,
  "6": 2030,
  "\u2581femme": 2031,
  "\u2581k\u00e8k": 2032,
  "\u2581Se\u00f1or": 2033,
  "Se": 2034,
  "\u2581donne": 2035,
  "ler": 2036,
  "ction": 2037,
  "\u2581av\u00e8k": 2038,
  "\u2581tecl\u00e1u": 2039,
  "vant": 2040,
  "\u2581nuevo": 2041,
  "\u2581usuario": 2042,
  "\u2581fuit": 2043,
  "\u2581lle": 2044,
  "\u2581beaucoup": 2045,
  "\u2581gra": 2046,
  "p\u0103": 2047,
  "\u2581100": 2048,
  "\u2581nueva": 2049,
  "\u2581importa": 2050,
  "\u2581Gra": 2051,
  "\u2581rien": 2052,
  "\u2581peu": 2053,
  "\u2581apre": 2054,
  "gio": 2055,
  "\u2581decir": 2056,
  "\u2581Error": 2057,
  "\u2581lis": 2058,
  "\u2581abrir": 2059,
  "\u2581Sr": 2060,
  "\u2581gr\u00e1fico": 2061,
  "ab": 2062,
  "\u2581are": 2063,
  "cle": 2064,
  "\u2581corre": 2065,
  "EN": 2066,
  "Re": 2067,
  "\u2581Paul": 2068,
  "\u2581epi": 2069,
  "uta": 2070,
  "\u2581a\u00f1o": 2071,
  "l\u00e8": 2072,
  "n\u00e9": 2073,
  "+": 2074,
  "ed": 2075,
  "\u2581nivel": 2076,
  "\u2581'%": 2077,
  "\u2581Son": 2078,
  "\u2581Era": 2079,
  "ghe": 2080,
  "iti": 2081,
  "\u2581rete": 2082,
  "van": 2083,
  "cent": 2084,
  "\u2581\u201e": 2085,
  "stro": 2086,
  "lui": 2087,
  "\u2581configuraci\u00f3n": 2088,
  "\u2581pla": 2089,
  "ano": 2090,
  "\u2581lieu": 2091,
  "\u00e9n": 2092,
  "nis": 2093,
  "\u2581paragraphe": 2094,
  "\u2581rede": 2095,
  "\u2581sector": 2096,
  "Por": 2097,
  "nze": 2098,
  "\u2581disco": 2099,
  "\u2581donn\u00e9es": 2100,
  "Isra\u00ebl": 2101,
  "\u2581pueden": 2102,
  "\u2581Cuando": 2103,
  "\u2581UE": 2104,
  "\u2581projet": 2105,
  "\u2581doar": 2106,
  "eau": 2107,
  "sso": 2108,
  "\u2581bai": 2109,
  "\u2581panel": 2110,
  "\u2581Sono": 2111,
  "\u2581Tout": 2112,
  "rlo": 2113,
  "tz": 2114,
  "ves": 2115,
  "r\u00e8": 2116,
  "\u2581\u00f3": 2117,
  "\u2581seja": 2118,
  "hui": 2119,
  "Unione": 2120,
  "\u2581droit": 2121,
  "\u2581Mu": 2122,
  "\u2581sino": 2123,
  "\u2581Regulamento": 2124,
  "homme": 2125,
  "\u2581illius": 2126,
  "jan": 2127,
  "\u2581pone": 2128,
  "\u2581Hu": 2129,
  "\u2581arma": 2130,
  "\u2581cer": 2131,
  "\u2581Pode": 2132,
  "syon": 2133,
  "\u2581esa": 2134,
  "\u2581ahora": 2135,
  "\u2581nostri": 2136,
  "\u2581prendre": 2137,
  "\u2581prova": 2138,
  "\u2581leva": 2139,
  "\u258150": 2140,
  "\u2581esset": 2141,
  "\u2581abs": 2142,
  "\u2581relativa": 2143,
  "\u2581comp": 2144,
  "\u2581pantalla": 2145,
  "\u2581permet": 2146,
  "\u2581multi": 2147,
  "\u2581Nos": 2148,
  "\u2581domo": 2149,
  "\u2581nol": 2150,
  "\u2581ga": 2151,
  "tina": 2152,
  "ndum": 2153,
  "ku": 2154,
  "\u2581Tot": 2155,
  "\u2581materia": 2156,
  "\u2581Ei": 2157,
  "\u2581nelle": 2158,
  "\u2581sais": 2159,
  "\u2581vesti": 2160,
  "\u2581Ju": 2161,
  "\u2581recursos": 2162,
  "mer": 2163,
  "ple": 2164,
  "\u2581populum": 2165,
  "\u2581male": 2166,
  "\u2581min": 2167,
  "\u2581Ge": 2168,
  "\u2581schede": 2169,
  "\u2581ira": 2170,
  "remos": 2171,
  "mas": 2172,
  "\u2581Ka": 2173,
  "\u2581CD": 2174,
  "\u2581qualquer": 2175,
  "\u2581finestra": 2176,
  "\u2581cri": 2177,
  "\u2581ventana": 2178,
  "\u2581pul": 2179,
  "si\u00f3n": 2180,
  "don": 2181,
  "up": 2182,
  "\u2581poco": 2183,
  "\u2581Hai": 2184,
  "cci\u00f3n": 2185,
  "\u2581visita": 2186,
  "\u2581R\u00e9": 2187,
  "\u2581important": 2188,
  "\u2581haya": 2189,
  "\u2581acc": 2190,
  "ament": 2191,
  "\u2581nosotros": 2192,
  "\u25813,": 2193,
  "iens": 2194,
  "\u00e2l": 2195,
  "\u2581teclas": 2196,
  "\u2581nouveau": 2197,
  "\u2581meo": 2198,
  "\u2581trata": 2199,
  "\u2581moins": 2200,
  "\u2581quoi": 2201,
  "ig": 2202,
  "\u2581sorte": 2203,
  "quam": 2204,
  "cido": 2205,
  "\u2581tecla": 2206,
  "\u2581lavi": 2207,
  "\u2581comment": 2208,
  "ps": 2209,
  "\u2581Tipo": 2210,
  "rica": 2211,
  "\u2581s\u00f3n": 2212,
  "\u2581kde": 2213,
  "ES": 2214,
  "\u2581espera": 2215,
  "\u2581kretyen": 2216,
  "\u2581libre": 2217,
  "\u2581t\u00e9": 2218,
  "\u2581milia": 2219,
  "\u2581Go": 2220,
  "\u2581menu": 2221,
  "\u2581paese": 2222,
  "\u2581fini": 2223,
  "\u2581mer": 2224,
  "\u2581distribuci\u00f3n": 2225,
  "\u2581cent": 2226,
  "\u2581ch": 2227,
  "\u2581processo": 2228,
  "\u2581dje": 2229,
  "\u2581omnem": 2230,
  "eur": 2231,
  "\u2581ficheiros": 2232,
  "tico": 2233,
  "\u2581treball": 2234,
  "\u2581Satan": 2235,
  "zar": 2236,
  "\u2581URL": 2237,
  "20": 2238,
  "\u2581#": 2239,
  "\u2581juste": 2240,
  "\u2581Dji": 2241,
  "lite": 2242,
  "\u2581quelle": 2243,
  "\u2581jours": 2244,
  "met": 2245,
  "\u2581Jesus": 2246,
  "\u2581timp": 2247,
  "\u2581mesures": 2248,
  "ges": 2249,
  "\u2581imagen": 2250,
  "\u2581hace": 2251,
  "\u2581Gu": 2252,
  "\u2581falta": 2253,
  "\u2581sabe": 2254,
  "\u2581mil": 2255,
  "\u2581alors": 2256,
  "\u2581d\u00e9veloppement": 2257,
  "\u2581secondo": 2258,
  "\u2581carta": 2259,
  "\u2581poss\u00edvel": 2260,
  "\u2581LA": 2261,
  "\u2581fonte": 2262,
  "gere": 2263,
  "\u2581crear": 2264,
  "\u2581Um": 2265,
  "\u2581cambia": 2266,
  "\u2581memoria": 2267,
  "\u2581acest": 2268,
  "J": 2269,
  "\u2581aver": 2270,
  "\u2581quibus": 2271,
  "pan": 2272,
  "val": 2273,
  "\u2581europeo": 2274,
  "\u2581plis": 2275,
  "ete": 2276,
  "\u2581real": 2277,
  "\u2581trois": 2278,
  "rit": 2279,
  "mul": 2280,
  "dar": 2281,
  "Union": 2282,
  "a\u0163i": 2283,
  "\u2581Pu": 2284,
  "\u2581grand": 2285,
  "\u2581avea": 2286,
  "\u2581possible": 2287,
  "aria": 2288,
  "\u2581acolo": 2289,
  "\u2581voca": 2290,
  "tique": 2291,
  "cca": 2292,
  "\u2581cos": 2293,
  "\u2581igual": 2294,
  "\u2581conforme": 2295,
  "\u2581partes": 2296,
  "=": 2297,
  "\u2581conten": 2298,
  "\u2581filiorum": 2299,
  "\u015fti": 2300,
  "\u2581demande": 2301,
  "\u2581grandes": 2302,
  "\u2581San": 2303,
  "\u2581zi": 2304,
  "\u2581Ad": 2305,
  "\u2581bezwen": 2306,
  "lic": 2307,
  "\u2581spune": 2308,
  "\u2581chaque": 2309,
  "\u2581podemos": 2310,
  "pas": 2311,
  "\u2581Sur": 2312,
  "\u2581dados": 2313,
  "ster": 2314,
  "\u2581c\u00eend": 2315,
  "yo": 2316,
  "\u2581renmen": 2317,
  "\u2581membre": 2318,
  "\u2581maior": 2319,
  "n\u00e7a": 2320,
  "\u2581archivos": 2321,
  "\u2581Ya": 2322,
  "ali": 2323,
  "ju": 2324,
  "\u2581camp": 2325,
  "\u2581normal": 2326,
  "\u2581ficheru": 2327,
  "\u2581tro": 2328,
  "\u2581foto": 2329,
  "lio": 2330,
  "\u2581sujet": 2331,
  "\u2581Bien": 2332,
  "\u2581t\u00e8": 2333,
  "\u2581libera": 2334,
  "\u2581septem": 2335,
  "\u2581nouvelle": 2336,
  "\u25813.": 2337,
  "\u2581populo": 2338,
  "\u2581pessoas": 2339,
  "\u2581grandi": 2340,
  "\u2581futuro": 2341,
  "miento": 2342,
  "\u2581verba": 2343,
  ".2": 2344,
  "\u2581regi": 2345,
  "\u2581t\u00fa": 2346,
  "mpe": 2347,
  "\u2581fecha": 2348,
  "\u2581k\u00e8": 2349,
  "\u2581Z": 2350,
  "\u2581Isto": 2351,
  "nici": 2352,
  "\u2581permite": 2353,
  "\u2581horas": 2354,
  "net": 2355,
  "\u2581fim": 2356,
  "\u00edas": 2357,
  "tione": 2358,
  "\u2581faut": 2359,
  "\u2581filium": 2360,
  "\u2581Mois\u00e9s": 2361,
  "\u2581tomar": 2362,
  "\u2581stesso": 2363,
  "\u2581pr\u00e9sent": 2364,
  "\u2581outra": 2365,
  "\u2581fo": 2366,
  "\u2581fiul": 2367,
  "adas": 2368,
  "\u258140": 2369,
  "igitur": 2370,
  "\u2581Nombre": 2371,
  "\u2581illum": 2372,
  "\u2581effet": 2373,
  "\u2581bas": 2374,
  "\u2581Qu\u00e9": 2375,
  "\u2581cop": 2376,
  "\u25814.": 2377,
  "\u2581stata": 2378,
  "t\u00ed": 2379,
  "\u2581indi": 2380,
  "\u2581fre": 2381,
  "\u2581bot\u00f3n": 2382,
  "\u2581misit": 2383,
  "corre": 2384,
  "\u2581estat": 2385,
  "\u2581cose": 2386,
  "\u2581figure": 2387,
  "\u2581secundum": 2388,
  "\u2581ann": 2389,
  "\u2581personne": 2390,
  "\u2581ejemplo": 2391,
  "8": 2392,
  "\u2581[...]": 2393,
  "\u2581f\u0103r\u0103": 2394,
  "\u2581encontrar": 2395,
  "\u2581agli": 2396,
  "tant": 2397,
  "\u2581hombres": 2398,
  "\u2581sacerdotes": 2399,
  "\u2581Quand": 2400,
  "\u00eet": 2401,
  "\u2581Activar": 2402,
  "\u015fte": 2403,
  "dem": 2404,
  "\u2581t\u00edtulo": 2405,
  "\u2581Reino": 2406,
  "\u2581lors": 2407,
  "ud": 2408,
  "easc\u0103": 2409,
  "\u2581despu\u00e9s": 2410,
  "\u2581vais": 2411,
  "\u2581apartado": 2412,
  "yen": 2413,
  "iro": 2414,
  "\u2581fino": 2415,
  "\u2581Lui": 2416,
  "urs": 2417,
  "\u2581pourquoi": 2418,
  "gni": 2419,
  "\u2581paz": 2420,
  "\u2581egzanp": 2421,
  "\u2581paragrafo": 2422,
  "\u2581v\u00f3s": 2423,
  "\u2581dixerunt": 2424,
  "\u2581nuestro": 2425,
  "nal": 2426,
  "cal": 2427,
  "\u2581apenas": 2428,
  "\u2581dizer": 2429,
  "\u2581vou": 2430,
  "gon": 2431,
  "\u2581hu": 2432,
  "\u2581sesi\u00f3n": 2433,
  "\u2581parece": 2434,
  "\u2581fuerit": 2435,
  "cen": 2436,
  "\u0163ie": 2437,
  "\u2581factum": 2438,
  "\u2581trebui": 2439,
  "\u2581Or": 2440,
  "\u2581se\u00f1or": 2441,
  "ntem": 2442,
  "\u2581p\u00e8re": 2443,
  "\u2581mande": 2444,
  "ct": 2445,
  "jar": 2446,
  "lar": 2447,
  "\u2581Cum": 2448,
  "\u2581ris": 2449,
  "\u2581chiar": 2450,
  "enti": 2451,
  "\u2581document": 2452,
  "\u2581livre": 2453,
  "iamo": 2454,
  "\u2581seront": 2455,
  "\u2581s\u00f3lo": 2456,
  "\u2581droits": 2457,
  "\u2581veux": 2458,
  "fre": 2459,
  "\u2581cause": 2460,
  "vin": 2461,
  "aire": 2462,
  "\u2581oswa": 2463,
  "\u2581est\u00e1s": 2464,
  "vio": 2465,
  "\u2581besoin": 2466,
  "\u2581type": 2467,
  "\u2581dicho": 2468,
  "tores": 2469,
  "\u2581veure": 2470,
  "ias": 2471,
  "\u2581ubi": 2472,
  "\u2581gre": 2473,
  "\u2581coraz\u00f3n": 2474,
  "La": 2475,
  "\u2581cinco": 2476,
  "\u2581Ga": 2477,
  "\u2581r\u0103u": 2478,
  "\u2581tus": 2479,
  "ndre": 2480,
  "\u2581recherche": 2481,
  "\u2581libro": 2482,
  "ches": 2483,
  "\u2581frecuencia": 2484,
  "rti": 2485,
  "rmi": 2486,
  "comp": 2487,
  "\u201d": 2488,
  "\u2581media": 2489,
  "\u2581question": 2490,
  "cide": 2491,
  "\u25812006": 2492,
  "gre": 2493,
  "GenericName": 2494,
  "\u2581Cap": 2495,
  "izaci\u00f3n": 2496,
  "\u2581primo": 2497,
  "erit": 2498,
  "bar": 2499,
  "\u2581Questo": 2500,
  "\u2581paske": 2501,
  "\u2581acerca": 2502,
  "nto": 2503,
  "tiques": 2504,
  "\u2581d\u00e9j\u00e0": 2505,
  "moi": 2506,
  "\u2581pense": 2507,
  "nas": 2508,
  "\u2581citt\u00e0": 2509,
  "\u2581meses": 2510,
  "\u2581Directiva": 2511,
  "\u2581falar": 2512,
  "\u2581to\u0163i": 2513,
  "\u2581poi": 2514,
  "eris": 2515,
  "DE": 2516,
  "\u2581crea": 2517,
  "30": 2518,
  "\u2581deixar": 2519,
  "\u2581fa\u00e7on": 2520,
  "\u2581documento": 2521,
  "\u2581Comp": 2522,
  "\u2581tienen": 2523,
  "11": 2524,
  "\u2581estos": 2525,
  "\u2581\u00c8ske": 2526,
  "\u2581pouvez": 2527,
  "\u2581adora": 2528,
  "\u2581Cette": 2529,
  "\u2581madre": 2530,
  "\u2581donde": 2531,
  "eri": 2532,
  "sh": 2533,
  "\u2581Christ": 2534,
  "\u2581di\u00e1logo": 2535,
  "nne": 2536,
  "ly": 2537,
  "\u2581acordo": 2538,
  "\u2581ama": 2539,
  "rci": 2540,
  "\u2581c\u0153ur": 2541,
  "\u2581tots": 2542,
  "\u2581palabra": 2543,
  "iza": 2544,
  "\u2581Fin": 2545,
  "cula": 2546,
  "\u2581l\u00e1": 2547,
  "ales": 2548,
  "\u2581empresas": 2549,
  "bremba": 2550,
  "\u2581popolo": 2551,
  "nha": 2552,
  "\u2581respondit": 2553,
  "\u2581actividades": 2554,
  "\u2581mete": 2555,
  "\u2581s\u00e9curit\u00e9": 2556,
  "\u2581problemas": 2557,
  "\u2581mala": 2558,
  "\u2581Esto": 2559,
  "\u2581servicios": 2560,
  "\u2581fratres": 2561,
  "Membros": 2562,
  "l\u00e0": 2563,
  "sset": 2564,
  "iste": 2565,
  "\u00e2nd": 2566,
  "ico": 2567,
  "\u2581pati": 2568,
  "elles": 2569,
  "\u2581altres": 2570,
  "\u2581desarrollo": 2571,
  "ctor": 2572,
  "\u2581c\u0103ci": 2573,
  "\u2581gwo": 2574,
  "\u2581tinha": 2575,
  "g\u0103": 2576,
  "r\u00ed": 2577,
  "\u00edn": 2578,
  "rou": 2579,
  "\u2581viene": 2580,
  "bia": 2581,
  "\u2581s\u00faa": 2582,
  "\u25812005": 2583,
  "\u2581tarde": 2584,
  "\u2581can": 2585,
  "\u2581chez": 2586,
  "\u2581modifica": 2587,
  "\u2581mode": 2588,
  "ll": 2589,
  "\u2581intra": 2590,
  "\u00bb,": 2591,
  "\u2581Impossibile": 2592,
  "\u2581tenir": 2593,
  "\u2581mapa": 2594,
  "\u2581sentido": 2595,
  "\u2581Vista": 2596,
  "hu": 2597,
  "\u2581pie": 2598,
  "\u2581orden": 2599,
  "\u2581t\u00e8t": 2600,
  "tine": 2601,
  "\u2581Ara": 2602,
  "\u2581unus": 2603,
  "ori": 2604,
  "\u2581men\u00fa": 2605,
  "\u2581\u00faltima": 2606,
  "\u2581europ\u00e9en": 2607,
  "\u2581fam\u00edlia": 2608,
  "iam": 2609,
  "\u2581Moab": 2610,
  "\u2581unum": 2611,
  "\u2581quelque": 2612,
  "id": 2613,
  "\u2581tamb\u00e9": 2614,
  "\u2581Aegypti": 2615,
  "\u2581\u00eenaintea": 2616,
  "\u2581pouco": 2617,
  "\u2581continua": 2618,
  "\u2581foarte": 2619,
  "\u2581Sol": 2620,
  "hel": 2621,
  "\u2581porte": 2622,
  "\u2581proposta": 2623,
  "uto": 2624,
  "\u2581tempore": 2625,
  "\u2581dias": 2626,
  "\u2581homens": 2627,
  "\u2581cura": 2628,
  "\u2581abbiamo": 2629,
  "\u2581ajuda": 2630,
  "OS": 2631,
  "har": 2632,
  "\u2581Vol": 2633,
  "\u2581alguns": 2634,
  "\u2581fondo": 2635,
  "atur": 2636,
  "\u2581ciudad": 2637,
  "\u2581sang": 2638,
  "pie": 2639,
  "\u2581utilizar": 2640,
  "\u2581programme": 2641,
  "tua": 2642,
  "\u2581sim": 2643,
  "\u2581pensar": 2644,
  "\u2581op": 2645,
  "\u2581Comme": 2646,
  "\u2581nuevas": 2647,
  "\u2581dedit": 2648,
  "\u2581verdade": 2649,
  "\u2581Sou": 2650,
  "\u2581GTK": 2651,
  "\u2581pendant": 2652,
  "\u2581Isus": 2653,
  "\u2581rele": 2654,
  "\u2581quale": 2655,
  "\u2581Gli": 2656,
  "lis": 2657,
  "\u2581nuovo": 2658,
  "tif": 2659,
  "ule": 2660,
  "\u2581Lista": 2661,
  "\u00b0": 2662,
  "\u2581luat": 2663,
  "\u2581CE": 2664,
  "\u2581state": 2665,
  "\u2581Amosar": 2666,
  "\u2581of": 2667,
  "\u2581donn\u00e9": 2668,
  "\u2581noite": 2669,
  "pia": 2670,
  "\u2581cando": 2671,
  "gues": 2672,
  "\u2581coisas": 2673,
  "\u2581programas": 2674,
  "\u2581Fo": 2675,
  "\u2581mor": 2676,
  "\u2581usted": 2677,
  "\u2581dello": 2678,
  "\u2581cidade": 2679,
  "\u00f1e": 2680,
  "\u2581sommes": 2681,
  "ty": 2682,
  "\u2581alto": 2683,
  "\u2581vedere": 2684,
  "\u2581elemento": 2685,
  "etur": 2686,
  "\u0163": 2687,
  "\u2581Mostre": 2688,
  "\u0103rii": 2689,
  "uel": 2690,
  "y\u00e8": 2691,
  "tivi": 2692,
  "sol": 2693,
  "\u2581quos": 2694,
  "\u2581texte": 2695,
  "xo": 2696,
  "Q": 2697,
  "cin": 2698,
  "dy": 2699,
  "\u2581cele": 2700,
  "cra": 2701,
  "\u2581pris": 2702,
  "l\u0103": 2703,
  "\u2581Quel": 2704,
  "\u2581sibi": 2705,
  "emos": 2706,
  "\u2581maintenant": 2707,
  "tic": 2708,
  "\u2581Q": 2709,
  "xit": 2710,
  "\u2581Europea": 2711,
  "spec": 2712,
  "\u2581ur": 2713,
  "\u2581questi": 2714,
  "gres": 2715,
  "\u2581Sunt": 2716,
  "\u2581konsa": 2717,
  "\u2581grave": 2718,
  "\u2581alta": 2719,
  "gado": 2720,
  "usa": 2721,
  "\u2581mucho": 2722,
  "\u2581etiam": 2723,
  "yan": 2724,
  "\u2581perqu\u00e8": 2725,
  "\u2581certains": 2726,
  "50": 2727,
  "ana": 2728,
  "pare": 2729,
  "\u2581premier": 2730,
  "\u2581Pablo": 2731,
  "\u2581pitit": 2732,
  "\u2581embargo": 2733,
  "q": 2734,
  "autre": 2735,
  "\u2581meva": 2736,
  "\u2581kont": 2737,
  "\u2581Alt": 2738,
  "\u2581ci\u00f2": 2739,
  "\u2581famille": 2740,
  "\u00e1vel": 2741,
  "\u2581derecho": 2742,
  "dra": 2743,
  "\u2581luz": 2744,
  "\u2581font": 2745,
  "\u2581Ru": 2746,
  "\u2581Ven": 2747,
  "\u2581idea": 2748,
  "\u2581fuera": 2749,
  "\u2581particular": 2750,
  "\u2581vive": 2751,
  "\u2581primera": 2752,
  "\u2581mester": 2753,
  "ual": 2754,
  "\u25813:": 2755,
  "\u2581Ley": 2756,
  "\u2581crede": 2757,
  "ixe": 2758,
  "\u2581Col": 2759,
  "\u2581pesca": 2760,
  "\u2581casos": 2761,
  "\u2581Biblia": 2762,
  "\u2581voce": 2763,
  "\u25811:": 2764,
  "\u2581depois": 2765,
  "\u2581informazioni": 2766,
  "\u25812004": 2767,
  "\u2581s\u00e8": 2768,
  "\u2581\u00e1rea": 2769,
  "\u2581cul": 2770,
  "\u2581elles": 2771,
  "\u2581Jud\u00e1": 2772,
  "\u2581Abraham": 2773,
  "\u2581000": 2774,
  "stis": 2775,
  "\u2581mejor": 2776,
  "\u2581ultra": 2777,
  "ggi": 2778,
  "TI": 2779,
  "\u2581otras": 2780,
  "\u2581Gi": 2781,
  "\u2581femmes": 2782,
  "\u2581anys": 2783,
  "\u2581observa": 2784,
  "\u2581fond": 2785,
  "\u2581ville": 2786,
  "\u2581mot": 2787,
  "\u2581\u00c9l": 2788,
  "num": 2789,
  "\u2581palabras": 2790,
  "\u2581parle": 2791,
  "\u2581adversu": 2792,
  "\u2581cur": 2793,
  "\u2581dintre": 2794,
  "\u2581Mes": 2795,
  "\u2581trei": 2796,
  "\u2581Res": 2797,
  "nga": 2798,
  "\u2581vrai": 2799,
  "\u2581met": 2800,
  "\u2581fine": 2801,
  "\u2581vraiment": 2802,
  "\u2581tunc": 2803,
  "\u2581quali": 2804,
  "git": 2805,
  "\u2581faciem": 2806,
  "\u2581certo": 2807,
  "\u2581realmente": 2808,
  "\u2581ali": 2809,
  "\u00fas": 2810,
  "zer": 2811,
  "\u2581trop": 2812,
  "nel": 2813,
  "\u2581cine": 2814,
  "\u2581mani\u00e8re": 2815,
  "\u2581funci\u00f3n": 2816,
  "\u25812003": 2817,
  "\u2581Tratado": 2818,
  "one": 2819,
  "AR": 2820,
  "gri": 2821,
  "\u2581representa": 2822,
  "\\.": 2823,
  "\u2581Mai": 2824,
  "\u2581bri": 2825,
  "\u2581poli": 2826,
  "\u2581aceea": 2827,
  "0": 2828,
  "\u2581Pla": 2829,
  "\u2581The": 2830,
  "yon": 2831,
  "\u2581exemplo": 2832,
  "\u2581seg\u00fan": 2833,
  "\u2581nimic": 2834,
  "\u2581quinque": 2835,
  "\u2581Europeu": 2836,
  "\u2581e\u015fti": 2837,
  "\u2581coisa": 2838,
  "\u2581\u00eempotriva": 2839,
  "vas": 2840,
  "\u2581nuestra": 2841,
  "\u2581Ko": 2842,
  "\u2581p\u00e9": 2843,
  "\u2581cualquier": 2844,
  "\u2581populi": 2845,
  "\u2581facer": 2846,
  "\u2581matar": 2847,
  "\u2581quien": 2848,
  "\u2581potest": 2849,
  "\u2581mente": 2850,
  "\u2581vosotros": 2851,
  "\u2581dati": 2852,
  "elor": 2853,
  "\u2581Alors": 2854,
  "\u2581torna": 2855,
  "\u2581dona": 2856,
  "\u2581Ber": 2857,
  "9": 2858,
  "\u2581M\u0103": 2859,
  "\u2581Ces": 2860,
  "\u2581Iacob": 2861,
  "\u2581manda": 2862,
  "\u2581esti": 2863,
  "\u2581possono": 2864,
  "xer": 2865,
  "\u2581main": 2866,
  "\u2581trouver": 2867,
  "\u2581sacerdote": 2868,
  "cis": 2869,
  "\u2581situation": 2870,
  "\u2581z": 2871,
  "\u25812:": 2872,
  "c\u00ed": 2873,
  "\u2581stra": 2874,
  "\u2581nacional": 2875,
  "\u0163e": 2876,
  "\u2581petit": 2877,
  "erat": 2878,
  "rait": 2879,
  "\u25812008": 2880,
  "\u2581tr\u00eas": 2881,
  "\u2581posso": 2882,
  "\u2581transport": 2883,
  "\u2581Oui": 2884,
  "\u2581Allora": 2885,
  "dul": 2886,
  "\u2581Uni\u00f3n": 2887,
  "uni": 2888,
  "\u2581Voc\u00ea": 2889,
  "\u2581fosse": 2890,
  "\u2581mentre": 2891,
  "\u2581bonne": 2892,
  "Si": 2893,
  "\u2581mille": 2894,
  "\u2581proyeutu": 2895,
  "\u2581Bi": 2896,
  "ER": 2897,
  "\u2581polo": 2898,
  "gos": 2899,
  "feri": 2900,
  "\u2581sos": 2901,
  "\u2581Asta": 2902,
  "\u2581prepara": 2903,
  "dam": 2904,
  "\u2581doivent": 2905,
  "\u2581\u00faltimo": 2906,
  "\u2581presenta": 2907,
  "\u2581Sta": 2908,
  "\u0163ia": 2909,
  "\u2581precisa": 2910,
  "\u2581forme": 2911,
  "\u2581corde": 2912,
  "\u2581stati": 2913,
  "\u2581numa": 2914,
  "wo": 2915,
  "\u2581estamos": 2916,
  "\u2581dado": 2917,
  "\u2581Bine": 2918,
  "\u2581\u00eei": 2919,
  "lie": 2920,
  "\u2581politique": 2921,
  "\u2581Seleccione": 2922,
  "mit": 2923,
  "\u2581lingua": 2924,
  "\u00f4": 2925,
  "\u2581barcon": 2926,
  "\u2581c\u00f3mo": 2927,
  "\u2581sangue": 2928,
  "\u2581imaxe": 2929,
  "\u2581patri": 2930,
  "gem": 2931,
  "\u2581mois": 2932,
  "\u021bia": 2933,
  "Pa": 2934,
  "ica": 2935,
  "dad": 2936,
  "\u2581illud": 2937,
  "cina": 2938,
  "\u2581mayor": 2939,
  "iques": 2940,
  "\u2581santi": 2941,
  "remo": 2942,
  "\u2581prove": 2943,
  "\u2581Inter": 2944,
  "ase": 2945,
  "ima": 2946,
  "d\u00ed": 2947,
  "\u2581melhor": 2948,
  "\u2581planta": 2949,
  "\u2581cadre": 2950,
  "\u2581dico": 2951,
  "cere": 2952,
  "tivos": 2953,
  "at\u0103": 2954,
  "nica": 2955,
  "\u2581org": 2956,
  "\u2581av": 2957,
  "\u2581genera": 2958,
  "sione": 2959,
  "\u2581conspectu": 2960,
  "\u2581toujou": 2961,
  "\u2581loco": 2962,
  "\u2581tastiere": 2963,
  "\u2581\u00eates": 2964,
  "mbre": 2965,
  "\u2581altro": 2966,
  "\u2581Vamos": 2967,
  "\u2581posible": 2968,
  "dica": 2969,
  "\u2581Ges\u00f9": 2970,
  "\u2581hizo": 2971,
  "\u2581estou": 2972,
  "\u2581teus": 2973,
  "\u2581Internet": 2974,
  "\u2581posto": 2975,
  "ben": 2976,
  "\u2581concernant": 2977,
  "colo": 2978,
  "d\u00f3": 2979,
  "\u2581predeterminado": 2980,
  "\u2581caracteres": 2981,
  "vam": 2982,
  "In": 2983,
  "\u2581dor": 2984,
  "\u2581reste": 2985,
  "\u2581ia": 2986,
  "\u25812002": 2987,
  "\u2581Ac": 2988,
  "\u2581Moses": 2989,
  "\u2581or": 2990,
  "\u2581public": 2991,
  "\u2581pra": 2992,
  "\u2581premi\u00e8re": 2993,
  "\u2581persone": 2994,
  "v\u00e8": 2995,
  "\u2581illo": 2996,
  "\u2581facere": 2997,
  "org": 2998,
  "\u2581peccato": 2999,
  "\u2581venir": 3000,
  "gia": 3001,
  "\u2581outras": 3002,
  "\u2581Lu": 3003,
  "\u2581Todos": 3004,
  "onec": 3005,
  "\u2581Bar": 3006,
  "itas": 3007,
  "\u2581diferentes": 3008,
  "\u2581sentir": 3009,
  "tionis": 3010,
  "\u25814,": 3011,
  "\u2581tip": 3012,
  "Es": 3013,
  "\u2581resta": 3014,
  "\u2581spe": 3015,
  "\u2581voz": 3016,
  "\u2581faz": 3017,
  "action": 3018,
  "\u2581llista": 3019,
  "\u2581mati\u00e8re": 3020,
  "\u2581seul": 3021,
  "\u2581chr\u00e9tiens": 3022,
  "\u2581cred": 3023,
  "\u2581aplica": 3024,
  "\u2581volume": 3025,
  "isation": 3026,
  "\u2581haber": 3027,
  "\u2581omne": 3028,
  "\u2581ha\u00f1a": 3029,
  "\u2581tradi": 3030,
  "tamente": 3031,
  "\u2581alguna": 3032,
  "curtadorie": 3033,
  "\u2581centro": 3034,
  "\u021bie": 3035,
  "AL": 3036,
  "iva": 3037,
  "fec": 3038,
  "\u2581poden": 3039,
  "\u2581quatre": 3040,
  "\u2581fan": 3041,
  "bul": 3042,
  "ude": 3043,
  "\u2581Ie": 3044,
  "\u2581activa": 3045,
  "\u2581tuae": 3046,
  "\u2581ret": 3047,
  "\u2581Tribunal": 3048,
  "\u2581uomini": 3049,
  "\u2581iso": 3050,
  "\u2581tipograf\u00eda": 3051,
  "\u2581Pentru": 3052,
  "\u2581devem": 3053,
  "\u25812000": 3054,
  "\u2581exi": 3055,
  "\u2581junto": 3056,
  "\u2581hominis": 3057,
  "\u25812010": 3058,
  "eta": 3059,
  "\u2581directive": 3060,
  "stan": 3061,
  "ium": 3062,
  "\u2581tempu": 3063,
  "cola": 3064,
  "\u2581bis": 3065,
  "\u2581Hesus": 3066,
  "ique": 3067,
  "\u2581erano": 3068,
  "\u2581inicial": 3069,
  "\u2581Bu": 3070,
  "if": 3071,
  "\u2581resto": 3072,
  "rios": 3073,
  "\u2581custodi": 3074,
  "\u2581editor": 3075,
  "\u2581tard": 3076,
  "\u2581fr\u00e8": 3077,
  "\u2581raison": 3078,
  "\u2581coa": 3079,
  "\u2581inde": 3080,
  "gro": 3081,
  "\u2581parler": 3082,
  "e\u015fti": 3083,
  "\u2581Editar": 3084,
  "lha": 3085,
  "\u2581ref": 3086,
  "\u2581Seigneur": 3087,
  "\u2581deben": 3088,
  "19": 3089,
  "\u2581d\u00e9cision": 3090,
  "40": 3091,
  "\u2581vale": 3092,
  "\u2581iniciar": 3093,
  "aide": 3094,
  "\u2581vino": 3095,
  "\u2581P\u00f2l": 3096,
  "\u2581acci\u00f3n": 3097,
  "mint": 3098,
  "\u2581aceasta": 3099,
  "\u2581aki": 3100,
  "inter": 3101,
  "\u2581pasa": 3102,
  "\u2581Kon": 3103,
  "\u00fbt": 3104,
  "\u2581seguinte": 3105,
  "b\u00ed": 3106,
  "\u2581Ela": 3107,
  "\u2581off": 3108,
  "\u2581selezion\u00e2t": 3109,
  "\u2581enviar": 3110,
  "\u2581ning\u00fan": 3111,
  "\u2581proyecto": 3112,
  "\u00e8re": 3113,
  "\u2581mateix": 3114,
  "\u2581egli": 3115,
  "\u2581f\u00e8t": 3116,
  "AN": 3117,
  "\u2581procura": 3118,
  "ifica": 3119,
  "01": 3120,
  "\u2581conclu": 3121,
  "\u2581seis": 3122,
  "\u2581tornar": 3123,
  "\u2581Est": 3124,
  "iza\u00e7\u00e3o": 3125,
  "izar": 3126,
  "\u2581\u00fanico": 3127,
  "En": 3128,
  "\u2581tuis": 3129,
  "\u2581home": 3130,
  "qu": 3131,
  "gle": 3132,
  "gin": 3133,
  "\u2581circa": 3134,
  "\u2581xa": 3135,
  "\u258132": 3136,
  "\u2581v\u0103zut": 3137,
  "\u2581k\u00f2m": 3138,
  "cto": 3139,
  "ance": 3140,
  "\u2581ent\u00e3o": 3141,
  "\u2581Sub": 3142,
  "\u2581\u00c7a": 3143,
  "\u2581pri": 3144,
  "\u2581principio": 3145,
  "\u2581Salomon": 3146,
  "\u2581queste": 3147,
  "\u2581ponto": 3148,
  "pol": 3149,
  "\u2581programma": 3150,
  "\u2581produtos": 3151,
  "\u2581page": 3152,
  "\u2581transi": 3153,
  "\u2581march\u00e9": 3154,
  "\u2581duas": 3155,
  "\u25812009": 3156,
  "\u2581peux": 3157,
  "\u2581queda": 3158,
  "\u2581tele": 3159,
  "esprit": 3160,
  "\u00eds": 3161,
  "\u2581informations": 3162,
  "\u25812007": 3163,
  "\u2581fel": 3164,
  "pud": 3165,
  "\u2581corpo": 3166,
  "\u2581Ze": 3167,
  "bes": 3168,
  "paper": 3169,
  "pou": 3170,
  "\u2581neste": 3171,
  "\u2581frente": 3172,
  "\u2581niveau": 3173,
  "amo": 3174,
  "\u2581c\u00f3digo": 3175,
  "image": 3176,
  "pul": 3177,
  "\u2581move": 3178,
  "tiu": 3179,
  "ion": 3180,
  "shi": 3181,
  "\u2581papelera": 3182,
  "\u2581uh": 3183,
  "ade": 3184,
  "\u2581veces": 3185,
  "\u2581deste": 3186,
  "\u2581USB": 3187,
  "san": 3188,
  "ard": 3189,
  "\u2581spun": 3190,
  "Stencil": 3191,
  "\u2581pur": 3192,
  "\u2581acesta": 3193,
  "\u2581Aquest": 3194,
  "\u2581siete": 3195,
  "\u2581Pot": 3196,
  "\u2581magna": 3197,
  "b\u00e9": 3198,
  "\u2581ren": 3199,
  "\u2581Ten": 3200,
  "\u2581verso": 3201,
  "\u2581oameni": 3202,
  "ren": 3203,
  "\u2581lucru": 3204,
  "nder": 3205,
  "\u2581quella": 3206,
  "\u2581hopi": 3207,
  "dre": 3208,
  "\u2581nom\u00e9s": 3209,
  "\u2581om": 3210,
  "\u2581manum": 3211,
  "\u2581dormi": 3212,
  "\u2581poder\u00e1": 3213,
  "\u2581guarda": 3214,
  "\u2581m\u00e1ximo": 3215,
  "\u2581predeterminada": 3216,
  "lho": 3217,
  "mbi": 3218,
  "\u2581autoridades": 3219,
  "\u2581f\u00e9": 3220,
  "\u2581Israele": 3221,
  "\u2581action": 3222,
  "\u2581kite": 3223,
  "\u2581material": 3224,
  "\u2581fut": 3225,
  "ON": 3226,
  "nio": 3227,
  "lement": 3228,
  "\u2581bida": 3229,
  "\u2581aprann": 3230,
  "bie": 3231,
  "lan": 3232,
  "\u2581Iesu": 3233,
  "\u2581comandos": 3234,
  "\u2581rece": 3235,
  "\u2581sto": 3236,
  "aci\u00f3": 3237,
  "\u2581viam": 3238,
  "\u2581Daniel": 3239,
  "\u2581Vier\u00e7": 3240,
  "\u2581fr\u00e8res": 3241,
  "\u2581etc": 3242,
  "\u2581sept": 3243,
  "\u2581meio": 3244,
  "\u2581internacional": 3245,
  "iz": 3246,
  "\u2581erunt": 3247,
  "\u2581DVD": 3248,
  "\u2581accord": 3249,
  "\u2581viginti": 3250,
  "\u2581mani": 3251,
  "sur": 3252,
  "\u2581Wa": 3253,
  "n\u00e9e": 3254,
  "\u2581risorse": 3255,
  "\u2581cadena": 3256,
  "\u2581proprio": 3257,
  "\u00e1s": 3258,
  "\u2581entonces": 3259,
  "mba": 3260,
  "entre": 3261,
  "\u2581seguridad": 3262,
  "\u2581normas": 3263,
  "\u2581persones": 3264,
  "\u2581disso": 3265,
  "mica": 3266,
  "\u2581groupe": 3267,
  "\u2581consulta": 3268,
  "\u2581relativo": 3269,
  "\u2581mujer": 3270,
  "ius": 3271,
  "\u2581\u00e9crit": 3272,
  "\u2581durant": 3273,
  "\u2581senti": 3274,
  "\u2581cau": 3275,
  "\u2581hacia": 3276,
  "\u2581privind": 3277,
  "cchi": 3278,
  "\u2581fun": 3279,
  "\u2581Fe": 3280,
  "\u2581Ia": 3281,
  "\u2581loc": 3282,
  "\u2581vom": 3283,
  "\u2581terminal": 3284,
  "ute": 3285,
  "\u2581multa": 3286,
  "\u2581sense": 3287,
  "\u2581fueron": 3288,
  "iendo": 3289,
  "mentu": 3290,
  "\u2581cunctis": 3291,
  "\u2581iar": 3292,
  "\u2581humanos": 3293,
  "\u2581pap": 3294,
  "\u2581relaci\u00f3n": 3295,
  "\u2581duna": 3296,
  "\u2581Ctrl": 3297,
  "uomo": 3298,
  "ries": 3299,
  "\u2581pregunta": 3300,
  "\u2581som": 3301,
  "\u2581ansanm": 3302,
  "\u2581medida": 3303,
  "\u2581revela": 3304,
  "i\u0163i": 3305,
  "prop": 3306,
  "\u2581contr\u00f4le": 3307,
  "\u2581produits": 3308,
  "ggio": 3309,
  "\u2581\u00eel": 3310,
  "\u2581manifesta": 3311,
  "\u2581pater": 3312,
  "\u2581B\u00edblia": 3313,
  "\u2581sai": 3314,
  "\u2581service": 3315,
  "\u2581pelos": 3316,
  "\u2581erro": 3317,
  "sal": 3318,
  "ice": 3319,
  "\u2581sci": 3320,
  "\u2581quais": 3321,
  "\u00e9r\u00e9": 3322,
  "\u2581vestra": 3323,
  "\u2581pais": 3324,
  "\u2581Aix\u00f2": 3325,
  "\u2581diciendo": 3326,
  "\u2581nosso": 3327,
  "\u2581malum": 3328,
  "ive": 3329,
  "\u2581dif\u00edcil": 3330,
  "\u2581Vai": 3331,
  "zu": 3332,
  "\u2581Configuraci\u00f3n": 3333,
  "quer": 3334,
  "\u2581valores": 3335,
  "\u2581siguientes": 3336,
  "\u2581donna": 3337,
  "\u2581sob": 3338,
  "\u2581mesma": 3339,
  "rons": 3340,
  "\u2581km": 3341,
  "\u2581marca": 3342,
  "12": 3343,
  "\u2581\u00fanica": 3344,
  "r\u00f3": 3345,
  "\u2581s\u00fbr": 3346,
  "\u2581arquivo": 3347,
  "\u2581ipsi": 3348,
  "\u2581condiciones": 3349,
  "zzo": 3350,
  "\u2581tali": 3351,
  "\u2581concerne": 3352,
  "\u2581ceea": 3353,
  "\u2581Sam": 3354,
  "\u2581tien": 3355,
  "\u00e2n": 3356,
  "nant": 3357,
  "\u2581prea": 3358,
  "\u2581mondo": 3359,
  "\u2581c\u00f4t\u00e9": 3360,
  "\u2581rep": 3361,
  "\u2581\u0163i": 3362,
  "\u2581ajudar": 3363,
  "\u2581presta": 3364,
  "\u2581Cha": 3365,
  "\u2581bou": 3366,
  "\u2581lloc": 3367,
  "tim": 3368,
  "\u2581ligne": 3369,
  "\u2581\u2019.": 3370,
  "\u2581prend": 3371,
  "\u2581=": 3372,
  "\u2581peyi": 3373,
  "\u2581determina": 3374,
  "\u2581papel": 3375,
  "\u2581vertical": 3376,
  "\u2581F\u00e1brica": 3377,
  "\u2581kontinye": 3378,
  "\u2581entrar": 3379,
  "\u2581dou\u0103": 3380,
  "\u2581informa": 3381,
  "plica": 3382,
  "\u2581mou": 3383,
  "\u2581mod": 3384,
  "\u2581derechos": 3385,
  "\u2581varia": 3386,
  "\u2581quomodo": 3387,
  "\u258160": 3388,
  "cessi": 3389,
  "\u2581firma": 3390,
  "\u2581Autor": 3391,
  "\u2581carte": 3392,
  "ide": 3393,
  "uit": 3394,
  "anno": 3395,
  "\u2581versi\u00f3n": 3396,
  "nzi": 3397,
  "\u2581prodotti": 3398,
  "\u2581Tambi\u00e9n": 3399,
  "\u2581respecto": 3400,
  "\u2581Qual": 3401,
  "\u2581Sud": 3402,
  "\u2581Plan": 3403,
  "\u2581Uma": 3404,
  "\u2581aujourd": 3405,
  "\u2581autor": 3406,
  "\u2581Control": 3407,
  "\u2581\u00eentre": 3408,
  "\u00e9ra": 3409,
  "\u2581fuori": 3410,
  "ker": 3411,
  "ccia": 3412,
  "\u2581boca": 3413,
  "nea": 3414,
  "\u2581dura": 3415,
  "cro": 3416,
  "\u2581message": 3417,
  "\u2581yeux": 3418,
  "sco": 3419,
  "rico": 3420,
  "\u2581fez": 3421,
  "\u2581giorni": 3422,
  "15": 3423,
  "\u2581dicentes": 3424,
  "nc": 3425,
  "\u2581totes": 3426,
  "\u2581\u00eenc\u0103": 3427,
  "\u021bii": 3428,
  "\u2581ficar": 3429,
  "\u2581imposta": 3430,
  "\u2581seria": 3431,
  "IT": 3432,
  "\u2581cielo": 3433,
  "\u2581paesi": 3434,
  "dro": 3435,
  "\u2581sull": 3436,
  "\u2581B\u00e9": 3437,
  "\u2581capital": 3438,
  "sen": 3439,
  "eron": 3440,
  "\u2581deserto": 3441,
  "toria": 3442,
  "\u2581questions": 3443,
  "Con": 3444,
  "\u2581ambiente": 3445,
  "\u2581reino": 3446,
  "\u25812011": 3447,
  "\u2581primeira": 3448,
  "\u2581Voi": 3449,
  "entur": 3450,
  "\u2581\u00e7": 3451,
  "aba": 3452,
  "?\"": 3453,
  "fin": 3454,
  "\u2581tota": 3455,
  "\u2581facie": 3456,
  "\u2581paix": 3457,
  "\u2581loi": 3458,
  "\u2581services": 3459,
  "serv": 3460,
  "\u2581ko": 3461,
  "\u2581savoir": 3462,
  "\u2581suos": 3463,
  "\u2581Mor": 3464,
  "+.": 3465,
  "t\u00f2": 3466,
  "\u2581vamos": 3467,
  "\u2581amen": 3468,
  "mbo": 3469,
  "\u2581cha": 3470,
  "\u2581pan": 3471,
  "idos": 3472,
  "ntium": 3473,
  "\u2581\u015ftiu": 3474,
  "\u2581dossier": 3475,
  "\u2581adhesivas": 3476,
  "pit": 3477,
  "\u2581Fer": 3478,
  "\u2581nevoie": 3479,
  "\u2581car\u00e1cter": 3480,
  "\u2581senhor": 3481,
  "\u2581notamment": 3482,
  "\u2581deja": 3483,
  "\u2581At": 3484,
  "cens": 3485,
  "\u2581text": 3486,
  "fra": 3487,
  "Ha": 3488,
  "\u2581usado": 3489,
  "\u2581resultados": 3490,
  "\u2581giu": 3491,
  "Di": 3492,
  "\u2581turba": 3493,
  "ines": 3494,
  "prime": 3495,
  "\u2581ser\u00e1n": 3496,
  "\u2581kontan": 3497,
  "\u2581Cosa": 3498,
  "\u2581mettre": 3499,
  "\u2581zice": 3500,
  "\u2581disc": 3501,
  "\u2581diem": 3502,
  "\u2581opus": 3503,
  "\u2581ane": 3504,
  "ggia": 3505,
  "\u2581duo": 3506,
  "\u2581politica": 3507,
  "\u2581ipsum": 3508,
  "\u2581Stato": 3509,
  "\u2581janela": 3510,
  "\u2581astfel": 3511,
  "\u2581regulamento": 3512,
  "\u2581cartele": 3513,
  "\u2581atunci": 3514,
  "\u2581unui": 3515,
  "\u2581pic": 3516,
  "\u2581Crea": 3517,
  "\u2581limita": 3518,
  "\u2581avaient": 3519,
  "\u2581d\u00e9faut": 3520,
  "\u2581rog": 3521,
  "\u2581Royaume": 3522,
  "\u2581Trebuie": 3523,
  "\u2581aceste": 3524,
  "\u2581duce": 3525,
  "\u2581Ab": 3526,
  "\u2581estis": 3527,
  "\u2581usando": 3528,
  "\u2581cambiar": 3529,
  "cida": 3530,
  "\u2581mulier": 3531,
  "\u2581Sion": 3532,
  "\u2581mesa": 3533,
  "\u2581informa\u00e7\u00f5es": 3534,
  "\u25815.": 3535,
  "\u2581\u0153uvre": 3536,
  "\u2581quelques": 3537,
  "\u2581ziua": 3538,
  "\u2581Apre": 3539,
  "\u2581Assim": 3540,
  "\u2581dispositivo": 3541,
  "\u2581monta": 3542,
  "\u2581charge": 3543,
  "\u2581n\u00edvel": 3544,
  "\u2581afecta": 3545,
  "quis": 3546,
  "\u2581Sei": 3547,
  "\u2581sede": 3548,
  "\u2581ple": 3549,
  "cci": 3550,
  "\u2581delante": 3551,
  "\u2581Dan": 3552,
  "c\u00f3": 3553,
  "\u25811998": 3554,
  "\u2581rem": 3555,
  "\u2581p\u00een\u0103": 3556,
  "\u2581session": 3557,
  "\u2581Zi": 3558,
  "n\u0163\u0103": 3559,
  "\u2581acceso": 3560,
  "mia": 3561,
  "\u2581evitar": 3562,
  "\u2581templo": 3563,
  "\u2581classe": 3564,
  "titui": 3565,
  "rri": 3566,
  "\u2581deles": 3567,
  "\u2581obras": 3568,
  "\u25814:": 3569,
  "MA": 3570,
  "\u2581propos": 3571,
  "\u2581seulement": 3572,
  "\u2581disponibles": 3573,
  "\u2581aide": 3574,
  "\u2581ann\u00e9es": 3575,
  "\u2581ten\u00eda": 3576,
  "\u2581plusieurs": 3577,
  "\u2581EUR": 3578,
  "\u2581vede": 3579,
  "\u2581fen\u00eatre": 3580,
  "\u2581dun": 3581,
  "ciu": 3582,
  "\u2581Nota": 3583,
  "\u2581aix\u00ed": 3584,
  "\u2581parla": 3585,
  "\u2581Kris": 3586,
  "cco": 3587,
  "uer": 3588,
  "\u25810,": 3589,
  "dura": 3590,
  "\u2581Web": 3591,
  "\u2581indu": 3592,
  "\u2581altare": 3593,
  "ese": 3594,
  "ants": 3595,
  "\u2581Ger": 3596,
  "\u2581verdad": 3597,
  "\u2581fiecare": 3598,
  "\u2581suae": 3599,
  "\u2581Afficher": 3600,
  "tia": 3601,
  "\u00edvel": 3602,
  "mur": 3603,
  "\u2581possa": 3604,
  "\u25812012": 3605,
  "Al": 3606,
  "ena": 3607,
  "\u2581bal": 3608,
  "\u2581ero": 3609,
  "\u2581nomine": 3610,
  "\u2581all\u00ed": 3611,
  "\u2581Yon": 3612,
  "ar\u0103": 3613,
  "\u2581Tro": 3614,
  "\u2581ekri": 3615,
  "vel": 3616,
  "\u2581pos\u00edbel": 3617,
  "\u2581mercato": 3618,
  "\u2581esist": 3619,
  "\u2581adhuc": 3620,
  "\u2581hem": 3621,
  "\u2581pace": 3622,
  "\u2581sola": 3623,
  "\u2581venerunt": 3624,
  "\u00eddo": 3625,
  "\u2581relat\u00f3rio": 3626,
  "\u2581barre": 3627,
  "\u2581noche": 3628,
  "\u2581simul": 3629,
  "\u2581Foi": 3630,
  "\u2581titre": 3631,
  "UL": 3632,
  "\u0103ri": 3633,
  "\u2581plazo": 3634,
  "\u2581Can": 3635,
  "\u2581Catalunya": 3636,
  "\u2581at": 3637,
  "cam": 3638,
  "z\u0103": 3639,
  "):": 3640,
  "IN": 3641,
  "\u2581temos": 3642,
  "disabled": 3643,
  "uti": 3644,
  "\u25816.": 3645,
  "let": 3646,
  "\u2581aplica\u00e7\u00e3o": 3647,
  "\u2581Maria": 3648,
  "\u2581servo": 3649,
  "\u258133": 3650,
  "ntibus": 3651,
  "\u2581vocem": 3652,
  "\u2581For": 3653,
  "ngul": 3654,
  "\u2581congrega": 3655,
  "\u2581habet": 3656,
  "\u2581exercituum": 3657,
  "\u2581periodo": 3658,
  "cente": 3659,
  "\u2581algunos": 3660,
  "\u2581tabatin": 3661,
  "\u2581favore": 3662,
  "for": 3663,
  "\u2581s\u0103u": 3664,
  "\u2581sigur": 3665,
  "\u0163\u0103": 3666,
  "n\u00e9s": 3667,
  "\u2581gas": 3668,
  "\u2581v\u00e9rit\u00e9": 3669,
  "urilor": 3670,
  "\u25811999": 3671,
  "\u2581valeur": 3672,
  "\u2581Unidas": 3673,
  "\u2581termos": 3674,
  "\u2581particolare": 3675,
  "dade": 3676,
  "\u2581colle": 3677,
  "\u2581clama": 3678,
  "\u2581\u00bb,": 3679,
  "\u2581sulle": 3680,
  "\u2581kongregasyon": 3681,
  "\u2581deixa": 3682,
  "\u2581S\u00f3": 3683,
  "\u2581mesure": 3684,
  "\u2581invita": 3685,
  "\u2581site": 3686,
  "\u2581m\u00e3o": 3687,
  "\u2581Comunit\u00e0": 3688,
  "\u2581vigor": 3689,
  "rme": 3690,
  "\u2581Artigo": 3691,
  "\u2581desta": 3692,
  "\u2581inferior": 3693,
  "moni": 3694,
  "\u2581sociale": 3695,
  "\u2581tribus": 3696,
  "\u2581tenho": 3697,
  "\u2581esco": 3698,
  "\u2581correo": 3699,
  "\u2581mezzo": 3700,
  "\u2581norma": 3701,
  "\u2581\u00e5": 3702,
  "\u2581passar": 3703,
  "Mo": 3704,
  "vent": 3705,
  "80": 3706,
  "\u2581tenta": 3707,
  "\u2581pista": 3708,
  "tit": 3709,
  "ghi": 3710,
  "eze": 3711,
  "\u2581fru": 3712,
  "\u2581supra": 3713,
  "Ma": 3714,
  "\u2581bar": 3715,
  "\u2581quelli": 3716,
  "\u2581bun": 3717,
  "\u2581t\u00eam": 3718,
  "\u00e1rios": 3719,
  "\u2581decem": 3720,
  "\u2581meta": 3721,
  "\u2581*.": 3722,
  "\u2581paga": 3723,
  "\u2581mg": 3724,
  "\u0219i": 3725,
  "zio": 3726,
  "\u2581universa": 3727,
  "\u2581siamo": 3728,
  "\u2581termin\u00e2l": 3729,
  "tam": 3730,
  "\u2581scheda": 3731,
  "\u2581podr\u00e1": 3732,
  "\u2581caeli": 3733,
  "buntur": 3734,
  "\u2581aplicar": 3735,
  "\u2581Quitar": 3736,
  "\u2581Bon": 3737,
  "\u00eend": 3738,
  "\u2581quelqu": 3739,
  "\u2581Llei": 3740,
  "\u258190": 3741,
  "\u2581scri": 3742,
  "\u2581nove": 3743,
  "\u25812001": 3744,
  "\u2581pouvoir": 3745,
  "\u2581publica": 3746,
  "zan": 3747,
  "\u2581teme": 3748,
  "ore": 3749,
  "\u2581asina": 3750,
  "\u2581a\u00f1a": 3751,
  ");": 3752,
  "\u2581Editor": 3753,
  "\u2581puis": 3754,
  "\u2581quadro": 3755,
  "stri": 3756,
  "\u2581transporte": 3757,
  "\u2581multe": 3758,
  "\u2581relative": 3759,
  "CI": 3760,
  "\u2581Pou": 3761,
  "\u0163a": 3762,
  "\u2581eram": 3763,
  "bel": 3764,
  "\u2581ricerca": 3765,
  "rre": 3766,
  "El": 3767,
  "\u2581qualcosa": 3768,
  "25": 3769,
  "\u2581disque": 3770,
  "TA": 3771,
  "\u2581descend": 3772,
  "\u2581direito": 3773,
  "\u2581Configurar": 3774,
  "nez": 3775,
  "\u2581fugi": 3776,
  "\u2581gestion": 3777,
  "n\u0163a": 3778,
  "\u2581fixa": 3779,
  "lec": 3780,
  "\u2581Wi": 3781,
  "rul": 3782,
  "\u2581global": 3783,
  "\u2581pass\u00e9": 3784,
  "\u2581direttiva": 3785,
  "cti": 3786,
  "\u2581za": 3787,
  "\u2581perfil": 3788,
  "\u2581fitxer": 3789,
  "\u2581conserva": 3790,
  "pes": 3791,
  "\u2581proceso": 3792,
  "\u2581interior": 3793,
  "\u2581COM": 3794,
  "\u2581cho": 3795,
  "\u2581flu": 3796,
  "13": 3797,
  "\u2581hodie": 3798,
  "\u2581quindi": 3799,
  "\u2581sisteme": 3800,
  "\u0219": 3801,
  "\u2581caminho": 3802,
  "\u2581cargar": 3803,
  "idat": 3804,
  "\u2581gar": 3805,
  "ava": 3806,
  "\u2581iam": 3807,
  "\u2581konprann": 3808,
  "\u2581pecado": 3809,
  "\u2581dalle": 3810,
  "\u2581seleccionado": 3811,
  "\u2581pen": 3812,
  "\u2581fanmi": 3813,
  "\u2581+": 3814,
  "\u2581fais": 3815,
  "iser": 3816,
  "verti": 3817,
  "istas": 3818,
  "\u2581central": 3819,
  "yer": 3820,
  "\u2581nisi": 3821,
  "\u2581natural": 3822,
  "ivo": 3823,
  "\u2581dato": 3824,
  "\u2581quattuor": 3825,
  "\u2581panse": 3826,
  "antes": 3827,
  "ley": 3828,
  "\u2581M\u00e9": 3829,
  "asyon": 3830,
  "\u2581tuoi": 3831,
  "\u2581Luc": 3832,
  "\u2581casi": 3833,
  "\u2581trova": 3834,
  "\u2581m\u00e8re": 3835,
  "\u2581servicio": 3836,
  "\u2581qualit\u00e9": 3837,
  "bas": 3838,
  "v\u00ed": 3839,
  "\u2581toat\u0103": 3840,
  "ting": 3841,
  "\u2581avut": 3842,
  "ID": 3843,
  "uso": 3844,
  "\u2581caelo": 3845,
  "lice": 3846,
  "\u2581tens": 3847,
  "ene": 3848,
  "\u2581gi\u00e0": 3849,
  "\u2581faciam": 3850,
  "tare": 3851,
  "\u2581mat\u00e9ria": 3852,
  "\u00f9": 3853,
  "b\u0103": 3854,
  "\u2581John": 3855,
  "\u2581Indique": 3856,
  "\u2581lespri": 3857,
  "\u2581clar": 3858,
  "\u2581long": 3859,
  "\u2581nihil": 3860,
  "\u2581sex": 3861,
  "\u2581etiqueta": 3862,
  "lica": 3863,
  "\u2581Meu": 3864,
  "\u2581diante": 3865,
  "dire": 3866,
  "\u2581tene": 3867,
  "\u2581fai": 3868,
  "an\u00e7a": 3869,
  "torio": 3870,
  "\u2581mie": 3871,
  "\u2581resultado": 3872,
  "\u2581vostre": 3873,
  "\u2581nocte": 3874,
  "cce": 3875,
  "av": 3876,
  "\u2581interno": 3877,
  "cura": 3878,
  "\u2581porro": 3879,
  "mbra": 3880,
  "\u2581testa": 3881,
  "\u2581Agora": 3882,
  "\u2581muchos": 3883,
  "\u2581lanmou": 3884,
  "\u25815,": 3885,
  "\u2581livello": 3886,
  "\u2581Comunidade": 3887,
  "\u2581macro": 3888,
  "\u2581spre": 3889,
  "IS": 3890,
  "\u2581difficile": 3891,
  "\u2581caput": 3892,
  "\u2581pr\u00e9sente": 3893,
  "ono": 3894,
  "\u2581Tormenta": 3895,
  "\u25815:": 3896,
  "ures": 3897,
  "hen": 3898,
  "\u2581propheta": 3899,
  "\u2581terme": 3900,
  "\u2581nostre": 3901,
  "var": 3902,
  "\u2581sortir": 3903,
  "\u2581paw\u00f2l": 3904,
  "tter": 3905,
  "\u2581rico": 3906,
  "\u2581cam": 3907,
  "\u2581conto": 3908,
  "\u2581termini": 3909,
  "\u2581\u0163ara": 3910,
  "\u2581Baal": 3911,
  "gut": 3912,
  "\u2581radio": 3913,
  "\u2581S\u00e9": 3914,
  "\u2581seleccionada": 3915,
  "\u2581ignora": 3916,
  "\u2581alma": 3917,
  "wi": 3918,
  "\u2581\u00eenainte": 3919,
  "\u2581p\u00fablico": 3920,
  "isme": 3921,
  "Non": 3922,
  "\u2581productos": 3923,
  "\u2581l\u00ednea": 3924,
  "\u2581Ser": 3925,
  "\u2581misma": 3926,
  "\u2581legal": 3927,
  "\u2581grupos": 3928,
  "\u2581youn": 3929,
  "avi": 3930,
  "\u2581III": 3931,
  "\u2581Entre": 3932,
  "\u2581Cam": 3933,
  "\u2581vivo": 3934,
  "\u2581Barra": 3935,
  "\u2581situaci\u00f3n": 3936,
  "accord": 3937,
  "lles": 3938,
  "\u2581anual": 3939,
  "\u2581animam": 3940,
  "\u2581tutta": 3941,
  "l\u00e1": 3942,
  "voir": 3943,
  "mb": 3944,
  "\u2581trav\u00e9s": 3945,
  "\u2581venu": 3946,
  "\u2581ami": 3947,
  "rar": 3948,
  "\u2581altar": 3949,
  "\u2581andare": 3950,
  "\u2581cambio": 3951,
  "\u2581r\u0103spuns": 3952,
  "\u2581format": 3953,
  "\u2581feito": 3954,
  "\u2581misure": 3955,
  "\u2581hoy": 3956,
  "\u2581Quan": 3957,
  "itate": 3958,
  "\u2581piu": 3959,
  "\u2581miei": 3960,
  "vu": 3961,
  "\u2581bona": 3962,
  "\u2581trait\u00e9": 3963,
  "rne": 3964,
  "\u2581davanti": 3965,
  "\u2581semper": 3966,
  "\u2581tastiera": 3967,
  "\u2581Tar": 3968,
  "\u2581%2": 3969,
  "\u2581morto": 3970,
  "glio": 3971,
  "\u2581fitch\u00ee": 3972,
  "\u2581orice": 3973,
  "\u2581contigo": 3974,
  "ss\u00e9": 3975,
  "gas": 3976,
  "\u2581explica": 3977,
  "\u2581reserva": 3978,
  "\u2581ap\u00f3s": 3979,
  "\u2581Har": 3980,
  "enta": 3981,
  "mbe": 3982,
  "\u2581euro": 3983,
  "esta": 3984,
  "\u2581Abi": 3985,
  "\u2581estima": 3986,
  "\u2581respect": 3987,
  "\u2581bajo": 3988,
  "cou": 3989,
  "\u2581capi": 3990,
  "\u2581gentes": 3991,
  "\u2581ell": 3992,
  "\u2581Deci": 3993,
  "forma": 3994,
  "\u2581decisione": 3995,
  "\u2581filia": 3996,
  "thi": 3997,
  "stia": 3998,
  "isse": 3999,
  "\u2581guerre": 4000,
  "\u2581serait": 4001,
  "bro": 4002,
  "\u2581tuas": 4003,
  "\u2581Jan": 4004,
  "\u2581reco": 4005,
  "\u2581ser\u00e3o": 4006,
  "\u2581civitatem": 4007,
  "\u2581marco": 4008,
  "\u2581objeto": 4009,
  "aires": 4010,
  "\u2581bases": 4011,
  "\u2581Mo\u00efse": 4012,
  "atge": 4013,
  "\u2581condu": 4014,
  "\u25812013": 4015,
  "tez": 4016,
  "\u2581inveni": 4017,
  "\u2581Parlement": 4018,
  "\u2581arriba": 4019,
  "\u2581Din": 4020,
  "\u2581tempus": 4021,
  "rete": 4022,
  "\u2581esca": 4023,
  "\u2581mulher": 4024,
  "\u2581\u00eemp": 4025,
  "\u2581imple": 4026,
  "\u00eaye": 4027,
  "\u2581lorsque": 4028,
  "\u2581Han": 4029,
  "\u2581concentra": 4030,
  "\u2581principi": 4031,
  "\u2581tour": 4032,
  "bal": 4033,
  "\u2581hermanos": 4034,
  "\u2581Cine": 4035,
  "\u2581Programa": 4036,
  "\u2581p\u00fablica": 4037,
  "\u2581muestra": 4038,
  "!``": 4039,
  "verit": 4040,
  "\u2581devrait": 4041,
  "\u2581soy": 4042,
  "\u2581Tri": 4043,
  "\u2581Quelle": 4044,
  "\u2581jur": 4045,
  "\u2581labor": 4046,
  "\u2581comant": 4047,
  "lus": 4048,
  "\u2581facta": 4049,
  "\u2581Estou": 4050,
  "\u2581celle": 4051,
  "\u2581mi\u00f1a": 4052,
  "\u2581resposta": 4053,
  "\u2581fit": 4054,
  "\u2581sc": 4055,
  "\u2581unei": 4056,
  "\u00f3s": 4057,
  "\u2581compris": 4058,
  "\u2581p\u00e2n\u0103": 4059,
  "\u2581figura": 4060,
  "\u00e1ria": 4061,
  "\u2581sup": 4062,
  "\u2581\u00cemi": 4063,
  "\u2581allo": 4064,
  "char": 4065,
  "line": 4066,
  "\u2581avere": 4067,
  "\u2581membro": 4068,
  "\u2581ambula": 4069,
  "\u2581doce": 4070,
  "\u2581Davi": 4071,
  "\u258135": 4072,
  "\u2581sala": 4073,
  "ien": 4074,
  "\u2581situa": 4075,
  "illa": 4076,
  "\u2581quero": 4077,
  "ndu": 4078,
  "\u2581cartes": 4079,
  "\u2581Bas": 4080,
  "cier": 4081,
  "ks": 4082,
  "\u2581agua": 4083,
  "\u2581spa": 4084,
  "retur": 4085,
  "\u2581Ah": 4086,
  "c\u00e7\u00e3o": 4087,
  "\u2581Mal": 4088,
  "\u2581aumento": 4089,
  "\u2581ser\u00e0": 4090,
  "\u2581p\u00e9riode": 4091,
  "vole": 4092,
  "\u2581test": 4093,
  "AS": 4094,
  "\u2581av\u00e8": 4095,
  "\u2581Mira": 4096,
  "\u2581atra": 4097,
  "\u2581paroles": 4098,
  "amour": 4099,
  "\u2581Questa": 4100,
  "ions": 4101,
  "\u2581Fu": 4102,
  "\u2581automaticamente": 4103,
  "\u2581soli": 4104,
  "ores": 4105,
  "oc": 4106,
  "vra": 4107,
  "\u2581t\u00e3o": 4108,
  "\u2581C\u0103ci": 4109,
  "ob": 4110,
  "\u2581Opciones": 4111,
  "\u2581nuit": 4112,
  "\u2581administra": 4113,
  "ffer": 4114,
  "\u25816:": 4115,
  "by": 4116,
  "\u2581foc": 4117,
  "\u2581inte": 4118,
  "tivas": 4119,
  "\u2581recon": 4120,
  "\u2581iudica": 4121,
  "\u2581busca": 4122,
  "al\u0103": 4123,
  "este": 4124,
  "\u2581tambe": 4125,
  "\u2581sanctifica": 4126,
  "pun": 4127,
  "rro": 4128,
  "\u2581seguran\u00e7a": 4129,
  "bilidade": 4130,
  "almente": 4131,
  "Mi": 4132,
  "\u2581Grupo": 4133,
  "\u2581arca": 4134,
  "\u2581pl": 4135,
  "\u2581Ed": 4136,
  "\u2581char": 4137,
  "\u2581coma": 4138,
  "\u2581possibile": 4139,
  "ssem": 4140,
  "\u2581Communaut\u00e9": 4141,
  "\u2581civil": 4142,
  "\u2581defaut": 4143,
  "\u2581vo": 4144,
  "\u2581monn": 4145,
  "\u2581sistemas": 4146,
  "hor": 4147,
  ">": 4148,
  "anti": 4149,
  "\u2581illos": 4150,
  "\u2581congr\u00e9gation": 4151,
  "dici": 4152,
  "\u2581occhi": 4153,
  "any": 4154,
  "\u2581hablar": 4155,
  "\u2581mieux": 4156,
  "\u2581centum": 4157,
  "\u2581novembre": 4158,
  "\u2581N\u00famero": 4159,
  "\u2581Naciones": 4160,
  "\u2581st\u00ee": 4161,
  "\u2581dizendo": 4162,
  "amus": 4163,
  "\u2581resoluci\u00f3n": 4164,
  "\u2581bio": 4165,
  "pin": 4166,
  "flu": 4167,
  "gor": 4168,
  "\u2581grado": 4169,
  "\u2581primi": 4170,
  "\u2581suficiente": 4171,
  "\u2581prime": 4172,
  "\u2581est\u00e9": 4173,
  "altra": 4174,
  "\u2581mover": 4175,
  "\u2581pote": 4176,
  "\u2581testo": 4177,
  "\u2581bun\u0103": 4178,
  "ctus": 4179,
  "\u2581Perch\u00e9": 4180,
  "\u2581presentar": 4181,
  "\u2581por\u00e9m": 4182,
  "\u2581arre": 4183,
  "\u2581grup": 4184,
  "\u2581pres": 4185,
  "\u25817.": 4186,
  "\u2581hanc": 4187,
  "cip": 4188,
  "\u2581conditions": 4189,
  "\u2581completo": 4190,
  "\u2581serie": 4191,
  "rer": 4192,
  "\u2581espiritual": 4193,
  "\u2581misericordia": 4194,
  "\u2581quas": 4195,
  "\u2581dix": 4196,
  "\u2581pr\u00eat": 4197,
  "\u2581diciembre": 4198,
  "\u2581Voici": 4199,
  "\u2581J\u00e9rusalem": 4200,
  "\u2581instal": 4201,
  "ula": 4202,
  "\u2581gusta": 4203,
  "\u2581seguro": 4204,
  "\u2581deber\u00eda": 4205,
  "\u2581justice": 4206,
  "\u2581aider": 4207,
  "\u2581utiliser": 4208,
  "\u2581nuestros": 4209,
  "\u2581rec": 4210,
  "\u2581necesario": 4211,
  "\u2581escrito": 4212,
  "h\u00e9": 4213,
  "\u2581linha": 4214,
  "fon": 4215,
  "\u2581volte": 4216,
  "\u2581attivit\u00e0": 4217,
  "imus": 4218,
  "rim": 4219,
  "\u2581anba": 4220,
  "7": 4221,
  "ic": 4222,
  "\u2581negli": 4223,
  "\u2581puta": 4224,
  "\u2581activit\u00e9s": 4225,
  "\u2581legge": 4226,
  "\u2581vegada": 4227,
  "\u2581Atunci": 4228,
  "\u2581import": 4229,
  "\u2581Carga": 4230,
  "lhes": 4231,
  "\u2581donner": 4232,
  "\u2581Ajouter": 4233,
  "tec": 4234,
  "\u2581continuar": 4235,
  "\u2581sviluppo": 4236,
  "\u2581Oficial": 4237,
  "\u2581podr\u00eda": 4238,
  "ebat": 4239,
  "\u2581sap": 4240,
  "\u2581sof": 4241,
  "\u2581limite": 4242,
  "\u2581despr\u00e9s": 4243,
  "bon": 4244,
  "\u2581simple": 4245,
  "dita": 4246,
  "\u2581gal": 4247,
  "\u2581Type": 4248,
  "culo": 4249,
  "\u2581profeta": 4250,
  "rd": 4251,
  "Ar": 4252,
  "tae": 4253,
  "vie": 4254,
  "aj": 4255,
  "rat": 4256,
  "\u2581Asa": 4257,
  "\u2581necesita": 4258,
  "\u2581necess\u00e1rio": 4259,
  "\u2581Davide": 4260,
  "\u2581cabeza": 4261,
  "Te": 4262,
  "trice": 4263,
  "\u2581claus": 4264,
  "To": 4265,
  "\u2581importantes": 4266,
  "\u2581fala": 4267,
  "\u2581cuius": 4268,
  "\u2581peso": 4269,
  "\u2581aucun": 4270,
  "cional": 4271,
  "gens": 4272,
  "\u2581bonum": 4273,
  "\u2581mujeres": 4274,
  "\u2581instru": 4275,
  "\u2581volum": 4276,
  "\u2581pola": 4277,
  "\u2581locum": 4278,
  "\u2581venire": 4279,
  "\u2581g\u00e9n\u00e9ral": 4280,
  "\u2581sete": 4281,
  "\u2581eliminar": 4282,
  "\u2581sine": 4283,
  "\u2581navi": 4284,
  "\u2581ras": 4285,
  "\u2581Jacob": 4286,
  "\u2581oficial": 4287,
  "\u2581Juda": 4288,
  "\u2581fas": 4289,
  "\u2581prix": 4290,
  "\u2581cartella": 4291,
  "\u2581abans": 4292,
  "\u2581plano": 4293,
  "\u2581Rep\u00fablica": 4294,
  "\u2581Cela": 4295,
  "\u2581Monitor": 4296,
  "\u2581sopra": 4297,
  "\u2581Way\u00f2m": 4298,
  "\u2581apare": 4299,
  "\u2581uomo": 4300,
  "\u2581ir\u00e1": 4301,
  "02": 4302,
  "\u2581algun": 4303,
  "\u2581gr\u00e2ce": 4304,
  "\u2581soient": 4305,
  "\u2581estoy": 4306,
  "\u2581animal": 4307,
  "\u2581semana": 4308,
  "\u2581T\u00e9moins": 4309,
  "\u2581Levi": 4310,
  "\u2581dabo": 4311,
  "Fi": 4312,
  "\u2581dela": 4313,
  "\u2581complet": 4314,
  "\u2581completamente": 4315,
  "\u2581millor": 4316,
  "\u2581Galaad": 4317,
  "\u2581Aqu\u00ed": 4318,
  "16": 4319,
  "iros": 4320,
  "\u2581implica": 4321,
  "\u2581for\u00e7a": 4322,
  "\u25818.": 4323,
  "\u2581Valor": 4324,
  "\u2581altura": 4325,
  "cita": 4326,
  "\u2581parmi": 4327,
  "\u2581actividad": 4328,
  "\u2581minutos": 4329,
  "\u2581nossa": 4330,
  "\u2581sicurezza": 4331,
  "rebbe": 4332,
  "\u2581amigo": 4333,
  "\u2581saranno": 4334,
  "\u2581erau": 4335,
  "\u2581contribu": 4336,
  "\u2581clau": 4337,
  "\u2581annis": 4338,
  "\u2581baixo": 4339,
  "\u2581Labib": 4340,
  "90": 4341,
  "sses": 4342,
  "\u2581vezes": 4343,
  "\u2581status": 4344,
  "\u2581pourrait": 4345,
  "\u2581Usa": 4346,
  "fen": 4347,
  "\u2581Ahora": 4348,
  "\u2581altra": 4349,
  "\u2581trouv\u00e9": 4350,
  "\u2581aller": 4351,
  "\u00fb": 4352,
  "\u2581direcci\u00f3n": 4353,
  "\u2581Bueno": 4354,
  "mentos": 4355,
  "her": 4356,
  "\u2581donar": 4357,
  "\u2581copia": 4358,
  "\u2581rap": 4359,
  "\u2581Jean": 4360,
  "parti": 4361,
  "LE": 4362,
  "rile": 4363,
  "\u2581comune": 4364,
  "\u2581realizar": 4365,
  "sca": 4366,
  "fica": 4367,
  "Que": 4368,
  "\u2581voie": 4369,
  "\u2581tipos": 4370,
  "\u2581milieu": 4371,
  "\u2581nuova": 4372,
  "\u2581enp\u00f2tan": 4373,
  "\u2581Contra": 4374,
  "\u2581intro": 4375,
  "asc\u0103": 4376,
  "\u2581spera": 4377,
  "\u2581HTML": 4378,
  "ixo": 4379,
  "\u2581probl\u00e8me": 4380,
  "\u2581regnum": 4381,
  "\u2581tankou": 4382,
  "\u2581Todo": 4383,
  "\u2581vestris": 4384,
  "porte": 4385,
  "ies": 4386,
  "\u2581\u00e9conomique": 4387,
  "ones": 4388,
  "\u2581gu": 4389,
  "\u2581ninguna": 4390,
  "\u2581corazones": 4391,
  "stes": 4392,
  "\u2581pwobl\u00e8m": 4393,
  "\u2581laquelle": 4394,
  "\u00fc": 4395,
  "\u2581parola": 4396,
  "\u2581mortuus": 4397,
  "\u2581volumen": 4398,
  "UN": 4399,
  "\u2581cea": 4400,
  "\u2581Sem": 4401,
  "\u2581op\u00e7\u00e3o": 4402,
  "\u2581palavra": 4403,
  "ell": 4404,
  "the": 4405,
  "\u2581relazione": 4406,
  "\u2581franc\u00e9s": 4407,
  "gou": 4408,
  "\u2581Bal": 4409,
  "\u2581suiv": 4410,
  "\u2581decis\u00e3o": 4411,
  ".3": 4412,
  "\u2581mori": 4413,
  "\u2581pia": 4414,
  "\u2581Mover": 4415,
  "\u2581factus": 4416,
  "m\u00eame": 4417,
  "\u2581kesyon": 4418,
  "\u2581hoje": 4419,
  "\u2581Vos": 4420,
  "DI": 4421,
  "ME": 4422,
  "\u2581sale": 4423,
  "\u2581respeito": 4424,
  "\u2581at\u00e2t": 4425,
  "\u2581interroga": 4426,
  "\u2581vestri": 4427,
  "\u2581tengo": 4428,
  "\u2581lege": 4429,
  "\u2581comer": 4430,
  "uve": 4431,
  "\u2581script": 4432,
  "\u2581espirity\u00e8l": 4433,
  "\u2581oggi": 4434,
  "\u2581regime": 4435,
  "\u2581quidem": 4436,
  "\u2581dec\u00e2t": 4437,
  "az\u0103": 4438,
  "\u2581the": 4439,
  "\u2581v\u00eddeo": 4440,
  "t\u00e9s": 4441,
  "\u2581ch\u00e8che": 4442,
  "\u2581audio": 4443,
  "\u2581Christi": 4444,
  "\u2581disp": 4445,
  "\u2581tuos": 4446,
  "\u2581sermo": 4447,
  "\u2581ojos": 4448,
  "tici": 4449,
  "\u2581selon": 4450,
  "\u2581raz\u00f3n": 4451,
  "\u2581gri": 4452,
  "\u2581inclu": 4453,
  "\u2581magis": 4454,
  "\u2581esei": 4455,
  "chu": 4456,
  "\u00c8": 4457,
  "\u2581Padre": 4458,
  "\u2581n\u00e9cessaire": 4459,
  "\u2581conjunto": 4460,
  "\u2581capo": 4461,
  "\u2581Pues": 4462,
  "\u2581bom": 4463,
  "art": 4464,
  "\u2581gent": 4465,
  "\u2581locui": 4466,
  "\u2581correspondiente": 4467,
  "\u2581GNU": 4468,
  "kon": 4469,
  "\u2581original": 4470,
  "\u2581Barcelona": 4471,
  "\u2581feu": 4472,
  "\u2581coses": 4473,
  "\u2581ep\u00f2k": 4474,
  "\u2581mostre": 4475,
  "\u2581diff": 4476,
  "\u2581protection": 4477,
  "\u2581diferente": 4478,
  "tha": 4479,
  "dic": 4480,
  "\u2581celor": 4481,
  "\u2581Sup": 4482,
  "\u2581camino": 4483,
  "\u2581atrav\u00e9s": 4484,
  "\u2581muerte": 4485,
  "\u2581resulta": 4486,
  "\u2581\u00f2f": 4487,
  "fat": 4488,
  "l\u00ed": 4489,
  "\u2581Samuel": 4490,
  "\u2581\u00c9tat": 4491,
  "culum": 4492,
  "\u2581lhes": 4493,
  "\u2581titul": 4494,
  "\u2581Nel": 4495,
  "\u2581desenvolvimento": 4496,
  "C\u00f3mo": 4497,
  "Co": 4498,
  "\u2581what": 4499,
  "\u2581posizione": 4500,
  "\u2581produc": 4501,
  "\u2581Sepandan": 4502,
  "\u00e1veis": 4503,
  "\u25811992": 4504,
  "avais": 4505,
  "\u2581aedifica": 4506,
  "\u2581passer": 4507,
  "\u2581p\u00e8": 4508,
  "nic": 4509,
  "\u2581esempio": 4510,
  "\u2581pr\u00f3ximo": 4511,
  "pon": 4512,
  "\u2581fase": 4513,
  "\u2581encara": 4514,
  "\u2581Sobre": 4515,
  "\u2581fr\u00e8re": 4516,
  "\u2581pos": 4517,
  "\u25816,": 4518,
  "\u2581director": 4519,
  "\u2581facto": 4520,
  "atis": 4521,
  "\u2581anda": 4522,
  "\u2581unos": 4523,
  "\u2581hii": 4524,
  "\u2581Jeov\u00e1": 4525,
  "terra": 4526,
  "\u2581massa": 4527,
  "\u2581estiver": 4528,
  "\u2581rea": 4529,
  "\u2581whats": 4530,
  "\u2581produit": 4531,
  "\u00e9is": 4532,
  "\u2581buscar": 4533,
  "\u2581Ao": 4534,
  "pat": 4535,
  "\u2581fede": 4536,
  "oth": 4537,
  "\u2581dende": 4538,
  "\u2581eleva": 4539,
  "\u2581Beniamin": 4540,
  "\u2581Pois": 4541,
  "\u2581spiritus": 4542,
  "uerunt": 4543,
  "llar": 4544,
  "\u2581alcuni": 4545,
  "\u2581ves": 4546,
  "\u2581Isaac": 4547,
  "\u2581pon": 4548,
  "dan": 4549,
  "g\u00e1": 4550,
  "\u2581Art\u00edculo": 4551,
  "\u258180": 4552,
  "\u2581aura": 4553,
  "2/": 4554,
  "fil": 4555,
  "14": 4556,
  "\u2581conformidad": 4557,
  "dora": 4558,
  "\u2581apoi": 4559,
  "\u2581canto": 4560,
  "\u2581haver": 4561,
  "\u2581distribu": 4562,
  "eurs": 4563,
  "\u2581unul": 4564,
  "\u2581suite": 4565,
  "ppe": 4566,
  "\u2581t\u00eate": 4567,
  "\u2581Mosen": 4568,
  "\u2581ocupa": 4569,
  "\u2581avis": 4570,
  "vier": 4571,
  "bol": 4572,
  "\u2581logo": 4573,
  "\u2581historia": 4574,
  "\u2581qualsevol": 4575,
  "\u2581Ok": 4576,
  "\u2581yuda": 4577,
  "\u2581defini": 4578,
  "\u2581voy": 4579,
  "\u2581cineva": 4580,
  "\u2581ank\u00f2": 4581,
  "bilit\u00e9": 4582,
  "\u2581culpa": 4583,
  "\u2581alg\u00fan": 4584,
  "\u2581alguma": 4585,
  "\u2581disciples": 4586,
  "eiro": 4587,
  "rna": 4588,
  "\u2581cora\u00e7\u00e3o": 4589,
  "\u2581fili": 4590,
  "\u2581zile": 4591,
  "Me": 4592,
  "\u2581%.1": 4593,
  "RI": 4594,
  "\u2581provoca": 4595,
  "\u2581Bel": 4596,
  "ento": 4597,
  "\u2581tenemos": 4598,
  "\u2581time": 4599,
  "\u2581Dumnezeul": 4600,
  "\u2581miembro": 4601,
  "\u00edan": 4602,
  "ang": 4603,
  "\u2581Catalu\u00f1a": 4604,
  "\u2581multiplica": 4605,
  "\u2581efecto": 4606,
  "bos": 4607,
  "\u2581cosi": 4608,
  "\u2581but": 4609,
  "idas": 4610,
  "\u2581utiliza": 4611,
  "\u2581ayant": 4612,
  "\u2581EN": 4613,
  "\u2581pagina": 4614,
  "\u2581haut": 4615,
  "\u2581Temwen": 4616,
  "24": 4617,
  "\u2581allora": 4618,
  "\u2581jogo": 4619,
  "\u2581sumus": 4620,
  "\u2581Beibel": 4621,
  "\u2581ista": 4622,
  "\u2581alte": 4623,
  "\u2581preso": 4624,
  "\u2581premye": 4625,
  "8/": 4626,
  "nova": 4627,
  "itzaci\u00f3": 4628,
  "\u2581particulier": 4629,
  "\u2581jeunes": 4630,
  "has": 4631,
  "esse": 4632,
  "mple": 4633,
  "21": 4634,
  "\u2581c\u00e2t": 4635,
  "\u2581disponible": 4636,
  "\u2581declara": 4637,
  "\u2581m\u00e3e": 4638,
  "\u2581estaban": 4639,
  "\u2581nulla": 4640,
  "\u2581lecture": 4641,
  "\u2581canal": 4642,
  "\u2581pesta\u00f1a": 4643,
  "\u2581combina": 4644,
  "\u2581esposa": 4645,
  "\u2581mundial": 4646,
  "\u2581viu": 4647,
  "ae": 4648,
  "ara": 4649,
  "\u2581fl": 4650,
  "\u2581pwo": 4651,
  "\u2581servizi": 4652,
  "\u2581cuore": 4653,
  "\u2581Cred": 4654,
  "\u2581prec": 4655,
  "\u2581spiritual": 4656,
  "\u2581fuerte": 4657,
  "\u2581stare": 4658,
  "\u2581essi": 4659,
  "\u2581Tal": 4660,
  "\u2581Hola": 4661,
  "ires": 4662,
  "batur": 4663,
  "\u2581bisogno": 4664,
  "\u2581luogo": 4665,
  "\u2581Articolo": 4666,
  "\u2581medi": 4667,
  "\u2581obliga": 4668,
  "\u2581disip": 4669,
  "pta": 4670,
  "bantur": 4671,
  "\u2581quare": 4672,
  "\u2581spiritu": 4673,
  "\u2581Molt": 4674,
  "\u2581confi": 4675,
  "\u2581bes": 4676,
  "\u2581ni\u015fte": 4677,
  "\u2581hab\u00edan": 4678,
  "17": 4679,
  "\u2581altera": 4680,
  "\u2581ascendit": 4681,
  "18": 4682,
  "\u2581conform\u00e9ment": 4683,
  "\u2581motivo": 4684,
  "\u2581Acum": 4685,
  "\u2581quatro": 4686,
  "form": 4687,
  "\u2581ley": 4688,
  "Lo": 4689,
  "\u2581element": 4690,
  "iones": 4691,
  "\u2581tendo": 4692,
  "tiv": 4693,
  "\u2581pol\u00edticas": 4694,
  "\u2581condi\u00e7\u00f5es": 4695,
  "\u2581teva": 4696,
  "\u2581Ke": 4697,
  "\u2581motor": 4698,
  "ona": 4699,
  "\u2581chave": 4700,
  "\u00ee\u0163i": 4701,
  "\u2581atti": 4702,
  "liga": 4703,
  "\u2581iudicium": 4704,
  "\u2581bat": 4705,
  "\u2581\u00eemp\u0103ratul": 4706,
  "\u2581punt": 4707,
  "\u2581New": 4708,
  "\u2581unidades": 4709,
  "60": 4710,
  "\u2581lucruri": 4711,
  "argent": 4712,
  "\\@": 4713,
  "\u2581dirige": 4714,
  "\u2581tenha": 4715,
  "\u2581ID": 4716,
  "\\": 4717,
  "vre": 4718,
  "\u2581Rei": 4719,
  "\u2581Tre": 4720,
  "\u2581fille": 4721,
  "\u2581tolle": 4722,
  "\u2581devono": 4723,
  "\u2581zone": 4724,
  "\u2581isti": 4725,
  "\u2581insieme": 4726,
  "\u2581importe": 4727,
  "\u2581oh": 4728,
  "\u2581cou": 4729,
  "\u2581siano": 4730,
  "SE": 4731,
  "mens": 4732,
  "supra": 4733,
  "\u2581conversa": 4734,
  "\u2581curs": 4735,
  "\u2581principale": 4736,
  "\u2581rou": 4737,
  "ar\u00e1": 4738,
  "\u2581reproducci\u00f3n": 4739,
  "\u25819.": 4740,
  "\u2581lafwa": 4741,
  "\u2581vostra": 4742,
  "tado": 4743,
  "\u2581pandan": 4744,
  "\u25812014": 4745,
  "gg": 4746,
  "\u00e9tais": 4747,
  "\u2581cazul": 4748,
  "\u2581prom\u00e9": 4749,
  "\u2581sacrificio": 4750,
  "\u2581partida": 4751,
  "\u2581pouvons": 4752,
  "\u2581penso": 4753,
  "\u2581equi": 4754,
  "\u2581botons": 4755,
  "\u2581cierto": 4756,
  "\u2581soci\u00e9t\u00e9": 4757,
  "\u2581posici\u00f3n": 4758,
  "\u2581traitement": 4759,
  "enda": 4760,
  "\u2581Nova": 4761,
  "mico": 4762,
  "\u2581vidi": 4763,
  "\u2581wa": 4764,
  "\u2581letra": 4765,
  "\u2581com\u00fan": 4766,
  "gada": 4767,
  "\u2581Tor": 4768,
  "\u2581documentos": 4769,
  "cono": 4770,
  "amos": 4771,
  "\u2581Ann": 4772,
  "mber": 4773,
  "nier": 4774,
  "\u2581Nunca": 4775,
  "\u2581responsabilidad": 4776,
  "iae": 4777,
  "\u2581ua": 4778,
  "\u2581toma": 4779,
  "\u2581Sara": 4780,
  "\u2581olhos": 4781,
  "\u2581laboral": 4782,
  "\u2581atr\u00e1s": 4783,
  "\u2581DI": 4784,
  "\u2581vil": 4785,
  "\u2581speci": 4786,
  "cidi": 4787,
  "\u258134": 4788,
  "\u2581Ur": 4789,
  "gent": 4790,
  "\u2581serviteurs": 4791,
  "\u2581seule": 4792,
  "\u2581modelo": 4793,
  "\u2581meno": 4794,
  "\u2581Aquesta": 4795,
  "\u2581padres": 4796,
  "\u2581b\u00e8l": 4797,
  "\u2581pr\u00e8s": 4798,
  "\u2581Geova": 4799,
  "\u2581palavras": 4800,
  "\u2581muitos": 4801,
  "\u2581sembra": 4802,
  "turi": 4803,
  "\u2581dispositions": 4804,
  "\u2581Adem\u00e1s": 4805,
  "\u2581baja": 4806,
  "torii": 4807,
  "\u2581fid\u00e8l": 4808,
  "\u2581Mag": 4809,
  "\u2581duodecim": 4810,
  "\u2581directiva": 4811,
  "\u2581kou": 4812,
  "\u2581m\u00ednimo": 4813,
  "\u00cd": 4814,
  "\u2581Auto": 4815,
  "\u2581mata": 4816,
  "\u2581chacun": 4817,
  "RA": 4818,
  "\u2581Ir": 4819,
  "\u2581Hel": 4820,
  "derunt": 4821,
  "mana": 4822,
  "\u2581Informaci\u00f3n": 4823,
  "r\u00ea": 4824,
  "TE": 4825,
  "\u2581segundos": 4826,
  "\u2581consola": 4827,
  "\u2581dem\u00e1s": 4828,
  "\u25811997": 4829,
  "\u2581centre": 4830,
  "avoir": 4831,
  "\u2581komo": 4832,
  "\u2581v\u00e1lido": 4833,
  "\u2581pueda": 4834,
  "app": 4835,
  "\u2581devan": 4836,
  "\u258110.": 4837,
  "eira": 4838,
  "ani": 4839,
  "\u2581consum": 4840,
  "\u2581sy\u00e8l": 4841,
  "\u2581facies": 4842,
  "\u2581criar": 4843,
  "mont": 4844,
  "\u2581genuit": 4845,
  "\u2581Av": 4846,
  "\u2581obter": 4847,
  "\u2581kons\u00e8nan": 4848,
  "\u2581componente": 4849,
  "\u2581pasta": 4850,
  "\u2581puesto": 4851,
  "\u2581humains": 4852,
  "\u2581presidente": 4853,
  "\u2581Cada": 4854,
  "\u2581Suprimir": 4855,
  "\u2581Am\u00e9rica": 4856,
  "\u2581columna": 4857,
  "\u2581eran": 4858,
  "\u2581posizion": 4859,
  "\u2581constitui": 4860,
  "\u2581dixi": 4861,
  "\u2581territorio": 4862,
  "\u2581Isra\u00ebl": 4863,
  "\u0219ti": 4864,
  "Un": 4865,
  "\u2581\u00eemi": 4866,
  "\u2581Ku": 4867,
  "\u2581vrei": 4868,
  "\u2581gruppo": 4869,
  "\u2581servi\u00e7os": 4870,
  "\u2581Test": 4871,
  "porta": 4872,
  "\u2581Ana": 4873,
  "\u2581claro": 4874,
  "\u2581novas": 4875,
  "\u2581contar": 4876,
  "\u2581ciel": 4877,
  "\u2581cuatro": 4878,
  "\u2581Iehova": 4879,
  "ios": 4880,
  "\u2581\u00c1": 4881,
  "\u2581case": 4882,
  "\u2581confirma": 4883,
  "\u2581banda": 4884,
  "nat": 4885,
  "\u2581Ahi": 4886,
  "\u2581marzo": 4887,
  "stin": 4888,
  "9/": 4889,
  "\u2581Nations": 4890,
  "\u2581sant\u00e9": 4891,
  "\u2581p\u00edxeles": 4892,
  "toire": 4893,
  "\u2581Poukisa": 4894,
  "07": 4895,
  "\u2581ran": 4896,
  "\u2581hemos": 4897,
  "\u2581Europeo": 4898,
  "\u2581rende": 4899,
  "\u2581Moise": 4900,
  "\u2581tipus": 4901,
  "ixa": 4902,
  "\u2581condizioni": 4903,
  "\u2581notifica": 4904,
  "\u2581meis": 4905,
  "gono": 4906,
  "\u2581riguarda": 4907,
  "tero": 4908,
  "\u2581chak": 4909,
  "\u2581Eli": 4910,
  "\u2581http": 4911,
  "\u2581mensaxe": 4912,
  "\u2581breve": 4913,
  "\u2581dolor": 4914,
  "\u2581Mac": 4915,
  "\u2581segunda": 4916,
  "\u2581perder": 4917,
  "ecu": 4918,
  "\u2581recurso": 4919,
  "cciones": 4920,
  "lant": 4921,
  "damente": 4922,
  "\u2581janm": 4923,
  "\u2581ul": 4924,
  "izzazione": 4925,
  "RE": 4926,
  "\u2581boa": 4927,
  "\u2581fecerunt": 4928,
  "front": 4929,
  "\u2581sacerdoti": 4930,
  "\u2581liv": 4931,
  "oro": 4932,
  "\u2581Amestar": 4933,
  "\u2581Jerusal\u00e9n": 4934,
  "\u258170": 4935,
  "dri": 4936,
  "vision": 4937,
  "\u2581settore": 4938,
  "\u2581conformidade": 4939,
  "bilidad": 4940,
  "\u2581c\u0103tre": 4941,
  "issent": 4942,
  "\u2581forza": 4943,
  "\u2581subi": 4944,
  "ieron": 4945,
  "\u2581fonction": 4946,
  "\u2581norme": 4947,
  "\u2581cumo": 4948,
  "\u2581Tan": 4949,
  "\u2581paleta": 4950,
  "ella": 4951,
  "Po": 4952,
  "\u2581informa\u00e7\u00e3o": 4953,
  "\u2581refere": 4954,
  "altro": 4955,
  "\u2581App": 4956,
  "\u2581Papa": 4957,
  "\u2581polvo": 4958,
  "\u2581fort": 4959,
  "\u2581fronte": 4960,
  "\u2581praecepit": 4961,
  "\u2581Apr\u00e8s": 4962,
  "\u2581force": 4963,
  "\u2581Sai": 4964,
  "\u2581esp\u00edritu": 4965,
  "application": 4966,
  "\u2581escritorio": 4967,
  "\u2581Cre": 4968,
  "d\u00e1": 4969,
  "\u2581determinar": 4970,
  "\u2581moyen": 4971,
  "care": 4972,
  "\u2581mission": 4973,
  "\u2581Ainsi": 4974,
  "\u258145": 4975,
  "xar": 4976,
  "\u2581volver": 4977,
  "\u2581protecci\u00f3n": 4978,
  "\u2581Erro": 4979,
  "\u2581forse": 4980,
  "\u2581cursor": 4981,
  "\u2581Social": 4982,
  "\u2581Tous": 4983,
  "1/": 4984,
  "\u2581mos": 4985,
  "\u2581special": 4986,
  "\u2581preocupa": 4987,
  "AT": 4988,
  "\u2581cabo": 4989,
  "\u2581cita": 4990,
  "\u2581nostru": 4991,
  "\u2581Aix\u00ed": 4992,
  "\u2581controllo": 4993,
  "rant": 4994,
  "\u2581associa": 4995,
  "\u2581mandato": 4996,
  "pone": 4997,
  "\u2581tama\u00f1o": 4998,
  "\u2581benedic": 4999,
  "\u2581pugna": 5000,
  "\u2581amigos": 5001,
  "\u00f1": 5002,
  "\u2581Supprimer": 5003,
  "\u2581p\u00e1xina": 5004,
  "\u2581Pedro": 5005,
  "\u2581demand\u00e9": 5006,
  "\u2581f\u00e1cil": 5007,
  "\u2581circum": 5008,
  "c\u00e1": 5009,
  "ny": 5010,
  "\u2581sabes": 5011,
  "erant": 5012,
  "\u258137": 5013,
  "ede": 5014,
  "\u2581\u00fatil": 5015,
  "\u2581trobar": 5016,
  "\u2581oferta": 5017,
  "fere": 5018,
  "tencils": 5019,
  "\u2581gr\u00e1ficu": 5020,
  "world": 5021,
  "Je": 5022,
  "tribu": 5023,
  "\u2581Gran": 5024,
  "ense": 5025,
  "\u2581vreau": 5026,
  "\u2581\u00ce": 5027,
  "\u2581proba": 5028,
  "\u2581Debe": 5029,
  "ania": 5030,
  "\u2581pu\u0163in": 5031,
  "\u2581estar\u00e1": 5032,
  "\u2581montagne": 5033,
  "\u2581anvan": 5034,
  "\u2581pagar": 5035,
  "\u2581Sor": 5036,
  "\u2581vostro": 5037,
  "\u2581identifica": 5038,
  "\u2581vari": 5039,
  "\u2581S\u00ec": 5040,
  "\u2581rezon": 5041,
  "\u2581position": 5042,
  "\u2581devo": 5043,
  "Pro": 5044,
  "\u2581bira": 5045,
  "taque": 5046,
  "\u2581veut": 5047,
  "\u2581tooltip": 5048,
  "\u2581termine": 5049,
  "\u2581SA": 5050,
  "tibus": 5051,
  "\u2581fontes": 5052,
  "\u2581Gar": 5053,
  "\u2581arriva": 5054,
  "\u2581d\u00e9sir": 5055,
  "ashon": 5056,
  "\u2581(1": 5057,
  "ans": 5058,
  "\u2581mama": 5059,
  "\u2581fac\u0103": 5060,
  "\u2581utile": 5061,
  "\u2581dic": 5062,
  "\u00ee\u015fi": 5063,
  "\u2581sp": 5064,
  "\u2581Bet": 5065,
  "\u2581efectos": 5066,
  "cut": 5067,
  "t\u00f3rio": 5068,
  "\u2581comunica": 5069,
  "\u2581patru": 5070,
  "\u2581ni\u00f1os": 5071,
  "\u2581espe": 5072,
  "\u00e8t": 5073,
  "\u2581vient": 5074,
  "\u00bb:": 5075,
  "\u2581Fra": 5076,
  "\u2581coeur": 5077,
  "\u2581Her": 5078,
  "\u2581Ecco": 5079,
  "\u2581puntos": 5080,
  "\u2581ignis": 5081,
  "\u2581appel": 5082,
  "\u2581clase": 5083,
  "\u2581abiit": 5084,
  "udi": 5085,
  "ence": 5086,
  "\u25811995": 5087,
  "agem": 5088,
  "\u2581proposition": 5089,
  "cial": 5090,
  "\u2581espada": 5091,
  "\u2581micro": 5092,
  "\u2581contenu": 5093,
  "\u2581Pr\u00e9": 5094,
  "\u00f4r": 5095,
  "ssant": 5096,
  "\u2581justo": 5097,
  "\u2581trabajadores": 5098,
  "\u2581\u00eempreun\u0103": 5099,
  "\u2581portugu\u00e9s": 5100,
  "\u2581alguien": 5101,
  "\u2581locul": 5102,
  "\u2581nessuno": 5103,
  "pussibil": 5104,
  "table": 5105,
  "\u2581Durante": 5106,
  "\u2581domina": 5107,
  "\u2581parlar": 5108,
  "\u2581Dia": 5109,
  "pha": 5110,
  "\u2581verifica": 5111,
  "peri": 5112,
  "\u2581santo": 5113,
  "isset": 5114,
  "\u2581comprend": 5115,
  "\u2581articles": 5116,
  "\u2581Sen": 5117,
  "nk": 5118,
  "\u2581millions": 5119,
  "enza": 5120,
  "\u2581creo": 5121,
  "\u2581salud": 5122,
  "ebant": 5123,
  "\u2581cuanto": 5124,
  "\u2581seleccionar": 5125,
  "poli": 5126,
  "\u2581luce": 5127,
  "istes": 5128,
  "p\u00e8": 5129,
  "\u2581200": 5130,
  "rnos": 5131,
  "ric": 5132,
  "\u2581auzit": 5133,
  "\u2581muri": 5134,
  "\u258138": 5135,
  "\u2581secteur": 5136,
  "ntia": 5137,
  "\u2581jeu": 5138,
  "\u2581viola": 5139,
  "\u2581m\u00f3n": 5140,
  "zzi": 5141,
  "\u2581p\u00e8p": 5142,
  "fier": 5143,
  "ak": 5144,
  "guer": 5145,
  "ller": 5146,
  "tima": 5147,
  "\u2581Mete": 5148,
  "\u2581Espera": 5149,
  "\u2581bel": 5150,
  "\u2581conseguir": 5151,
  "\u2581chegar": 5152,
  "\u2581egressus": 5153,
  "lea": 5154,
  "\u2581r\u00e9ponse": 5155,
  "\u2581vite": 5156,
  "\u2581File": 5157,
  "\u2581li\u00f1a": 5158,
  "\u2581administrativa": 5159,
  "\u2581lava": 5160,
  "\u2581Pr\u00e9sident": 5161,
  "tera": 5162,
  "reis": 5163,
  "cla": 5164,
  "\u2581ambiental": 5165,
  "06": 5166,
  "\u2581certa": 5167,
  "\u2581A\u015fa": 5168,
  "\u2581equipo": 5169,
  "y\u00ee": 5170,
  "\u2581individual": 5171,
  "\u2581aquests": 5172,
  "\u2581cama": 5173,
  "ch\u00e8": 5174,
  "\u2581dum": 5175,
  "\u2581Ioab": 5176,
  "\u2581Seleziona": 5177,
  "ial": 5178,
  "\u2581archivi": 5179,
  "vide": 5180,
  "\u2581mains": 5181,
  "\u2581separa": 5182,
  "\u2581mouri": 5183,
  "itos": 5184,
  "Le": 5185,
  "opzion": 5186,
  "\u2581Tom": 5187,
  "\u2581Val": 5188,
  "\u2581clave": 5189,
  "\u2581mater": 5190,
  "\u2581Disse": 5191,
  "\u2581Pon": 5192,
  "\u2581invece": 5193,
  "\u2581devons": 5194,
  "\u2581v\u00ea": 5195,
  "\u2581chiama": 5196,
  "\u2581relativas": 5197,
  "\u2581segui": 5198,
  "\u2581sot": 5199,
  "\u2581fica": 5200,
  "\u2581Puede": 5201,
  "\u2581autom\u00e1ticamente": 5202,
  "\u2581souvent": 5203,
  "5/": 5204,
  "\u2581clavi\u00e8r": 5205,
  "Tu": 5206,
  "\u2581diritto": 5207,
  "\u2581Amb": 5208,
  "70": 5209,
  "\u00f4t": 5210,
  "\u2581mora": 5211,
  "\u2581oamenii": 5212,
  "\u2581solu": 5213,
  "Com": 5214,
  "acord": 5215,
  "spira": 5216,
  "\u2581meae": 5217,
  "\u00e0ria": 5218,
  "\u2581Den": 5219,
  "\u2581anal": 5220,
  "gie": 5221,
  "\u2581processus": 5222,
  "\u2581energia": 5223,
  "\u2581sive": 5224,
  "\u2581gesti\u00f3n": 5225,
  "UR": 5226,
  "\u2581Exp": 5227,
  "\u2581amar": 5228,
  "Nu": 5229,
  "\u2581oro": 5230,
  "\u2581tera": 5231,
  "\u2581version": 5232,
  "\u2581demasiado": 5233,
  "\u2581parents": 5234,
  "3/": 5235,
  "\u2581responde": 5236,
  "\u2581triginta": 5237,
  "cte": 5238,
  "\u2581arquivos": 5239,
  "eix": 5240,
  "\u2581m\u00fasica": 5241,
  "\u2581Jos\u00e9": 5242,
  "\u2581probl\u00e8mes": 5243,
  "\u2581Elimina": 5244,
  "\u2581her": 5245,
  "\u2581calidad": 5246,
  "\u2581partea": 5247,
  "\u2581Eso": 5248,
  "\u2581nonne": 5249,
  "\u2581Cer": 5250,
  "\u2581apoyo": 5251,
  "lier": 5252,
  "nus": 5253,
  "\u2581compra": 5254,
  "\u2581Samaria": 5255,
  "bio": 5256,
  "iano": 5257,
  "\u2581quiere": 5258,
  "\u2581sco": 5259,
  "\u2581stai": 5260,
  "dant": 5261,
  "\u2581Passe": 5262,
  "\u2581any": 5263,
  "tie": 5264,
  "\u2581manten": 5265,
  "\u2581quin": 5266,
  "amiento": 5267,
  "\u2581contenido": 5268,
  "\u2581funda": 5269,
  "\u2581Gal": 5270,
  "\u2581Crear": 5271,
  "\u2581edifica": 5272,
  "*": 5273,
  "\u2581corri": 5274,
  "\u2581Puis": 5275,
  "\u2581keda": 5276,
  "accordo": 5277,
  "ables": 5278,
  "aime": 5279,
  "enne": 5280,
  "\u2581seves": 5281,
  "\u2581sendo": 5282,
  "\u2581g\u00e9n\u00e9rale": 5283,
  "\u2581Tha": 5284,
  "\u2581fera": 5285,
  "\u2581enfant": 5286,
  "\u2581Beh": 5287,
  "\u2581propia": 5288,
  "\u2581pose": 5289,
  "f\u00e9": 5290,
  "\u2581k\u00f2manse": 5291,
  "\u2581puedo": 5292,
  "\u2581Modo": 5293,
  "\u2581cinq": 5294,
  "\u00c9tat": 5295,
  "\u2581Sistema": 5296,
  "4/": 5297,
  "\u2581gia": 5298,
  "\u2581Comunidad": 5299,
  "6/": 5300,
  "\u2581re\u00e7u": 5301,
  "\u2581\u201d?": 5302,
  "\u2581tor": 5303,
  "\u2581registro": 5304,
  "\u2581d\u00e9but": 5305,
  "\u2581sud": 5306,
  "\u2581h\u00e9": 5307,
  "\u2581host": 5308,
  "dum": 5309,
  "\u2581viva": 5310,
  "tch": 5311,
  "\u2581sabia": 5312,
  "\u2581visite": 5313,
  "\u2581Param\u00e8tres": 5314,
  "\u2581continue": 5315,
  "\u2581vade": 5316,
  "\u2581ger": 5317,
  "apr\u00e8s": 5318,
  "\u2581dopr\u00e2t": 5319,
  "05": 5320,
  "\u2581servos": 5321,
  "\u2581Simon": 5322,
  "\u2581feci": 5323,
  "\u2581singur": 5324,
  "\u2581anul": 5325,
  "\u2581eres": 5326,
  "sus": 5327,
  "rias": 5328,
  "\u2581eks": 5329,
  "\u2581cogita": 5330,
  "\u00e1is": 5331,
  "\u2581garantir": 5332,
  "ist": 5333,
  "\u2581estan": 5334,
  "\u2581cabe\u00e7a": 5335,
  "\u2581d\u00e9s": 5336,
  "\u2581Don": 5337,
  "i\u00f3n": 5338,
  "iche": 5339,
  "hy": 5340,
  "\u2581vota": 5341,
  "\u2581remo": 5342,
  "\u021be": 5343,
  "cento": 5344,
  "ham": 5345,
  "\u2581fiu": 5346,
  "jou": 5347,
  "gr\u00e9": 5348,
  "\u2581Grazie": 5349,
  "\u2581r\u00e1pido": 5350,
  "\u2581c\u00e9u": 5351,
  "\u2581destino": 5352,
  "cit": 5353,
  "tens": 5354,
  "\u2581vuoi": 5355,
  "ize": 5356,
  "\u2581\u00eenceput": 5357,
  "\u2581percussit": 5358,
  "-1": 5359,
  "\u2581A\u00f1adir": 5360,
  "\u2581suivant": 5361,
  "\u2581Beth": 5362,
  "\u2581horizontal": 5363,
  "\u2581guardar": 5364,
  "zare": 5365,
  "cour": 5366,
  "dite": 5367,
  "\u2581attend": 5368,
  "\u2581film": 5369,
  "\u2581rester": 5370,
  "\u2581funciona": 5371,
  "\u2581executar": 5372,
  "\u2581batari\u00e1": 5373,
  "\u2581plena": 5374,
  "OU": 5375,
  "rla": 5376,
  "\u2581Sch": 5377,
  "\u2581bloc": 5378,
  "22": 5379,
  "\u2581obtener": 5380,
  "sola": 5381,
  "\u2581primero": 5382,
  "\u2581quic": 5383,
  "\u2581risc": 5384,
  "derit": 5385,
  "\u2581largo": 5386,
  "\u2581ladan": 5387,
  "\u2581Poi": 5388,
  "\u2581fil": 5389,
  "llen": 5390,
  "\u2581Fallu": 5391,
  "IP": 5392,
  "?``": 5393,
  "\u2581senyor": 5394,
  "\u2581nr": 5395,
  "\u2581rota": 5396,
  "\u2581caixa": 5397,
  "\u2581sarebbe": 5398,
  "\u2581forti": 5399,
  "\u25812015": 5400,
  "\u2581Esti": 5401,
  "die": 5402,
  "\u2581regular": 5403,
  "\u2581papa": 5404,
  "\u2581huius": 5405,
  "xu": 5406,
  "\u2581somos": 5407,
  "\u2581avem": 5408,
  "\u2581C\u00f3mo": 5409,
  "\u2581Gui": 5410,
  "\u2581longe": 5411,
  "\u2581aquel": 5412,
  "\u2581hac": 5413,
  "\u2581dur": 5414,
  "\u2581Parti": 5415,
  "\u2581coop\u00e9ration": 5416,
  "\u2581modificar": 5417,
  "\u2581aucune": 5418,
  "dir": 5419,
  "\u2581interesse": 5420,
  "\u2581ascende": 5421,
  "pr\u00e9": 5422,
  "\u2581joie": 5423,
  "\u00e8ne": 5424,
  "\u2581bella": 5425,
  "\u2581scor": 5426,
  "i\u00e8re": 5427,
  "ites": 5428,
  "LA": 5429,
  "\u2581cargo": 5430,
  "inha": 5431,
  "\u2581dous": 5432,
  "\u2581poporul": 5433,
  "\u2581previsto": 5434,
  "\u2581antanke": 5435,
  "rup": 5436,
  "mission": 5437,
  "\u2581exclu": 5438,
  "US": 5439,
  "\u2581combat": 5440,
  "\u25812)": 5441,
  "\u2581bra": 5442,
  "/2": 5443,
  "\u2581police": 5444,
  "\u2581antre": 5445,
  "\u2581exige": 5446,
  "igne": 5447,
  "\u2581vrea": 5448,
  "\u2581linea": 5449,
  "\u2581d\u00e1": 5450,
  "CO": 5451,
  "f\u00ed": 5452,
  "\u2581controlo": 5453,
  "ndam": 5454,
  "\u2581liber": 5455,
  "\u2581Vin": 5456,
  "\u2581preciso": 5457,
  "\u2581comanda": 5458,
  "\u2581Format": 5459,
  "\u2581rispetto": 5460,
  "\u2581tende": 5461,
  "\u2581coup": 5462,
  "\u2581requisitos": 5463,
  "\u2581llevar": 5464,
  "\u2581estra": 5465,
  "\u00f2n": 5466,
  "\u2581competente": 5467,
  "\u2581mientras": 5468,
  "yn": 5469,
  "\u2581pass\u00e2": 5470,
  "\u2581ello": 5471,
  "mbro": 5472,
  "\u2581note": 5473,
  "sible": 5474,
  "\u2581Article": 5475,
  "\u2581Xa": 5476,
  "c\u00e2": 5477,
  "idades": 5478,
  "\u2581tiver": 5479,
  "\u2581pasado": 5480,
  "\u2581veritat": 5481,
  "\u2581r\u00e9solution": 5482,
  "coli": 5483,
  "\u2581ius": 5484,
  "\u2581adus": 5485,
  "\u2581aji": 5486,
  "\u2581tenu": 5487,
  "rte": 5488,
  "pt": 5489,
  "\u2581basta": 5490,
  "\u2581jis": 5491,
  "\u2581mans": 5492,
  "graf": 5493,
  "itatea": 5494,
  "\u2581tira": 5495,
  "\u2581anar": 5496,
  "\u2581fiii": 5497,
  "pis": 5498,
  "\u2581espacio": 5499,
  "\u2581mondiale": 5500,
  "\u2581disc\u00edpulos": 5501,
  "\u2581civitates": 5502,
  "\u2581code": 5503,
  "\u2581Casa": 5504,
  "\u2581propi": 5505,
  "\u2581Erreur": 5506,
  "fera": 5507,
  "\u2581verde": 5508,
  "\u2581Prin": 5509,
  "\u2581confiance": 5510,
  "\u2581politiques": 5511,
  "\u2581molti": 5512,
  "\u2581industrial": 5513,
  "\u2581fame": 5514,
  "\u2581aquestes": 5515,
  "\u2581tam": 5516,
  "leg": 5517,
  "\u2581contact": 5518,
  "\u2581algu\u00e9m": 5519,
  "avez": 5520,
  "\u2581tranquil": 5521,
  "\u2581reti": 5522,
  "\u2581mundu": 5523,
  "\u2581aduce": 5524,
  "\u2581pian": 5525,
  "\u2581frater": 5526,
  "\u2581s\u00e9rie": 5527,
  "\u2581debate": 5528,
  "\u2581testu": 5529,
  "\u2581boso": 5530,
  "\u2581Sy": 5531,
  "\u2581davvero": 5532,
  "tation": 5533,
  "\u2581P\u00e8re": 5534,
  "yi": 5535,
  "glo": 5536,
  "\u2581baixa": 5537,
  "\u2581timpul": 5538,
  "\u2581pronto": 5539,
  "\u2581gr\u00e1fica": 5540,
  "ttes": 5541,
  "rate": 5542,
  "pet": 5543,
  "\u258112.": 5544,
  "rt": 5545,
  "\u2581intens": 5546,
  "\u2581Heli": 5547,
  "OR": 5548,
  "\u2581transforma": 5549,
  "\u2581f\u00fbr": 5550,
  "\u2581potrebbe": 5551,
  "\u2581corps": 5552,
  "\u2581sali": 5553,
  "ag": 5554,
  "\u2581Centro": 5555,
  "\u2581connaissance": 5556,
  "\u2581continu": 5557,
  "\u2581soutien": 5558,
  "\u2581Esco": 5559,
  "\u2581viros": 5560,
  "He": 5561,
  "\u2581regnavit": 5562,
  "\u2581bestia": 5563,
  "\u2581Gad": 5564,
  "\u2581omnium": 5565,
  "\u2581drept": 5566,
  "\u2581monitor": 5567,
  "\u2581Adam": 5568,
  "del": 5569,
  "\u2581millones": 5570,
  "\u2581Quem": 5571,
  "\u2581chemin": 5572,
  "\u2581JO": 5573,
  "\u2581acha": 5574,
  "\u2581biba": 5575,
  "\u2581dades": 5576,
  "\u2581gan": 5577,
  "\u2581duos": 5578,
  "\u2581calendario": 5579,
  "\u2581caracter\u00edsticas": 5580,
  "\u2581Ph": 5581,
  "\u2581colores": 5582,
  "\u2581serio": 5583,
  "\u2581alia": 5584,
  "\u2581Mueve": 5585,
  "utent": 5586,
  "sisti": 5587,
  "\u2581habr\u00e1": 5588,
  "\u2581marcha": 5589,
  "\u2581Mwen": 5590,
  "\u2581standard": 5591,
  "\u2581entend": 5592,
  "?\u00bb": 5593,
  "\u2581signe": 5594,
  "\u2581mensaje": 5595,
  "\u2581Solo": 5596,
  "\u2581Lei": 5597,
  "gina": 5598,
  "\u2581puoi": 5599,
  "\u2581tr\u00e9boles": 5600,
  "allegato": 5601,
  "\u2581maneira": 5602,
  "\u2581bro": 5603,
  "\u2581certaines": 5604,
  "\u2581nit": 5605,
  "\u2581tenen": 5606,
  "\u2581Unidos": 5607,
  "defini": 5608,
  "umque": 5609,
  "ic\u0103": 5610,
  "An": 5611,
  "\u2581sint": 5612,
  "aw\u00f2l": 5613,
  "\u2581qualche": 5614,
  "\u2581soti": 5615,
  "\u2581lang": 5616,
  "\u2581val": 5617,
  "\u2581Seleccionar": 5618,
  "mpa": 5619,
  "\u00e1ndose": 5620,
  "\u2581vestrum": 5621,
  "\u2581barcons": 5622,
  "\u2581dinero": 5623,
  "iras": 5624,
  "\u2581alt": 5625,
  "\u258136": 5626,
  "\u2581CON": 5627,
  "\u2581luna": 5628,
  "\u2581semble": 5629,
  "clar": 5630,
  "lina": 5631,
  "\u2581abbia": 5632,
  "nces": 5633,
  "\u2581Fils": 5634,
  "\u2581aquele": 5635,
  "\u2581Vou": 5636,
  "\u2581sanguinem": 5637,
  "sin": 5638,
  "\u2581Gobierno": 5639,
  "tros": 5640,
  "\u2581objetivo": 5641,
  "\u2581certificat": 5642,
  "\u2581parties": 5643,
  "\u2581ouro": 5644,
  "\u2581Mini": 5645,
  "gat": 5646,
  "TO": 5647,
  "\u2581esp": 5648,
  "\u2581nam": 5649,
  "\u2581segura": 5650,
  "\u2581valore": 5651,
  "\u2581abril": 5652,
  "\u2581commande": 5653,
  "\u2581\u00e9tabli": 5654,
  "tem": 5655,
  "\u2581cultura": 5656,
  "\u25811)": 5657,
  "\u2581Hay": 5658,
  "\u2581executa": 5659,
  "\u2581informaci\u00f3": 5660,
  "g\u00ed": 5661,
  "\u2581dare": 5662,
  "\u2581moderada": 5663,
  "\u2581prof": 5664,
  "\u2581Josu\u00e9": 5665,
  "\u2581conexi\u00f3n": 5666,
  "2)": 5667,
  "\u2581oculos": 5668,
  "\u25811996": 5669,
  "\u2581acestea": 5670,
  "\u2581procedimiento": 5671,
  "zie": 5672,
  "\u2581title": 5673,
  "\u2581alcun": 5674,
  "\u2581bur": 5675,
  "cci\u00f3": 5676,
  "\u2581option": 5677,
  "\u2581permitir": 5678,
  "\u2581nombreux": 5679,
  "\u2581Tim": 5680,
  "\u2581biblioteca": 5681,
  "\u2581manger": 5682,
  "\u2581disciplina": 5683,
  "\u2581voix": 5684,
  "\u2581domaine": 5685,
  "\u2581cartas": 5686,
  "\u00eft": 5687,
  "\u2581saint": 5688,
  "\u2581touche": 5689,
  "\u2581c\u00e1": 5690,
  "\u2581poner": 5691,
  "\u2581s\u00e9lectionn\u00e9": 5692,
  "\u2581referencia": 5693,
  "\u2581$": 5694,
  "\u2581Quindi": 5695,
  "\u2581tenga": 5696,
  "\u2581municipal": 5697,
  "\u2581Ter": 5698,
  "naire": 5699,
  "ld": 5700,
  "\u2581Dup\u0103": 5701,
  "\u2581quiero": 5702,
  "\u2581necessario": 5703,
  "\u2581aumentar": 5704,
  "!\"": 5705,
  "mite": 5706,
  "\u2581desea": 5707,
  "\u2581configurar": 5708,
  "\u2581define": 5709,
  "\u2581institu": 5710,
  "\u2581application": 5711,
  "\u2581quest\u00e3o": 5712,
  "\u2581mol": 5713,
  "mma": 5714,
  "\u2581posse": 5715,
  "\u258148": 5716,
  "\u2581formation": 5717,
  "\u2581amic": 5718,
  "sua": 5719,
  "\u2581strumenti": 5720,
  "\u2581Terra": 5721,
  "\u2581filha": 5722,
  "\u2581conce": 5723,
  "\u2581credi": 5724,
  "\u2581nesta": 5725,
  "\u2581ensemble": 5726,
  "din": 5727,
  "\u2581Tradu": 5728,
  "\u2581voglio": 5729,
  "nico": 5730,
  "\u2581investi": 5731,
  "\u2581active": 5732,
  "\u2581nouvelles": 5733,
  "osos": 5734,
  "\u2581asemenea": 5735,
  "\u2581contamina": 5736,
  "\u2581sole": 5737,
  "\u2581pena": 5738,
  "zze": 5739,
  "nelle": 5740,
  "lit": 5741,
  "\u2581tecum": 5742,
  "\u2581temporal": 5743,
  "\u2581Ioseph": 5744,
  "\u2581m\u00e9": 5745,
  "\u2581errore": 5746,
  "zon": 5747,
  "az": 5748,
  "\u2581doi": 5749,
  "\u2581mele": 5750,
  "\u2581apa": 5751,
  "\u2581vivi": 5752,
  "\u2581ap\u0103": 5753,
  "torul": 5754,
  "\u2581julio": 5755,
  "\u2581Sus": 5756,
  "2004": 5757,
  "\u2581jos": 5758,
  "\u2581si\u00f1a": 5759,
  "pression": 5760,
  "\u2581PRO": 5761,
  "\u2581faveur": 5762,
  "\u2581vid\u00e9o": 5763,
  "\u2581software": 5764,
  "toi": 5765,
  "\u2581rin": 5766,
  "\u00e8n": 5767,
  "\u2581conf": 5768,
  "\u2581regula": 5769,
  "\u2581privat": 5770,
  "nho": 5771,
  "\u2581incluso": 5772,
  "\u2581vidit": 5773,
  "a\u00ef": 5774,
  "\u2581bord": 5775,
  "\u2581fece": 5776,
  "\u2581capita": 5777,
  "\u2581uxorem": 5778,
  "\u2581Plus": 5779,
  "\u2581invoca": 5780,
  "\u2581nosaltres": 5781,
  "\u2581reina": 5782,
  "\u2581Tamb\u00e9m": 5783,
  "\u2581lorsqu": 5784,
  "g\u00f3": 5785,
  "\u2581truc": 5786,
  "\u258111.": 5787,
  "\u2581video": 5788,
  "\u2581permanente": 5789,
  "\u2581quienes": 5790,
  "\u2581comum": 5791,
  "\u2581compensa": 5792,
  "phe": 5793,
  "\u2581ordre": 5794,
  "issant": 5795,
  "\u2581certificado": 5796,
  "\u2581kalite": 5797,
  "\u2581recu": 5798,
  "\u00e2ncia": 5799,
  "\u2581quedar": 5800,
  "\u2581salut": 5801,
  "\u2581cantidad": 5802,
  "\u2581Medi": 5803,
  "\u2581lugares": 5804,
  "\u2581Menm": 5805,
  "\u25817,": 5806,
  "\u2581J\u00e1": 5807,
  "\u2581Texto": 5808,
  "\u2581llama": 5809,
  "\u2581Salva": 5810,
  "\u2581gener": 5811,
  "cl": 5812,
  "\u2581pune": 5813,
  "\u2581celebra": 5814,
  "\u2581gladio": 5815,
  "\u2581DOGC": 5816,
  "\u2581definir": 5817,
  "prima": 5818,
  "\u2581seguintes": 5819,
  "\u2581nave": 5820,
  "\u2581s\u00e8lman": 5821,
  "\u2581Quant": 5822,
  "ateur": 5823,
  "\u2581serva": 5824,
  "\u021b": 5825,
  "\u2581tam\u00e9n": 5826,
  "\u2581Jerusal\u00e9m": 5827,
  "hou": 5828,
  "plan": 5829,
  "\u2581malo": 5830,
  "\u2581rebel": 5831,
  "\u2581recorda": 5832,
  "\u2581afirma": 5833,
  "izado": 5834,
  "35": 5835,
  "\u2581posuit": 5836,
  "ala": 5837,
  "\u2581diversi": 5838,
  "\u2581menor": 5839,
  "\u2581tratta": 5840,
  "\u2581b\u00f2": 5841,
  "\u2581Dr": 5842,
  "ua": 5843,
  "So": 5844,
  "\u2581\u00e1mbito": 5845,
  "\u2581Egipto": 5846,
  "\u2581m\u00e1xima": 5847,
  "bilit\u00e0": 5848,
  "\u25811994": 5849,
  "ixen": 5850,
  "\u2581direitos": 5851,
  "\u2581\u00e9l\u00e9ments": 5852,
  "\u2581escala": 5853,
  "\u2581decisi\u00f3n": 5854,
  "\u2581rela\u00e7\u00e3o": 5855,
  "\u2581merge": 5856,
  "p\u00f2": 5857,
  "\u2581prop\u00f3sito": 5858,
  "\u2581econ\u00f3mica": 5859,
  "\u2581levar": 5860,
  "\u25819,": 5861,
  "\u2581Core": 5862,
  "\u2581numai": 5863,
  "\u2581plein": 5864,
  "\u2581unidad": 5865,
  "f\u00e8": 5866,
  "\u2581mur": 5867,
  "\u2581digo": 5868,
  "JO": 5869,
  "\u2581quidam": 5870,
  "\u2581mulheres": 5871,
  "\u2581restri": 5872,
  "\u2581especialmente": 5873,
  "\u2581Trans": 5874,
  "tiche": 5875,
  "\u2581Stai": 5876,
  "\u2581ipso": 5877,
  "\u2581comigo": 5878,
  "\u2581Unies": 5879,
  "quant": 5880,
  "08": 5881,
  "\u2581delega": 5882,
  "\u2581respondens": 5883,
  "nna": 5884,
  "\u2581dernier": 5885,
  "\u2581Bem": 5886,
  "\u2581prueba": 5887,
  "\u2581dom\u00ednio": 5888,
  "-2": 5889,
  "bell": 5890,
  "mpi": 5891,
  "\u2581muchas": 5892,
  "\u2581dejar": 5893,
  "\u2581Onde": 5894,
  "\u2581Fall\u00f3": 5895,
  "\u2581quadraginta": 5896,
  "\u2581centrale": 5897,
  "\u2581debemos": 5898,
  "\u2581\u015ftii": 5899,
  "\u2581governo": 5900,
  "\u2581demanda": 5901,
  "\u2581ke": 5902,
  "\u2581stat": 5903,
  "\u2581peche": 5904,
  "trin": 5905,
  "\u2581Pra": 5906,
  "\u2581moito": 5907,
  "\u00fan": 5908,
  "\u2581Giuda": 5909,
  "\u2581consiste": 5910,
  "\u2581Gerusalemme": 5911,
  "\u2581bate": 5912,
  "\u2581garde": 5913,
  "cant": 5914,
  "\u2581atenci\u00f3n": 5915,
  "\u2581canvi": 5916,
  "\u2581Ch": 5917,
  "\u2581fichi\u00e8r": 5918,
  "\u2581imagem": 5919,
  "ologia": 5920,
  "\u2581cristian": 5921,
  "\u2581cro": 5922,
  "tatis": 5923,
  "\u2581(1)": 5924,
  "31": 5925,
  "ats": 5926,
  "\u2581dovrebbe": 5927,
  "\u2581pessoa": 5928,
  "\u2581princeps": 5929,
  "\u2581normativa": 5930,
  "Ri": 5931,
  "chia": 5932,
  "\u2581flor": 5933,
  "\u2581langue": 5934,
  "\u2581sentiment": 5935,
  "2003": 5936,
  "\u2581categoria": 5937,
  "pal": 5938,
  "\u00e8ncies": 5939,
  "\u2581urm\u0103": 5940,
  "MI": 5941,
  "\u2581solid": 5942,
  "\u2581pedido": 5943,
  "\u2581montes": 5944,
  "\u2581familiar": 5945,
  "\u2581ferro": 5946,
  "n\u021b\u0103": 5947,
  "\u2581futur": 5948,
  "\u2581hominum": 5949,
  "\u00e8ske": 5950,
  "\u2581d\u00f3lares": 5951,
  "\u2581amosar": 5952,
  "\u2581ann\u00e9e": 5953,
  "\u2581Pare": 5954,
  "\u2581stes": 5955,
  "\u2581niente": 5956,
  "\u2581tulit": 5957,
  "\u2581immola": 5958,
  "\u2581Mos\u00e8": 5959,
  "parte": 5960,
  "\u2581Selezione": 5961,
  "\u2581Pierre": 5962,
  "gal": 5963,
  "obra": 5964,
  "\u2581depi": 5965,
  "\u2581105": 5966,
  "\u2581salvo": 5967,
  "\u2581blanc": 5968,
  "\u258113.": 5969,
  "\u2581nossos": 5970,
  "\u2581comercial": 5971,
  "MENT": 5972,
  "\u00eent": 5973,
  "ordre": 5974,
  "\u2581normes": 5975,
  "\u2581Sha": 5976,
  "\u2581fiel": 5977,
  "\u2581sean": 5978,
  "\u2581Babylonis": 5979,
  "\u2581bueno": 5980,
  "\u2581finestre": 5981,
  "\u2581cristianos": 5982,
  "\u2581comunitario": 5983,
  "\u2581propio": 5984,
  "\u2581hermano": 5985,
  "\u2581opere": 5986,
  "\u2581amour": 5987,
  "fice": 5988,
  "\u2581Jehova": 5989,
  "Vi": 5990,
  "\u2581joc": 5991,
  "\u2581cere": 5992,
  "\u2581stessa": 5993,
  "\u2581Fai": 5994,
  "ime": 5995,
  "IM": 5996,
  "\u2581Christo": 5997,
  "\u2581gana": 5998,
  "bam": 5999,
  "\u2581posterior": 6000,
  "\u2581utilis\u00e9": 6001,
  "gger": 6002,
  "23": 6003,
  "\u2581ISO": 6004,
  "\u2581nations": 6005,
  "\u2581entendu": 6006,
  "\u2581prise": 6007,
  "\u2581interna": 6008,
  "auto": 6009,
  "ath": 6010,
  "\u2581Poate": 6011,
  "\u2581Ephraim": 6012,
  "DO": 6013,
  "\u2581Sau": 6014,
  "\u2581trecut": 6015,
  "\u2581conna\u00eetre": 6016,
  "\u2581Configura": 6017,
  "\u2581Date": 6018,
  "\u2581parlare": 6019,
  "ppo": 6020,
  "\u2581situa\u00e7\u00e3o": 6021,
  "04": 6022,
  "\u2581lua": 6023,
  "\u2581\u00faltimos": 6024,
  "dero": 6025,
  "\u2581Pen": 6026,
  "\u2581execu\u00e7\u00e3o": 6027,
  "ccio": 6028,
  "\u2581posi\u00e7\u00e3o": 6029,
  "metri": 6030,
  "\u2581tienes": 6031,
  "\u2581art\u00edculos": 6032,
  "\u2581inicio": 6033,
  "\u2581rendu": 6034,
  "\u2581ge": 6035,
  "\u2581putem": 6036,
  "\u2581trouve": 6037,
  "vor": 6038,
  "senta": 6039,
  "\u2581jeune": 6040,
  "\u2581oculis": 6041,
  "\u2581dices": 6042,
  "\u2581retribu": 6043,
  "\u2581contexto": 6044,
  "\u2581dicir": 6045,
  "iga": 6046,
  "it\u00e9s": 6047,
  "\u2581vit": 6048,
  "\u2581milh\u00f5es": 6049,
  "\u2581n\u00fam": 6050,
  "ige": 6051,
  "\u2581g\u0103sit": 6052,
  "\u2581item": 6053,
  "\u2581mod\u00e8le": 6054,
  "fic": 6055,
  "\u2581Roma": 6056,
  "migra": 6057,
  "puta": 6058,
  "\u2581temperatura": 6059,
  "\u2581ressources": 6060,
  "\u2581meglio": 6061,
  "\u2581d\u0103": 6062,
  "\u2581scris": 6063,
  "\u2581elimina": 6064,
  "\u2581sinti": 6065,
  "\u2581virum": 6066,
  "diu": 6067,
  "\u2581York": 6068,
  "\u2581fila": 6069,
  "imento": 6070,
  "\u2581RE": 6071,
  "\u2581partem": 6072,
  "put": 6073,
  "\u2581respeita": 6074,
  "aggio": 6075,
  "\u2581belle": 6076,
  "\u2581tue": 6077,
  "pens": 6078,
  "\u2581facile": 6079,
  "\u2581m\u00e1quina": 6080,
  "\u2581arriv\u00e9": 6081,
  "\u2581garanti": 6082,
  "\u2581infra": 6083,
  "\u2581religion": 6084,
  "\u2581longo": 6085,
  "cular": 6086,
  "\u2581nomina": 6087,
  "xerunt": 6088,
  "\u2581Fre": 6089,
  "itza": 6090,
  "7/": 6091,
  "mic": 6092,
  "\u25818,": 6093,
  "\u2581tenda": 6094,
  "\u2581Muestra": 6095,
  "\u2581pasar": 6096,
  "pati": 6097,
  "\u2581gi": 6098,
  "\u258114.": 6099,
  "\u2581responder": 6100,
  "\u2581bin": 6101,
  "\u2581avvi": 6102,
  "\u2581internationale": 6103,
  "\u2581Merci": 6104,
  "\u2581Pol": 6105,
  "\u00ean": 6106,
  "\u2581Palabra": 6107,
  "\u2581greu": 6108,
  "\u2581appel\u00e9": 6109,
  "\u0102": 6110,
  "ago": 6111,
  "\u2581cessa": 6112,
  "\u2581presi": 6113,
  "\u2581adult": 6114,
  "\u2581ayudar": 6115,
  "\u2581programmes": 6116,
  "\u2581droite": 6117,
  "\u2581servizio": 6118,
  "\u2581envoy\u00e9": 6119,
  "rga": 6120,
  "\u2581incl": 6121,
  "\u2581preferi": 6122,
  "\u2581fum": 6123,
  "\u2581numele": 6124,
  "\u2581r\u00f4le": 6125,
  "ccion": 6126,
  "\u2581tantum": 6127,
  "\u2581Est\u00e1s": 6128,
  "96": 6129,
  "\u2581crois": 6130,
  "\u2581Salmo": 6131,
  "cep": 6132,
  "\u2581500": 6133,
  "\u2581Unidad": 6134,
  "\u2581cru": 6135,
  "\u2581Depois": 6136,
  "\u2581S\u00f3lo": 6137,
  "bitis": 6138,
  "\u2581Est\u00e0": 6139,
  "\u2581articolul": 6140,
  "\u2581pratique": 6141,
  "\u00eas": 6142,
  "\u2581vent": 6143,
  "\u2581iterum": 6144,
  "\u2581accepta": 6145,
  "sio": 6146,
  "\u2581sent": 6147,
  "\u2581Isso": 6148,
  "\u2581interven": 6149,
  "\u2581nomeadamente": 6150,
  "\u2581ajuns": 6151,
  "\u2581terminale": 6152,
  "\u2581ferme": 6153,
  "\u00e8r": 6154,
  "\u2581apot": 6155,
  "\u2581opciones": 6156,
  "\u2581eas": 6157,
  "\u2581generale": 6158,
  "\u2581Mer": 6159,
  "29": 6160,
  "\u2581compara": 6161,
  "\u2581fos": 6162,
  "\u2581\u00e1gua": 6163,
  "n\u021ba": 6164,
  "antur": 6165,
  "\u2581cuncta": 6166,
  "\u2581filtro": 6167,
  "\u2581corresponde": 6168,
  "etis": 6169,
  "\u2581dot": 6170,
  "\u2581sejam": 6171,
  "i\u00e8me": 6172,
  "\u2581nomes": 6173,
  "\u2581Ella": 6174,
  "\u2581afar\u0103": 6175,
  "\u2581kom": 6176,
  "\u2581bastante": 6177,
  "\u2581Importa": 6178,
  "\u2581sancti": 6179,
  "pp": 6180,
  "sign": 6181,
  "\u2581universo": 6182,
  "\u2581impre": 6183,
  "\u2581chef": 6184,
  "\u2581paj": 6185,
  "ssin": 6186,
  "\u2581Has": 6187,
  "\u2581bloque": 6188,
  "\u2581v\u00e1rios": 6189,
  "\u2581industria": 6190,
  "\u2581propuesta": 6191,
  "\u2581Pensa": 6192,
  "\u2581servus": 6193,
  "\u2581H\u00e1": 6194,
  "nom": 6195,
  "t\u00e2": 6196,
  "\u2581nemo": 6197,
  "\u2581sangre": 6198,
  "\u2581autorit\u00e0": 6199,
  "!\u00bb": 6200,
  "\u2581agri": 6201,
  "cien": 6202,
  "\u2581fapt": 6203,
  "\u2581rendre": 6204,
  "\u2581sitio": 6205,
  "\u2581mots": 6206,
  "\u2581animais": 6207,
  "r\u00e9is": 6208,
  "\u2581autorit\u00e9s": 6209,
  "\u2581regno": 6210,
  "\u2581DA": 6211,
  "\u2581Iosue": 6212,
  "\u2581Fal": 6213,
  "\u2581hores": 6214,
  "EL": 6215,
  "\u2581E\u015fti": 6216,
  "\u2581qualsiasi": 6217,
  "\u2581Quin": 6218,
  "\u2581loin": 6219,
  "\u2581pauper": 6220,
  "\u2581permis": 6221,
  "\u2581contacto": 6222,
  "\u2581Tes": 6223,
  "\u2581usare": 6224,
  "\u2581norte": 6225,
  "cie": 6226,
  "pra": 6227,
  "dus": 6228,
  "\u2581propria": 6229,
  "\u2581cartafol": 6230,
  "\u2581schimb": 6231,
  "\u2581rend": 6232,
  "ssimo": 6233,
  "isti": 6234,
  "\u2581avete": 6235,
  "\u2581plui": 6236,
  "\u2581dose": 6237,
  "\u2581propre": 6238,
  "lot": 6239,
  "oli": 6240,
  "\u2581abo": 6241,
  "\u2581buena": 6242,
  "\u2581selecci\u00f3n": 6243,
  "\u2581veu": 6244,
  "\u2581examen": 6245,
  "\u2581mm": 6246,
  "\u2581novos": 6247,
  "\u2581Gracias": 6248,
  "\u2581IN": 6249,
  "\u2581risque": 6250,
  "avait": 6251,
  "}": 6252,
  "\u2581Cro": 6253,
  "\u2581orienta": 6254,
  "\u2581lequel": 6255,
  "\u2581travers": 6256,
  "\u2581communautaire": 6257,
  "\u2581gaz": 6258,
  "\u2581rege": 6259,
  "\u2581adev\u0103rat": 6260,
  "\u2581formaci\u00f3n": 6261,
  "\u2581paus": 6262,
  "\u2581pedir": 6263,
  "dom": 6264,
  "\u2581rela": 6265,
  "\u2581Sposta": 6266,
  "Li": 6267,
  "\u2581participa": 6268,
  "out": 6269,
  "\u2581pagamento": 6270,
  "\u2581indicar": 6271,
  "nit": 6272,
  "\u2581a\u00fan": 6273,
  "\u2581responsable": 6274,
  "\")": 6275,
  "\u2581proprie": 6276,
  "\u2581interpreta": 6277,
  "\u2581deseja": 6278,
  "\u2581Spe": 6279,
  "\u2581comporta": 6280,
  "\u2581trovare": 6281,
  "tras": 6282,
  "yin": 6283,
  "\u2581Unde": 6284,
  "\u2581agi": 6285,
  "\u2581enquanto": 6286,
  "\u2581algum": 6287,
  "\u2581outre": 6288,
  "bilitat": 6289,
  "ther": 6290,
  "\u2581Despu\u00e9s": 6291,
  "\u2581dedica": 6292,
  "\u2581tentar": 6293,
  "\u2581prazo": 6294,
  "\u2581noviembre": 6295,
  "\u2581Celui": 6296,
  "\u2581r\u00e9gimen": 6297,
  "\u2581seri": 6298,
  "\u2581fabrica": 6299,
  "\u2581Qua": 6300,
  "\u2581Cur": 6301,
  "yes": 6302,
  "\u2581aplicaciones": 6303,
  "\u2581offre": 6304,
  "len": 6305,
  "\u2581aquella": 6306,
  "\u2581cuerpo": 6307,
  "fond": 6308,
  "\u2581(2)": 6309,
  "\u2581lontan": 6310,
  "2009": 6311,
  "\u2581parecer": 6312,
  "boli": 6313,
  "\u2581juego": 6314,
  "\u2581ma\u00f1ana": 6315,
  "qu\u00ed": 6316,
  "\u2581triste": 6317,
  "IL": 6318,
  "99": 6319,
  "\u2581//": 6320,
  "\u2581Nord": 6321,
  "\u2581poter": 6322,
  "\u2581muitas": 6323,
  "vient": 6324,
  "\u2581nadie": 6325,
  "\u2581comit\u00e9": 6326,
  "\u2581Signor": 6327,
  "\u2581hist\u00f3rico": 6328,
  "plo": 6329,
  "\u2581procede": 6330,
  "\u2581especifica": 6331,
  "\u2581serve": 6332,
  "\u2581lung": 6333,
  "\u2581manje": 6334,
  "berg": 6335,
  "\u2581inima": 6336,
  "\u2581expecta": 6337,
  "\u2581disposiciones": 6338,
  "\u2581entreprises": 6339,
  "ksyon": 6340,
  "\u2581bureau": 6341,
  "circo": 6342,
  "\u2581doute": 6343,
  "\u2581ber": 6344,
  "\u2581reforma": 6345,
  "\u2581constante": 6346,
  "\u2581applicazione": 6347,
  "\u2581puc": 6348,
  "\u2581hotel": 6349,
  "75": 6350,
  "\u2581chwazi": 6351,
  "\u2581aeternum": 6352,
  "\u2581devenu": 6353,
  "ep": 6354,
  "\u2581nello": 6355,
  "\u2581zonas": 6356,
  "\u2581Met": 6357,
  "rvi": 6358,
  "\u2581tendr\u00e1": 6359,
  "\u2581Op": 6360,
  "\u2581laisser": 6361,
  "\u2581pure": 6362,
  "\u2581muni": 6363,
  "posto": 6364,
  "\u2581commune": 6365,
  "\u2581cores": 6366,
  "\u2581esprit": 6367,
  "\u2581idioma": 6368,
  "dina": 6369,
  "\u2581manos": 6370,
  "\u2581aunque": 6371,
  "\u2581fii": 6372,
  "pti": 6373,
  "\u2581corso": 6374,
  "\u2581publique": 6375,
  "\u2581reali": 6376,
  "\u2581assez": 6377,
  "39": 6378,
  "\u2581v\u0103d": 6379,
  "\u2581\u00eenapoi": 6380,
  "\u2581dunque": 6381,
  "\u2581source": 6382,
  "ctum": 6383,
  "\u00bb)": 6384,
  "\u2581Lorsque": 6385,
  "\u00edda": 6386,
  "\u2581piano": 6387,
  "SS": 6388,
  "\u2581ingredi": 6389,
  "fet": 6390,
  "\u2581gradi": 6391,
  "\u2581Acc": 6392,
  "\u2581\u00e9tant": 6393,
  "tour": 6394,
  "Qui\u00e9n": 6395,
  "\u2581\u00e1reas": 6396,
  "\u2581p\u00e9ch\u00e9": 6397,
  "\u2581and": 6398,
  "\u2581nissun": 6399,
  "\u2581preche": 6400,
  "\u2581mecum": 6401,
  "\u2581boton": 6402,
  "tten": 6403,
  "\u2581lit": 6404,
  "\u2581tren": 6405,
  "g\u00fce": 6406,
  "\u2581far\u00e0": 6407,
  "\u2581obtenir": 6408,
  "98": 6409,
  "\u2581civile": 6410,
  "85": 6411,
  "\u2581nega": 6412,
  "\u2581patres": 6413,
  "\u2581UN": 6414,
  "\u2581m\u00e3os": 6415,
  "\u2581mali": 6416,
  "\u25811990": 6417,
  "\u2581humano": 6418,
  "\u2581quarto": 6419,
  "dine": 6420,
  "\u2581Dor": 6421,
  "\u2581Convenio": 6422,
  "\u2581domanda": 6423,
  "\u2581nouveaux": 6424,
  "\u2581compila": 6425,
  "\u2581spui": 6426,
  "\u2581gravi": 6427,
  "\u2581nord": 6428,
  "\u2581sembla": 6429,
  "\u2581humana": 6430,
  "2005": 6431,
  "oni": 6432,
  "vert": 6433,
  "\u2581acabar": 6434,
  "\u2581record": 6435,
  "\u2581octubre": 6436,
  "\u2581roga": 6437,
  "\u2581amico": 6438,
  "\u2581valide": 6439,
  "\u2581vorbit": 6440,
  "\u2581efficace": 6441,
  "\u2581Anche": 6442,
  "\u2581VI": 6443,
  "\u2581m\u00eena": 6444,
  "\u2581Iesum": 6445,
  "\u2581capacidad": 6446,
  "gla": 6447,
  "\u2581sette": 6448,
  "\u2581faites": 6449,
  "\u2581Apri": 6450,
  "cade": 6451,
  "\u2581simile": 6452,
  "itude": 6453,
  "cera": 6454,
  "\u2581registra": 6455,
  "just": 6456,
  "\u2581professional": 6457,
  "\u2581Ficheiro": 6458,
  "\u2581pue": 6459,
  "\u2581hominem": 6460,
  "\u2581Tendo": 6461,
  "\u2581conti": 6462,
  "hai": 6463,
  "\u2581Anti": 6464,
  "\u2581aparece": 6465,
  "\u2581m\u00ednima": 6466,
  "\u2581morts": 6467,
  "\u2581fa\u0163\u0103": 6468,
  "\u2581spar": 6469,
  "tives": 6470,
  "trans": 6471,
  "\u2581exterior": 6472,
  "\u2581plen": 6473,
  "\u2581esiste": 6474,
  "\u2581repos": 6475,
  "\u2581notte": 6476,
  "\u2581actions": 6477,
  "reu": 6478,
  "\u2581Grande": 6479,
  "\u2581Regulamentul": 6480,
  "\u00e1tica": 6481,
  "\u258112:": 6482,
  "utilisation": 6483,
  "oke": 6484,
  "\u2581canta": 6485,
  "\u015fe": 6486,
  "\u2581paquetes": 6487,
  "\u2581crime": 6488,
  "\u2581iste": 6489,
  "\u2581directamente": 6490,
  "\u2581jodi": 6491,
  "\u2581demontre": 6492,
  "\u2581tabernaculi": 6493,
  "\u2581pacto": 6494,
  "\u2581t\u0103i": 6495,
  "\u00e9tica": 6496,
  "\u2581ser\u00eda": 6497,
  "\u2581zo": 6498,
  "\u2581vende": 6499,
  "\u2581gn\u00fbf": 6500,
  "ier": 6501,
  "fan": 6502,
  "\u2581Pai": 6503,
  "\u2581secret": 6504,
  "\u2581Santo": 6505,
  "\u2581Eis": 6506,
  "\u2581via\u0163a": 6507,
  "\u2581artigos": 6508,
  "r\u00f4": 6509,
  "\u2581Tem": 6510,
  "\u2581alem\u00e1n": 6511,
  "ET": 6512,
  "\u2581investigaci\u00f3n": 6513,
  "\u2581ventanas": 6514,
  "\u2581Juan": 6515,
  "\u2581Essa": 6516,
  "RO": 6517,
  "\u2581duc": 6518,
  "\u2581sist\u00e8ma": 6519,
  "\u2581simples": 6520,
  "\u2581nuevos": 6521,
  "\u2581arro": 6522,
  "\u2581Eliminar": 6523,
  "\u2581Tur": 6524,
  "ologie": 6525,
  "45": 6526,
  "\u2581consumo": 6527,
  "ill\u00e9": 6528,
  "\u2581infer": 6529,
  "\u2581reg": 6530,
  "\u2581derni\u00e8re": 6531,
  "rdo": 6532,
  "\u2581ordine": 6533,
  "\u2581aufer": 6534,
  "\u2581Aucun": 6535,
  "\u2581Cel": 6536,
  "cel": 6537,
  "\u2581Parole": 6538,
  "43": 6539,
  "meni": 6540,
  "cche": 6541,
  "\u2581IP": 6542,
  "\u2581morir": 6543,
  "\u2581gouvernement": 6544,
  "\u2581honor": 6545,
  "main": 6546,
  "\u2581Scovacere": 6547,
  "\u2581precedente": 6548,
  "\u2581constitue": 6549,
  "\u2581im\u00e5dje": 6550,
  "EM": 6551,
  "\u2581cuesti\u00f3n": 6552,
  "\u2581puerta": 6553,
  "\u2581Ama": 6554,
  "2013": 6555,
  "\u2581vedea": 6556,
  "lib": 6557,
  "rado": 6558,
  "\u2581establecer": 6559,
  "\u2581IV": 6560,
  "fico": 6561,
  "\u2581Egli": 6562,
  "\u2581stringhe": 6563,
  "\u2581disposizioni": 6564,
  "\u2581Tema": 6565,
  "lico": 6566,
  "vida": 6567,
  "\u2581quant": 6568,
  "\u2581revert": 6569,
  "\u2581China": 6570,
  "\u2581p\u00f3": 6571,
  "\u2581har\u00e1": 6572,
  "bin": 6573,
  "sider": 6574,
  "\u2581form": 6575,
  "fir": 6576,
  "\u2581salvar": 6577,
  "\u2581latino": 6578,
  "\u2581d\u00e9cembre": 6579,
  "\u2581jornada": 6580,
  "\u2581fissa": 6581,
  "tr\u00f3": 6582,
  "timo": 6583,
  "\u2581legi": 6584,
  "\u2581apar": 6585,
  "\u2581contrario": 6586,
  "\u2581ridant": 6587,
  "\u00edveis": 6588,
  "dje": 6589,
  "\u2060": 6590,
  "\u2581Temp": 6591,
  "\u2581iustus": 6592,
  "\u2581po\u0163i": 6593,
  "\u00c3": 6594,
  "\u2581ferramentas": 6595,
  "\u2581aliquid": 6596,
  "\u2581successo": 6597,
  "\u2581memor": 6598,
  "89": 6599,
  "\u2581escribir": 6600,
  "\u2581Bur": 6601,
  "\u2581vivre": 6602,
  "\u2581specifica": 6603,
  "\u2581Estas": 6604,
  "\u2581lauda": 6605,
  "\u2581app": 6606,
  "\u2581comuni": 6607,
  "\u2581juge": 6608,
  "\u2581vre": 6609,
  "\u2581passo": 6610,
  "\u2581serveur": 6611,
  "\u2581morrer": 6612,
  "m\u00e8t": 6613,
  "\u2581provi": 6614,
  "\u2581Tras": 6615,
  "\u2581tel": 6616,
  "t\u00f3ria": 6617,
  "\u2581primit": 6618,
  "\u2581voulez": 6619,
  "log": 6620,
  "\u2581pont": 6621,
  "\u2581totale": 6622,
  "\u2581Scorciatoia": 6623,
  "scrit": 6624,
  "\u2581mail": 6625,
  "star": 6626,
  "\u2581Pan": 6627,
  "\u2581URI": 6628,
  "\u258115.": 6629,
  "get": 6630,
  "\u2581mijlocul": 6631,
  "\u2581progetto": 6632,
  "Pre": 6633,
  "ette": 6634,
  "ah": 6635,
  "aron": 6636,
  "\u2581costa": 6637,
  "\u2581holocausto": 6638,
  "\u2581cima": 6639,
  "\u2581\u00e2mbito": 6640,
  "\u2581uxor": 6641,
  "\u2581Aegypto": 6642,
  "\u2581cr\u00e9er": 6643,
  "\u2581especificar": 6644,
  "\u2581Produ": 6645,
  "aca": 6646,
  "\u00e9ncia": 6647,
  "\u2581d\u00fb": 6648,
  "press": 6649,
  "\u2581exemplu": 6650,
  "\u2581homines": 6651,
  "\u2581accipi": 6652,
  "bilis": 6653,
  "pio": 6654,
  "\u2581personnel": 6655,
  "\u2581mostrade": 6656,
  "\u2581\u00c1frica": 6657,
  "\u2581NO": 6658,
  "mientu": 6659,
  "\u2581cuidado": 6660,
  "\u2581lleva": 6661,
  "\u2581Desde": 6662,
  "\u2581pequeno": 6663,
  "\u2581gestione": 6664,
  "blo": 6665,
  "simo": 6666,
  "ssez": 6667,
  "\u2581promis": 6668,
  "rais": 6669,
  "\u2581banca": 6670,
  "\u2581choisi": 6671,
  "\u2581net": 6672,
  "jos": 6673,
  "\u2581quinquaginta": 6674,
  "\u2581podia": 6675,
  "ille": 6676,
  "\u2581Bene": 6677,
  "\u2581justicia": 6678,
  "\u2581relativamente": 6679,
  "\u2581dom\u00e8n": 6680,
  "UT": 6681,
  "\u2581im\u00e1genes": 6682,
  "\u2581plaga": 6683,
  "scar": 6684,
  "\u2581contrase\u00f1a": 6685,
  "\u2581estilo": 6686,
  "\u2581Ob": 6687,
  "t\u00e9n": 6688,
  "\u2581Moi": 6689,
  "\u2581infatti": 6690,
  "\u2581esperar": 6691,
  "agit": 6692,
  "\u2581legis": 6693,
  "ind": 6694,
  "c\u00eda": 6695,
  "\u2581comunitaria": 6696,
  "tons": 6697,
  "\u2581enero": 6698,
  "\u2581prese": 6699,
  "\u2581fruto": 6700,
  "\u2581Mosi": 6701,
  "r\u00e8s": 6702,
  "\u2581Euro": 6703,
  "lam": 6704,
  "cies": 6705,
  "\u2581taxa": 6706,
  "imp": 6707,
  "\u2581poich\u00e9": 6708,
  "\u2581Cos\u00ec": 6709,
  "LI": 6710,
  "\u2581national": 6711,
  "mou": 6712,
  "rentur": 6713,
  "49": 6714,
  "\u2581fecisti": 6715,
  "\u2581trece": 6716,
  "\u2581cooperaci\u00f3n": 6717,
  "\u2581pin": 6718,
  "\u2581vocavit": 6719,
  "\u2581Mou": 6720,
  "duto": 6721,
  "\u2581schermo": 6722,
  "\u2581termes": 6723,
  "AC": 6724,
  "\u2581lascia": 6725,
  "\u2581ajut": 6726,
  "\u2581llamada": 6727,
  "\u2581paquete": 6728,
  "03": 6729,
  "\u2581exa": 6730,
  "\u2581junio": 6731,
  "\u2581credit": 6732,
  "\u2581convertir": 6733,
  "\u2581kay": 6734,
  "SI": 6735,
  "\u2581projets": 6736,
  "\u2581introdu": 6737,
  "2,": 6738,
  "\u2581demander": 6739,
  "\u2581sitiyasyon": 6740,
  "\u2581derecha": 6741,
  "\u2581siglo": 6742,
  "\u2581Mat": 6743,
  "\u2581prendere": 6744,
  "\u2581Territorial": 6745,
  "\u2581lettera": 6746,
  "air": 6747,
  "\u2581leve": 6748,
  "ED": 6749,
  "\u2581\u015fapte": 6750,
  "\u2581servi\u00e7o": 6751,
  "\u2581femei": 6752,
  "\u2581armas": 6753,
  "\u2581bo\u00eete": 6754,
  "\u2581valle": 6755,
  "\u2581creaci\u00f3n": 6756,
  "r\u00f3n": 6757,
  "\u2581Veuillez": 6758,
  "\u2581mette": 6759,
  "\u2581lan\u00e7a": 6760,
  "\u2581roman": 6761,
  "\u2581nostres": 6762,
  "\u2581Hora": 6763,
  "\u2581Cambiar": 6764,
  "\u2581produto": 6765,
  "\u2581fa\u0163a": 6766,
  "\u2581dret": 6767,
  "\u2581festa": 6768,
  "\u258116.": 6769,
  "gente": 6770,
  "nar": 6771,
  "\u2581cuant": 6772,
  "bl": 6773,
  "\u2581adoptar": 6774,
  "\u2581mudar": 6775,
  "\u2581Fabrica": 6776,
  "\u2581vini": 6777,
  "\u2581manual": 6778,
  "\u2581arde": 6779,
  "\u2581abundante": 6780,
  "\u2581reges": 6781,
  "\u2581utiliza\u00e7\u00e3o": 6782,
  "\u2581llinia": 6783,
  "\u2581qualcuno": 6784,
  "\u258143": 6785,
  "\u2581fotos": 6786,
  "\u2581homes": 6787,
  "\u2581Personal": 6788,
  "\u2581detalles": 6789,
  "\u2581apoio": 6790,
  "\u2581misura": 6791,
  "\u2581rappresenta": 6792,
  "\u2581regras": 6793,
  "\u2581depende": 6794,
  "\u2581radar": 6795,
  "\u2581Deve": 6796,
  "ncias": 6797,
  "\u2581prote": 6798,
  "\u2581Far": 6799,
  "\u2581Direcci\u00f3n": 6800,
  "\u2581N\u00e9": 6801,
  "\u2581bande": 6802,
  "26": 6803,
  "\u2581300": 6804,
  "100": 6805,
  "arca": 6806,
  "\u2581sti": 6807,
  "\u2581preuve": 6808,
  "\u2581H\u00e9": 6809,
  "\u2581Doamne": 6810,
  "tron": 6811,
  "\u2581congregaci\u00f3n": 6812,
  "\u2581passare": 6813,
  "\u2581azion": 6814,
  "\u2581image": 6815,
  "\u25811\"": 6816,
  "\u2581tinc": 6817,
  "tionibus": 6818,
  "1)": 6819,
  "\u2581cr\u00e9dito": 6820,
  "\u25811993": 6821,
  "\u2581regard": 6822,
  "\u2581esquerda": 6823,
  "\u2581aqua": 6824,
  "\u2581schi": 6825,
  "\u2581anciens": 6826,
  "\u2581contiene": 6827,
  "\u2581conter": 6828,
  "\u2581erreur": 6829,
  "\u2581mense": 6830,
  "\u2581espa\u00e7o": 6831,
  "\u2581devora": 6832,
  "55": 6833,
  "\u2581suivi": 6834,
  "\u2581Filtro": 6835,
  "\u2581m\u00e9dico": 6836,
  "\u2581projecte": 6837,
  "\u0163ion": 6838,
  "\u2581mag": 6839,
  "\u2581Image": 6840,
  "ixi": 6841,
  "\u2581r\u00e9sultats": 6842,
  "mat": 6843,
  "\u2581alarma": 6844,
  "\u258144": 6845,
  "\u2581continuer": 6846,
  "nge": 6847,
  "\u2581efeitos": 6848,
  "\u2581invia": 6849,
  "\u2581militar": 6850,
  "\u2581nenhum": 6851,
  "\u2581haci": 6852,
  "\u2581Ban": 6853,
  "\u2581six": 6854,
  "\u258146": 6855,
  "\u2581titolo": 6856,
  "\u00e2ts": 6857,
  "\u2581candidat": 6858,
  "\u2581Foto": 6859,
  "\u2581appare": 6860,
  "\u2581aplicazion": 6861,
  "\u2581Configuration": 6862,
  "\u2581fallu": 6863,
  "\u2581sacerdos": 6864,
  "\u2581fitxers": 6865,
  "\u2581stri": 6866,
  "\u2581mica": 6867,
  "france": 6868,
  "\u2581segur": 6869,
  "\u2581ter\u00e1": 6870,
  "forme": 6871,
  "quia": 6872,
  "\u2581descendit": 6873,
  "\u2581vester": 6874,
  "\u2581vivant": 6875,
  "anza": 6876,
  "\u2581animali": 6877,
  "c\u00f4": 6878,
  "parta": 6879,
  "\u2581maris": 6880,
  "\u2581objectifs": 6881,
  "nii": 6882,
  "\u2581presso": 6883,
  "\u2581qualidade": 6884,
  "bula": 6885,
  "\u2581possiamo": 6886,
  "\u2581lux": 6887,
  "\u2581pr\u00f3xima": 6888,
  "\u2581heures": 6889,
  "\u2581gentibus": 6890,
  "\u2581consolida": 6891,
  "lare": 6892,
  "\u2581aumenta": 6893,
  "\u2581d\u00e8s": 6894,
  "\u2581troppo": 6895,
  "\u2581villes": 6896,
  "\u258117.": 6897,
  "\u2581bucur": 6898,
  "\u2581formas": 6899,
  "\u2581copiii": 6900,
  "\u2581cana": 6901,
  "a\u00fbr": 6902,
  "\u2581agro": 6903,
  "\u2581seguito": 6904,
  "\u2581meos": 6905,
  "\u2581Unha": 6906,
  "\u2581mayor\u00eda": 6907,
  "\u2581Poli": 6908,
  "\u2581sein": 6909,
  "\u2581signa": 6910,
  "\u2581Desactivar": 6911,
  "\u2581consul": 6912,
  "anima": 6913,
  "ilha": 6914,
  "\u2581acaba": 6915,
  "tel": 6916,
  "\u258139": 6917,
  "cios": 6918,
  "\u2581saluta": 6919,
  "\u2581torrent": 6920,
  "\u00e9ration": 6921,
  "\u2581Nom\u00e9s": 6922,
  "\u2581conveni": 6923,
  "\u2581cr\u00e9ation": 6924,
  "venu": 6925,
  "\u2581regulament": 6926,
  "\u2581trovato": 6927,
  "\u2581ascolta": 6928,
  "\u2581respuesta": 6929,
  "\u2581suc": 6930,
  "\u2581testimonium": 6931,
  "\u2581client": 6932,
  "\u2581Parece": 6933,
  "\u2581Sans": 6934,
  "\u2581privire": 6935,
  "\u2581chamado": 6936,
  "\u2581amo": 6937,
  "\u2581mellor": 6938,
  "\u2581diferencia": 6939,
  "\u2581vii": 6940,
  "\u2581usato": 6941,
  "\u2581Er\u00f4r": 6942,
  "\u2581101": 6943,
  "\u2581Babilonia": 6944,
  "fie": 6945,
  "\u2581dunha": 6946,
  "\u2581vento": 6947,
  "\u2581pubblica": 6948,
  "\u2581disponibili": 6949,
  "\u2581operi": 6950,
  "estat": 6951,
  "illes": 6952,
  "\u2581strada": 6953,
  "\u2581inmenu": 6954,
  "\u2581servei": 6955,
  "\u2581Posici\u00f3n": 6956,
  "\u2581nimeni": 6957,
  "\u2581permisos": 6958,
  "\u2581firme": 6959,
  "\u2581famiglia": 6960,
  "erint": 6961,
  "\u2581locales": 6962,
  "\u2581seg\u00fcents": 6963,
  "\u2581regional": 6964,
  "\u2581tribunal": 6965,
  "\u2581moral": 6966,
  "h\u00e1": 6967,
  "\u2581operaci\u00f3n": 6968,
  "\u2581interesa": 6969,
  "\u2581bibe": 6970,
  "\u2581plas": 6971,
  "\u2581usada": 6972,
  "\u2581pod\u00eda": 6973,
  "edje": 6974,
  "\u2581Data": 6975,
  "\u2581alrededor": 6976,
  "\u2581migra": 6977,
  "\u2581trono": 6978,
  "Membro": 6979,
  "\u2581caelum": 6980,
  "vez": 6981,
  "\u2581j\u00e8n": 6982,
  "\u2581salida": 6983,
  "\u2581Departamento": 6984,
  "tari": 6985,
  "mag": 6986,
  "\u2581amis": 6987,
  "\u2581dicere": 6988,
  "48": 6989,
  "\u2581pedes": 6990,
  "\u2581civitate": 6991,
  "\u2581gason": 6992,
  "\u2581patrem": 6993,
  "posta": 6994,
  "\u2581accesso": 6995,
  "\u2581plat": 6996,
  "\u2581r\u00e9seau": 6997,
  "gunt": 6998,
  "pid": 6999,
  "\u2581totul": 7000,
  "temp": 7001,
  "\u2581passat": 7002,
  "\u2581applica": 7003,
  "\u2581sedi": 7004,
  "\u2581vasa": 7005,
  "izada": 7006,
  "tier": 7007,
  "\u2581tamen": 7008,
  "untur": 7009,
  "rus": 7010,
  "\u2581casas": 7011,
  "\u2581montem": 7012,
  "\u2581gratia": 7013,
  "\u2581p\u00fablicas": 7014,
  "Do": 7015,
  "\u2581Vo": 7016,
  "\u2581r\u00e8gles": 7017,
  "\u2581definido": 7018,
  "rc": 7019,
  "\u2581BCE": 7020,
  "\u2581O\u00f9": 7021,
  "\u2581familias": 7022,
  "AD": 7023,
  "\u2581Corre": 7024,
  "far": 7025,
  "\u2581Ori": 7026,
  "\u2581GenericName": 7027,
  "\u2581seg\u00fcent": 7028,
  "\u2581chama": 7029,
  "\u2581duro": 7030,
  "\u2581pis": 7031,
  "tifica": 7032,
  "\u2581Parte": 7033,
  "\u2581tempio": 7034,
  "\u2581Mari": 7035,
  "\u2581necessita": 7036,
  "\u00e9t\u00e9": 7037,
  "abel": 7038,
  "\u2581promet": 7039,
  "gine": 7040,
  "\u2581llibre": 7041,
  "\u2581selezionato": 7042,
  "\u2581voto": 7043,
  "\u2581missatge": 7044,
  "\u2581d\u00e9fini": 7045,
  "\u2581aplicazions": 7046,
  "\u2581Errore": 7047,
  "\u2581noastr\u0103": 7048,
  "\u2581sesiones": 7049,
  "\u2581oltre": 7050,
  "\u2581taille": 7051,
  "\u2581cap\u00edtulo": 7052,
  "\u2581trattato": 7053,
  "\u2581fide": 7054,
  "\u2581speciale": 7055,
  "\u2581enlace": 7056,
  "\u2581estes": 7057,
  "\u2581manifeste": 7058,
  "\u2581espadas": 7059,
  "t\u00f3n": 7060,
  "\u2581tol": 7061,
  "\u2581faccia": 7062,
  "\u2581Donc": 7063,
  "\u2581{": 7064,
  "\u2581carattere": 7065,
  "\u2581Mis": 7066,
  "\u2581faciet": 7067,
  "origine": 7068,
  "\u2581legem": 7069,
  "\u2581sentit": 7070,
  "\u2581eje": 7071,
  "\u2581venga": 7072,
  "46": 7073,
  "\u2581gn": 7074,
  "\u258110,": 7075,
  "\u2581Cour": 7076,
  "\u2581fratello": 7077,
  "\u2581rapide": 7078,
  "rma": 7079,
  "\u2581audit": 7080,
  "\u2581dispuesto": 7081,
  "\u258142": 7082,
  "\u2581mucha": 7083,
  "\u25812016": 7084,
  "\u2581xu": 7085,
  "bou": 7086,
  "\u2581Israeliti": 7087,
  "\u2581ouvir": 7088,
  "\u2581a\u00ed": 7089,
  "Ho": 7090,
  "\u2581mantener": 7091,
  "\u2581iniquitatem": 7092,
  "\u2581Conta": 7093,
  "\u2581muta": 7094,
  "\u2581haciendo": 7095,
  "cole": 7096,
  "arte": 7097,
  "\u2581superficie": 7098,
  "fac": 7099,
  "\u2581promo": 7100,
  "\u2581Eles": 7101,
  "\u2581captura": 7102,
  "itatem": 7103,
  "12.": 7104,
  "mientos": 7105,
  "\u2581p\u0103m\u00eent": 7106,
  "\u2581log": 7107,
  "cup": 7108,
  "\u2581champ": 7109,
  "92": 7110,
  "\u2581establece": 7111,
  "\u2581irm\u00e3os": 7112,
  "\u2581titular": 7113,
  "\u2581facit": 7114,
  "\u2581estavam": 7115,
  "\u2581sp\u00e9cial": 7116,
  "\u2581Novo": 7117,
  "\u2581subir": 7118,
  "\u2581lucrurile": 7119,
  "[": 7120,
  "\u2581situazione": 7121,
  "\u2581Mos": 7122,
  "\u2581societ\u00e0": 7123,
  "eg": 7124,
  "ek": 7125,
  "\u2581previa": 7126,
  "\u2581\u00e9tat": 7127,
  "\u2581Nouveau": 7128,
  "2001": 7129,
  "fr": 7130,
  "ec": 7131,
  "\u2581diritti": 7132,
  "\u2581Quanto": 7133,
  "\u2581estableix": 7134,
  "kri": 7135,
  "ann\u00e9e": 7136,
  "iera": 7137,
  "ordin": 7138,
  "\u2581SE": 7139,
  "\u2581curso": 7140,
  "cept": 7141,
  "\u2581motiva": 7142,
  "\u2581diminu": 7143,
  "\u2581estrutura": 7144,
  "\u2581permette": 7145,
  "\u2581Deixa": 7146,
  "\u2581Imp": 7147,
  "\u2581governa": 7148,
  "\u2581coin": 7149,
  "\u2581Tama\u00f1o": 7150,
  "\u2581produ\u00e7\u00e3o": 7151,
  "\u2581cerc": 7152,
  "\u2581pari": 7153,
  "riez": 7154,
  "ici\u00f3n": 7155,
  "\u2581adicional": 7156,
  "\u2581voici": 7157,
  "stante": 7158,
  "\u2581Monsieur": 7159,
  "\u2581cinci": 7160,
  "\u2581relatives": 7161,
  "lly": 7162,
  "til": 7163,
  "\u2581copie": 7164,
  "\u2581necesidad": 7165,
  "aje": 7166,
  "\u2581pila": 7167,
  "\u2581habebat": 7168,
  "\u2581Kar": 7169,
  "\u2581telle": 7170,
  "\u2581igualmente": 7171,
  "date": 7172,
  "yez": 7173,
  "\u2581solicitud": 7174,
  "\u2581algunas": 7175,
  "\u2581locale": 7176,
  "\u2581cifra": 7177,
  "ades": 7178,
  "\u2581iura": 7179,
  "\u2581Claro": 7180,
  "\u2581immagini": 7181,
  "\u2581dici": 7182,
  "\u2581oggetto": 7183,
  "k\u00f2": 7184,
  "\u2581investiga": 7185,
  "\u2581mili": 7186,
  "Des": 7187,
  "\u2581immagine": 7188,
  "\u2581C\u00eend": 7189,
  "\u2581C\u00e2nd": 7190,
  "\u2581lectura": 7191,
  "\u2581moglie": 7192,
  "tage": 7193,
  "\u2581Anchura": 7194,
  "\u2581altera\u00e7\u00f5es": 7195,
  "\u2581entender": 7196,
  "\u2581comen\u00e7ar": 7197,
  "\u2581meilleur": 7198,
  "\u2581salir": 7199,
  "rom": 7200,
  "\u00f4n": 7201,
  "\u2581administrativo": 7202,
  "\u2581interes": 7203,
  "\u2581konfyans": 7204,
  "\u2581don": 7205,
  "\u2581proc\u00e9dure": 7206,
  "\u258100": 7207,
  "\u2581disposicion": 7208,
  "\u2581tr\u0103i": 7209,
  "\u2581dat\u0103": 7210,
  "\u2581esas": 7211,
  "l\u00e9s": 7212,
  "\u2581izquierda": 7213,
  "\u2581Apoi": 7214,
  "immagine": 7215,
  "\u2581semanas": 7216,
  "\u00f6": 7217,
  "\u2581mensaxes": 7218,
  "axe": 7219,
  "\u2581verum": 7220,
  "edi": 7221,
  "\u2581nacionales": 7222,
  "mail": 7223,
  "\u2581Formato": 7224,
  "\u2581feliz": 7225,
  "\u2581usu": 7226,
  "\"?": 7227,
  "\u2581ambos": 7228,
  "\u2581adapta": 7229,
  "\u2581sapere": 7230,
  "\u2581espi": 7231,
  "giu": 7232,
  "\u2581a\u015f": 7233,
  "\u2581avuto": 7234,
  "\u2581caro": 7235,
  "\u2581indique": 7236,
  "\u2581objetivos": 7237,
  "\u2581l\u00e8z\u00f2m": 7238,
  "94": 7239,
  "\u2581ingressus": 7240,
  "65": 7241,
  "\u2581Philisthim": 7242,
  "\u2581p\u0103": 7243,
  "\u2581giustizia": 7244,
  "dera": 7245,
  "\u2581alineatul": 7246,
  "\u2581Import": 7247,
  "\u2581utent": 7248,
  "\u2581comprendre": 7249,
  "\u2581profesional": 7250,
  "\u2581peur": 7251,
  "\u2581diagrama": 7252,
  "\u2581Van": 7253,
  "\u2581messages": 7254,
  "\u2581Parce": 7255,
  "cimento": 7256,
  "bina": 7257,
  "\u2581Manasse": 7258,
  "66": 7259,
  "\u2581pane": 7260,
  "\u2581credo": 7261,
  "\u2581temas": 7262,
  "\u2581bois": 7263,
  "\u2581disposi\u00e7\u00f5es": 7264,
  "\u2581comun": 7265,
  "\u2581ansyen": 7266,
  "ral": 7267,
  "\u2581cach\u00e9": 7268,
  "\u2581lakay": 7269,
  "\u2581autoriza": 7270,
  "ub": 7271,
  "\u2581justifica": 7272,
  "\u2581vitae": 7273,
  "\u2581restante": 7274,
  "\u2581\u00eemp\u0103ratului": 7275,
  "\u2581retour": 7276,
  "\u0103rile": 7277,
  "\u2581here": 7278,
  "verat": 7279,
  "\u2581entidades": 7280,
  "erta": 7281,
  "\u2581ak\u00ed": 7282,
  "\u2581passi": 7283,
  "\u2581semen": 7284,
  "\u2581Pulse": 7285,
  "\u2581deber\u00e1": 7286,
  "\u2581puedes": 7287,
  "\u2581custodia": 7288,
  "lasyon": 7289,
  "\u2581guia": 7290,
  "bida": 7291,
  "\u2581pui": 7292,
  "\u2581a\u0163i": 7293,
  "\u2581gio": 7294,
  "endi": 7295,
  "\u2581ouvi": 7296,
  "\u2581mese": 7297,
  "\u2581ok": 7298,
  "\u2581Bol": 7299,
  "\u2581dinheiro": 7300,
  "\u2581calcul": 7301,
  "\u2581proces": 7302,
  "\u2581ningu\u00e9m": 7303,
  "\u2581exalta": 7304,
  "neu": 7305,
  "\u2581Monte": 7306,
  "\u2581k\u00f2": 7307,
  "\u2581inclina": 7308,
  "\u2581livro": 7309,
  "k\u00e1": 7310,
  "\u2581Kiko": 7311,
  "\u2581noster": 7312,
  "\u2581Fichier": 7313,
  "\u2581normale": 7314,
  "r\u00e9s": 7315,
  "\u2581gracias": 7316,
  "\u2581vine": 7317,
  "\u2581amici": 7318,
  "\u2581taux": 7319,
  "\u2581perdu": 7320,
  "\u2581sociales": 7321,
  "u\u015f": 7322,
  "lici": 7323,
  "\u2581dixo": 7324,
  "\u2581urma": 7325,
  "AM": 7326,
  "\u2581Pr": 7327,
  "tribus": 7328,
  "assembl": 7329,
  "\u258110:": 7330,
  "\u2581deseo": 7331,
  "objet": 7332,
  "\u2581r\u0103s": 7333,
  "erea": 7334,
  "\u2581meteo": 7335,
  "68": 7336,
  "\u2581May\u00fas": 7337,
  "\u2581Zo": 7338,
  "\u2581rural": 7339,
  "cine": 7340,
  "\u2581niciodat\u0103": 7341,
  "09": 7342,
  "\u2581p\u00e1rrafo": 7343,
  "\u2581Importar": 7344,
  "\u2581fixe": 7345,
  "\u2581connais": 7346,
  "euse": 7347,
  "\u2581M\u00e1s": 7348,
  "\u2581carro": 7349,
  "\u2581pots": 7350,
  "\u2581quattro": 7351,
  "\u2581plut\u00f4t": 7352,
  "\u2581problemi": 7353,
  "\u2581Italia": 7354,
  "\u2581cambios": 7355,
  "\u2581regola": 7356,
  "\u2581fourni": 7357,
  "\u2581rato": 7358,
  "\u2581Partida": 7359,
  "\u2581dormir": 7360,
  "\u2581modifiche": 7361,
  "entr\u00e9e": 7362,
  "\u2581predi": 7363,
  "\u2581model": 7364,
  "GU": 7365,
  "\u2581Sco": 7366,
  "gram": 7367,
  "\u2581fundamental": 7368,
  "\u2581Paulo": 7369,
  "\u2581organizaci\u00f3n": 7370,
  "\u2581graves": 7371,
  "\u2581treballadors": 7372,
  "\u2581cl\u00e9": 7373,
  "\u2581ejecuci\u00f3n": 7374,
  "\u2581certeza": 7375,
  "\u2581pago": 7376,
  "\u2581Especifica": 7377,
  "sistent": 7378,
  "\u2581plupart": 7379,
  "\u2581production": 7380,
  "\u2581Absalom": 7381,
  "lat": 7382,
  "\u2581suorum": 7383,
  "curi": 7384,
  "\u2581ipsa": 7385,
  "\u2581diez": 7386,
  "47": 7387,
  "\u2581Perche": 7388,
  "\u2581mustra": 7389,
  "95": 7390,
  "ego": 7391,
  "\u2581ellas": 7392,
  "ola": 7393,
  "dido": 7394,
  "icamente": 7395,
  "\u2581signifie": 7396,
  "pur": 7397,
  "\u2581Asia": 7398,
  "xen": 7399,
  "bir": 7400,
  "ling": 7401,
  "\u2581matrimonio": 7402,
  "\u2581acesso": 7403,
  "\u2581rug": 7404,
  "\u2581George": 7405,
  "in\u0103": 7406,
  "\u2581Jack": 7407,
  "27": 7408,
  "inte": 7409,
  "y\u00f3": 7410,
  "\u2581fwa": 7411,
  "\u2581Fil": 7412,
  "\u2581adnuntia": 7413,
  "\u2581capaz": 7414,
  "Ti": 7415,
  "lhos": 7416,
  "\u2581duda": 7417,
  "\u2581imprese": 7418,
  "\u2581posside": 7419,
  "\u2581konsidere": 7420,
  "\u2581Joseph": 7421,
  "\u2581statim": 7422,
  "\u2581f\u00f2s": 7423,
  "atus": 7424,
  "\u2581m\u00e9dia": 7425,
  "\u2581documents": 7426,
  "mand": 7427,
  "\u2581cr\u00e9\u00e9": 7428,
  "\u2581nuestras": 7429,
  "\u2581territoire": 7430,
  "\u2581Nada": 7431,
  "\u2581aquae": 7432,
  "\u2581irm\u00e3o": 7433,
  "\u2581Comissi\u00f3": 7434,
  "\u2581s\u00f3c": 7435,
  "\u2581Samuhel": 7436,
  "carga": 7437,
  "\u2581piace": 7438,
  "\u2581poli\u00e7a": 7439,
  "\u2581manibus": 7440,
  "\u2581corrente": 7441,
  "\u2581Sala": 7442,
  "\u2581cultural": 7443,
  "\u2581Generalitat": 7444,
  "\u2581formula": 7445,
  "\u2581somni": 7446,
  "pica": 7447,
  "opera": 7448,
  "\u2581aproape": 7449,
  "all": 7450,
  "\u2581--\u00bf": 7451,
  "\u2581conseil": 7452,
  "\u2581Real": 7453,
  "\u2581leam": 7454,
  "\u2581royaume": 7455,
  "r\u00e2n": 7456,
  "\u2581occupa": 7457,
  "\u2581lumea": 7458,
  "\u2581p\u0103r": 7459,
  "ntis": 7460,
  "\u2581purifica": 7461,
  "\u2581mus": 7462,
  "\u2581Importe": 7463,
  "\u2581dever\u00e1": 7464,
  "\u2581obstante": 7465,
  "\u2581couleur": 7466,
  "annexe": 7467,
  "llement": 7468,
  "NA": 7469,
  "\u2581conformitate": 7470,
  "nous": 7471,
  "Per": 7472,
  "\u2581Page": 7473,
  "\u2581rempli": 7474,
  "\u2581efforts": 7475,
  "\u2581sexual": 7476,
  "\u2581equipa": 7477,
  "\u2581tratamento": 7478,
  "\u2581tradicional": 7479,
  "\u2581CO": 7480,
  "nada": 7481,
  "\u2581radi": 7482,
  "\u2581C\u00f3digo": 7483,
  "\u2581bru": 7484,
  "\u2581hospital": 7485,
  "\u2581posar": 7486,
  "\u2581producci\u00f3n": 7487,
  "inho": 7488,
  "\u2581dues": 7489,
  "\u2581Egito": 7490,
  "\u2581frase": 7491,
  "g\u00eancia": 7492,
  "como": 7493,
  "\u2581Avec": 7494,
  "36": 7495,
  "\u2581decidir": 7496,
  "\u2581visual": 7497,
  "\u2581salv": 7498,
  "\u2581Eva": 7499,
  "\u2581spirituelle": 7500,
  "\u2581questione": 7501,
  "2008": 7502,
  "\u2581a\u00ednda": 7503,
  "\u2581panem": 7504,
  "\u2581vosse": 7505,
  "\u2581manter": 7506,
  "\u2581p\u00e1": 7507,
  "\u2581plecat": 7508,
  "present": 7509,
  "\u2581car\u00e0tar": 7510,
  "\u2581colegament": 7511,
  "\u2581madanm": 7512,
  "\u2581habitatores": 7513,
  "tevi": 7514,
  "\u2581Hei": 7515,
  "\u2581v\u00e1lida": 7516,
  "\u2581geral": 7517,
  "\u2581Sant": 7518,
  "\u2581pr\u00e9sent\u00e9": 7519,
  "\u2581Liste": 7520,
  "\u2581laga": 7521,
  "\u2581p\u00e8s": 7522,
  "\u2581similar": 7523,
  "fis": 7524,
  "\u2581rac": 7525,
  "\u2581ordem": 7526,
  "\u2581cuales": 7527,
  "ppi": 7528,
  "\u2581marido": 7529,
  "\u2581recomenda": 7530,
  "OL": 7531,
  "\u2581S\u00e3o": 7532,
  "ight": 7533,
  "\u2581entradas": 7534,
  "\u2581produ": 7535,
  "ografia": 7536,
  "VI": 7537,
  "\u2581domine": 7538,
  "\u2581tente": 7539,
  "\u2581facilitar": 7540,
  "\u2581Fun": 7541,
  "\u2581doua": 7542,
  "\u2581egzamine": 7543,
  "ssement": 7544,
  "\u2581sincer": 7545,
  "puesta": 7546,
  "gur": 7547,
  "PA": 7548,
  "\u2581dure": 7549,
  "\u2581montant": 7550,
  "uro": 7551,
  "\u2581algumas": 7552,
  "\u2581producto": 7553,
  "\u2581soir": 7554,
  "\u2581cliente": 7555,
  "\u2581peque\u00f1o": 7556,
  "\u2581soporte": 7557,
  "IC": 7558,
  "\u2581Esa": 7559,
  "\u2581qu\u00ea": 7560,
  "\u2581Indicador": 7561,
  "64": 7562,
  "AP": 7563,
  "\u2581Pont": 7564,
  "\u2581Ehi": 7565,
  "\u2581remoto": 7566,
  "ane": 7567,
  "q\u00fc": 7568,
  "\u2581lungo": 7569,
  "\u2581anseye": 7570,
  "\u2581gloriam": 7571,
  "r\u00e2": 7572,
  "\u2581disposici\u00f3n": 7573,
  "\u2581kons\u00e8y": 7574,
  "aris": 7575,
  "id\u00e1": 7576,
  "\u2581aurait": 7577,
  "\u2581computer": 7578,
  "\u2581fratelli": 7579,
  "\u2581omul": 7580,
  "\u2581fuerunt": 7581,
  "\u2581conforta": 7582,
  "\u2581direct": 7583,
  "\u2581fuoco": 7584,
  "\u2581matin": 7585,
  "\u2581demeure": 7586,
  "\u2581cert": 7587,
  "\u2581basa": 7588,
  "\u2581cola": 7589,
  "\u2581r\u00e9pond": 7590,
  "\u2581esos": 7591,
  "\u2581fillo": 7592,
  "miss\u00e3o": 7593,
  "tifs": 7594,
  "\u2581Creo": 7595,
  "\u2581T\u00edtulo": 7596,
  "\u2581coopera": 7597,
  "\u2581filiae": 7598,
  "\u2581mitte": 7599,
  "\u2581Frank": 7600,
  "\u2581\u00e9lev\u00e9": 7601,
  "\u2581connu": 7602,
  "\u2581varios": 7603,
  "isce": 7604,
  "\u2581Yu": 7605,
  "\u2581fuente": 7606,
  "\u2581ap\u00f3stol": 7607,
  "\u2581possibilit\u00e9": 7608,
  "tik": 7609,
  "lega": 7610,
  "\u2581nacionais": 7611,
  "ensi": 7612,
  "cimiento": 7613,
  "\u2581offert": 7614,
  "\u2581celles": 7615,
  "\u2581suit": 7616,
  "\u2581buon": 7617,
  "\u2581perche": 7618,
  "\u2581studi": 7619,
  "\u2581Torne": 7620,
  "\u2581Min": 7621,
  "\u2581Centre": 7622,
  "\u2581cost": 7623,
  "\u2581signore": 7624,
  "\u2581termina": 7625,
  "clo": 7626,
  "\u2581proyectos": 7627,
  "\u2581progressi": 7628,
  "\u2581respondi\u00f3": 7629,
  "\u2581campos": 7630,
  "\u2581tolos": 7631,
  "\u2581savou": 7632,
  "\u2581menti": 7633,
  "ur\u0103": 7634,
  "\u0103toare": 7635,
  "\u2581Passa": 7636,
  "linea": 7637,
  "\u2581esaki": 7638,
  "bine": 7639,
  "\u2581filles": 7640,
  "\u2581fou": 7641,
  "\u2581desconocido": 7642,
  "\u2581mensa": 7643,
  "\u2581fiscal": 7644,
  "\u2581sento": 7645,
  "\u2581n\u00f2": 7646,
  "\u2581oculi": 7647,
  "\u2581objektif": 7648,
  "\u2581\u015f": 7649,
  "\u2581accompli": 7650,
  "\u2581vendi": 7651,
  "\u2581holocaustum": 7652,
  "\u2581aplicare": 7653,
  "\u2581haga": 7654,
  "\u2581educa": 7655,
  "\u2581amplia": 7656,
  "\u2581perfect": 7657,
  "\u2581ferai": 7658,
  "\u2581c\u00e1mara": 7659,
  "2000": 7660,
  "\u2581riesgo": 7661,
  "\u2581present": 7662,
  "\u2581vivir": 7663,
  "abord": 7664,
  "chas": 7665,
  "dito": 7666,
  "kshon": 7667,
  "\u2581Impostazioni": 7668,
  "tario": 7669,
  "\u2581commun": 7670,
  "\u2581comprar": 7671,
  "cule": 7672,
  "tada": 7673,
  "\u2581Us": 7674,
  "PE": 7675,
  "\u2581principales": 7676,
  "\u2581l\u00edngua": 7677,
  "\u2581vincula": 7678,
  "manda": 7679,
  "\u2581llegar": 7680,
  "GA": 7681,
  "\u2581prou": 7682,
  "\u2581controlar": 7683,
  "\u2581costi": 7684,
  "\u00edo": 7685,
  "bb": 7686,
  "\u2581use": 7687,
  "\u2581estructura": 7688,
  "\u2581chance": 7689,
  "\u2581hija": 7690,
  "\u2581mesaj": 7691,
  "\u2581volont\u00e9": 7692,
  "\u2581traballo": 7693,
  "\u2581nutri": 7694,
  "\u2581eventos": 7695,
  "\u2581principe": 7696,
  "\u2581trimes": 7697,
  "OP": 7698,
  "\u2581elementi": 7699,
  "\u2581Lluvia": 7700,
  "\u2581andar": 7701,
  "\u2581negro": 7702,
  "\u2581assis": 7703,
  "tener": 7704,
  "\u2581bouton": 7705,
  "\u2581Ruben": 7706,
  "\u2581civitatis": 7707,
  "applicazione": 7708,
  "\u258111:": 7709,
  "\u2581tratar": 7710,
  "\u2581plau": 7711,
  "\u2581videre": 7712,
  "\u2581lumi\u00e8re": 7713,
  "Da": 7714,
  "\u00e8tz": 7715,
  "\u2581Py\u00e8": 7716,
  "\u00e8lman": 7717,
  "61": 7718,
  "tano": 7719,
  "a\u015f": 7720,
  "\u2581complementu": 7721,
  "\u2581pala": 7722,
  "vul": 7723,
  "\u2581narra": 7724,
  "\u2581surge": 7725,
  "\u2581naciones": 7726,
  "\u2581genre": 7727,
  "\u2581sufri": 7728,
  "\u2581points": 7729,
  "\u2581filio": 7730,
  "\u2581marche": 7731,
  "Il": 7732,
  "\u2581fri": 7733,
  "aquest": 7734,
  "\u2581Bro": 7735,
  "conte": 7736,
  "\u2581b\u00fasqueda": 7737,
  "\u2581kl\u00e8": 7738,
  "\u2581habla": 7739,
  "\u2581(2": 7740,
  "\u2581PC": 7741,
  "\u2581sonje": 7742,
  "prim": 7743,
  "\u2581studio": 7744,
  "\u2581branco": 7745,
  "\u2581dau": 7746,
  "\u2581vox": 7747,
  "\u2581Som": 7748,
  "\u2581prodotto": 7749,
  "\u2581Imposte": 7750,
  "\u2581refiere": 7751,
  "\u2581s\u00e9lection": 7752,
  "\u2581connexion": 7753,
  "\u2581chefs": 7754,
  "\u2581deixe": 7755,
  "\u2581plain": 7756,
  "\u2581Ul": 7757,
  "\u2581actualmente": 7758,
  "\u2581vosso": 7759,
  "\u2581communication": 7760,
  "\u00edr": 7761,
  "liza": 7762,
  "\u2581vere": 7763,
  "aceast\u0103": 7764,
  "\u2581facem": 7765,
  "\u2581relations": 7766,
  "\u2581realiza": 7767,
  "\u2581valde": 7768,
  "\u2581peccatum": 7769,
  "\u2581procedura": 7770,
  "\u2581Lun": 7771,
  "\u2581aceast\u0103": 7772,
  "\u2581Ea": 7773,
  "ex\u00e9cution": 7774,
  "\u2581acces": 7775,
  "\u2581Ap": 7776,
  "\u2581r\u00e1pida": 7777,
  "\u2581colo": 7778,
  ".\u00b0": 7779,
  "tene": 7780,
  "\u2581aprender": 7781,
  "\u2581ministra": 7782,
  "\u2581Gri": 7783,
  "cada": 7784,
  "key": 7785,
  "d\u00eda": 7786,
  "di\u00f3": 7787,
  "\u2581medios": 7788,
  "\u2581modalit\u00e0": 7789,
  "\u2581manque": 7790,
  "Egitto": 7791,
  "\u2581rus": 7792,
  "ok": 7793,
  "\u2581d\u00e9clar\u00e9": 7794,
  "\u258111,": 7795,
  "\u2581rispose": 7796,
  "genti": 7797,
  "\u2581castra": 7798,
  "\u2581f\u0103": 7799,
  "\u2581chal": 7800,
  "37": 7801,
  "\u2581Ace": 7802,
  "38": 7803,
  "ciente": 7804,
  "\u2581correcta": 7805,
  "is\u00e9": 7806,
  "\u2581nazionali": 7807,
  "\u015fa": 7808,
  "\u2581Heb": 7809,
  "\u2581Voy": 7810,
  "\u00e1tico": 7811,
  "\u2581itilize": 7812,
  "\u2581besoins": 7813,
  "\u2581sagesse": 7814,
  "\u2581Del": 7815,
  "\u2581profit": 7816,
  "\u2581asocia": 7817,
  "\u2581criteri": 7818,
  "\u2581constitu": 7819,
  "\u2581Aplicaci\u00f3n": 7820,
  "\u2581Sto": 7821,
  "\u2581rue": 7822,
  "\u2581paso": 7823,
  "\u2581tabernaculum": 7824,
  "\u2581anteriores": 7825,
  "lul": 7826,
  "\u2581culture": 7827,
  "\u2581modificaci\u00f3n": 7828,
  "\u2581Comando": 7829,
  "\u2581incluindo": 7830,
  "\u00e7ones": 7831,
  "\u2581domini": 7832,
  "ienne": 7833,
  "\u2581fratribus": 7834,
  "chin": 7835,
  "\u2581parcial": 7836,
  "\u2581tat\u0103l": 7837,
  "28": 7838,
  "\u2581earum": 7839,
  "\u2581fun\u00e7\u00e3o": 7840,
  "\u2581Acuerdo": 7841,
  "\u2581Edom": 7842,
  "grade": 7843,
  "\u2581specie": 7844,
  "\u2581Estamos": 7845,
  "\u2581Fondo": 7846,
  "\u2581timoun": 7847,
  "quin": 7848,
  "\u2581Nici": 7849,
  "\u2581colli": 7850,
  "\u2581Ay": 7851,
  "\u2581tiempu": 7852,
  "\u2581Noi": 7853,
  "\u2581compre": 7854,
  "zas": 7855,
  "\u2581vr\u00e8": 7856,
  "Borrar": 7857,
  "\u2581risco": 7858,
  "\u2581conocimiento": 7859,
  "\u2581Adicionar": 7860,
  "eye": 7861,
  "\u2581d\u00e9claration": 7862,
  "ap\u00f4tre": 7863,
  "\u2581Uno": 7864,
  "\u2581suporta": 7865,
  "end": 7866,
  "\u2581Escolla": 7867,
  "\u2581suscita": 7868,
  "\u2581subito": 7869,
  "ft": 7870,
  "\u2581funciones": 7871,
  "\u2581teve": 7872,
  "\u2581exporta": 7873,
  "\u2581devraient": 7874,
  "\u2581ankouraje": 7875,
  "\u2581Bun\u0103": 7876,
  "\u2581Voulez": 7877,
  "\u2581pr": 7878,
  "\u2581modul": 7879,
  "\u2581osserva": 7880,
  "\u2581Enregistrer": 7881,
  "\u2581cento": 7882,
  "\u2581implementa": 7883,
  "metro": 7884,
  "\u258118.": 7885,
  "\u2581vision": 7886,
  "\u2581perde": 7887,
  "\u2581instrumentos": 7888,
  "\u2581davant": 7889,
  "\u2581purnea": 7890,
  "\u2581portas": 7891,
  "\u2581Bot\u00f3n": 7892,
  "\u2581siendo": 7893,
  "34": 7894,
  "\u2581exist\u0103": 7895,
  "\u2581cinque": 7896,
  "\u258155": 7897,
  "exp": 7898,
  "\u2581Filtre": 7899,
  "\u2581condi": 7900,
  "\u2581tuorum": 7901,
  "\u2581pr\u00f3pria": 7902,
  "\u258175": 7903,
  "\u2581fuego": 7904,
  "\u2581indiqu\u00e9": 7905,
  "\u2581Bri": 7906,
  "\u2581c\u00e0mbia": 7907,
  "\u2581sapientia": 7908,
  "\u2581n\u00fameros": 7909,
  "\u2581images": 7910,
  "\u2581bras": 7911,
  "\u2581al\u00e9m": 7912,
  "\u2581telefon": 7913,
  "iunea": 7914,
  "\u2581configuration": 7915,
  "\u2581Monta": 7916,
  "\u2581azul": 7917,
  "3)": 7918,
  "\u2581sair": 7919,
  "\u00eer": 7920,
  "cado": 7921,
  "\u2581nasyon": 7922,
  "chant": 7923,
  "\u2581Temos": 7924,
  "\u2581aperi": 7925,
  "\u2581honra": 7926,
  "ping": 7927,
  "gu\u00e9": 7928,
  "\u2581Considerando": 7929,
  "\u2581efeito": 7930,
  "fia": 7931,
  "\u2581compar": 7932,
  "\u2581comptes": 7933,
  "\u2581gros": 7934,
  "azioni": 7935,
  "\u2581bare": 7936,
  "ball": 7937,
  "\u2581mesi": 7938,
  "\u2581Job": 7939,
  "cesso": 7940,
  "gul": 7941,
  "llis": 7942,
  "\u2581podr\u00e1n": 7943,
  "\u2581raport": 7944,
  "\u2581resevwa": 7945,
  "\u2581establecido": 7946,
  "\u2581preguntar": 7947,
  "\u2581imatge": 7948,
  "\u2581adore": 7949,
  "\u2581\u00e9lectronique": 7950,
  "\u2581PE": 7951,
  "\u2581gauche": 7952,
  "\u2581recurs": 7953,
  "\u2581arcam": 7954,
  "\u2581sec": 7955,
  "\u2581siervos": 7956,
  "cy": 7957,
  "\u2581Sempre": 7958,
  "olo": 7959,
  "\u2581duraci\u00f3n": 7960,
  "\u2581n\u00e9cessaires": 7961,
  "\u2581server": 7962,
  "\u2581facendo": 7963,
  "\u2581lire": 7964,
  "\u2581patris": 7965,
  "\u2581tableau": 7966,
  "\u2581r\u00e9pondit": 7967,
  "\u2581komp": 7968,
  "\u2581circo": 7969,
  "\u2581copas": 7970,
  "\u2581chambre": 7971,
  "\u2581beni": 7972,
  "\u2581verbo": 7973,
  "\u2581solamente": 7974,
  "slot": 7975,
  "\u2581progres": 7976,
  "\u2581simplement": 7977,
  "\u2581brut": 7978,
  "zos": 7979,
  "\u2581bibliques": 7980,
  "ung": 7981,
  "\u2581par\u00e8t": 7982,
  "\u2581creare": 7983,
  "\u25811/": 7984,
  "\u2581regione": 7985,
  "\u2581territorial": 7986,
  "\u2581marque": 7987,
  "\u2581Ammon": 7988,
  "\u2581utente": 7989,
  "\u2581lucha": 7990,
  "ifi\u00e9": 7991,
  "\u2581ecco": 7992,
  "box": 7993,
  "%%)": 7994,
  "2.": 7995,
  "\u2581statu": 7996,
  "r\u00edan": 7997,
  "\u2581habitantes": 7998,
  "\u2581maladie": 7999,
  "\u2581fur": 8000,
  "\u2581Pol\u00edtica": 8001,
  "\u2581Tenho": 8002,
  "\u2581choix": 8003,
  "\u2581solution": 8004,
  "\u2581quer\u00eda": 8005,
  "\u2581vam": 8006,
  "\u2581illam": 8007,
  "\u2581\u0162i": 8008,
  "\u2581organi": 8009,
  "\u2581pratica": 8010,
  "\u2581sait": 8011,
  "77": 8012,
  "\u2581XML": 8013,
  "\u2581carica": 8014,
  "\u2581Mode": 8015,
  "\u2581dialogue": 8016,
  "\u2581egredi": 8017,
  "\u2581pain": 8018,
  "\u2581cache": 8019,
  "bur": 8020,
  "\u2581reuni\u00f3n": 8021,
  "\u2581Ak": 8022,
  "\u2581environ": 8023,
  "\u2581tuturor": 8024,
  "\u2581vuole": 8025,
  "\u2581aspetta": 8026,
  "\u2581m\u00e9todo": 8027,
  "\u2581Vue": 8028,
  "\u2581Luego": 8029,
  "\u2581cad": 8030,
  "\u2581(\"": 8031,
  "\u2581manti": 8032,
  "\u2581venda": 8033,
  "ANT": 8034,
  "\u2581noastre": 8035,
  "\u2581Chiar": 8036,
  "deu": 8037,
  "\u2581sabemos": 8038,
  "\u2581Vreau": 8039,
  "\u2581qualifica": 8040,
  "IR": 8041,
  "\u2581r\u00e9gion": 8042,
  "\u2581Santa": 8043,
  "zionale": 8044,
  "\u2581externas": 8045,
  "\u2581nation": 8046,
  "\u2581Decisi\u00f3n": 8047,
  "appel": 8048,
  "culos": 8049,
  "\u2581inoltre": 8050,
  "vien": 8051,
  "Eu": 8052,
  "\u2581num\u00e9ro": 8053,
  "t\u00e3o": 8054,
  "\u2581pensi": 8055,
  "\u2581Sabe": 8056,
  "bbe": 8057,
  "\u2581aliment": 8058,
  "\u2581effetti": 8059,
  "pres": 8060,
  "iers": 8061,
  "RES": 8062,
  "\u2581dispar": 8063,
  "\u2581priye": 8064,
  "\u2581\u00e1s": 8065,
  "kla": 8066,
  "\u2581doctor": 8067,
  "\u2581borrar": 8068,
  "\u2581dec\u00eet": 8069,
  "sica": 8070,
  "\u2581electr\u00f3nico": 8071,
  "\u2581participar": 8072,
  "\u258112,": 8073,
  "\u2581sa\u00edda": 8074,
  "gam": 8075,
  "guard": 8076,
  "\u2581utilis\u00e9e": 8077,
  "\u2581asistencia": 8078,
  "plu": 8079,
  "\u2581pixels": 8080,
  "\u2581(19": 8081,
  "\u2581acas\u0103": 8082,
  "\u2581cherche": 8083,
  "\u2581destinat": 8084,
  "\u2581gloire": 8085,
  "\u2581Aplica": 8086,
  "\u2581Robert": 8087,
  "\u2581Estoy": 8088,
  "\u2581giusto": 8089,
  "\u2581convoca": 8090,
  "\u2581discos": 8091,
  "\u2581ef\u00f2": 8092,
  "\u2581minist\u00e8re": 8093,
  "\u2581publicaci\u00f3n": 8094,
  "\u2581esso": 8095,
  "\u2581Dopo": 8096,
  "\u2581accesibilidad": 8097,
  "\u2581\u00e9ste": 8098,
  "\u2581previstas": 8099,
  "\u2581mensagem": 8100,
  "\u2581g\u00e2nd": 8101,
  "\u2581procedimento": 8102,
  "riba": 8103,
  "\u2581nimis": 8104,
  "\u2581cria": 8105,
  "\u2581pastor": 8106,
  "\u2581Guardar": 8107,
  "\u2581Haide": 8108,
  "\u2581qui\u00e9n": 8109,
  "\u2581entro": 8110,
  "\u2581produzione": 8111,
  "\u2581considerado": 8112,
  "\u2581necessari": 8113,
  "\u2581supuesto": 8114,
  "\u2581tos": 8115,
  "eth": 8116,
  "86": 8117,
  "\u2581podeu": 8118,
  "ihel": 8119,
  "\u2581trabou": 8120,
  "vale": 8121,
  "\u2581abomina": 8122,
  "\u2581Posso": 8123,
  "\u2581saisi": 8124,
  "resti": 8125,
  "\u2581Aggiungi": 8126,
  "SA": 8127,
  "\u2581roba": 8128,
  "f\u00f2": 8129,
  "chos": 8130,
  "32": 8131,
  "\u2581Nissun": 8132,
  "tt": 8133,
  "\u2581f\u00edsica": 8134,
  "\u2581conclusion": 8135,
  "\u2581Affiche": 8136,
  "\u2581flux": 8137,
  "\u2581sota": 8138,
  "\u2581cancel": 8139,
  "\u2581Windows": 8140,
  "late": 8141,
  "\u2581spo": 8142,
  ".1": 8143,
  "pendi": 8144,
  "\u2581ajuta": 8145,
  "\u2581unique": 8146,
  "tato": 8147,
  "lini": 8148,
  "\u2581liga": 8149,
  "\u2581correu": 8150,
  "\u2581cour": 8151,
  "\u2581mostr\u00e2": 8152,
  "\u2581luego": 8153,
  "\u2581permane": 8154,
  "\u2581buen": 8155,
  "\u2581Gr\u00e0cies": 8156,
  "\u2581actualizaci\u00f3n": 8157,
  "bran": 8158,
  "\u2581Win": 8159,
  "\u2581in\u00edcio": 8160,
  "tamen": 8161,
  "\u2581vivere": 8162,
  "\u2581azione": 8163,
  "\u2581avou": 8164,
  "CC": 8165,
  "\u2581Ouvrir": 8166,
  "\u2581serveis": 8167,
  "\u2581investimento": 8168,
  "\u2581organiza": 8169,
  "ach": 8170,
  "\u2581tenia": 8171,
  "\u2581Portugal": 8172,
  "exc": 8173,
  "\u2581sosten": 8174,
  "\u2581desidera": 8175,
  "indica": 8176,
  "\u2581chu": 8177,
  "lien": 8178,
  "\u2581contract": 8179,
  "\u2581\u00b0": 8180,
  "\u2581scop": 8181,
  "\u2581suntem": 8182,
  "\u2581rich": 8183,
  "way": 8184,
  "\u2581Super": 8185,
  "\u2581tande": 8186,
  "\u2581devez": 8187,
  "IO": 8188,
  "\u2581embora": 8189,
  "\u2581gastos": 8190,
  "1,": 8191,
  "\u2581structure": 8192,
  "\u2581ragione": 8193,
  "\u2581projeto": 8194,
  "\u00e7as": 8195,
  "\u2581feina": 8196,
  "\u2581proclama": 8197,
  "\u2581St": 8198,
  "\u2581mesos": 8199,
  "\u2581imagens": 8200,
  "\u2581rob": 8201,
  "\u2581Pharaon": 8202,
  "\u2581profil": 8203,
  "\u2581probabil": 8204,
  "\u2581stampa": 8205,
  "\u2581r\u00e9f\u00e9rence": 8206,
  "\u2581sensibil": 8207,
  "\u2581evento": 8208,
  "\u2581nostrum": 8209,
  "\u25817:": 8210,
  "fla": 8211,
  "\u2581fogo": 8212,
  "\u2581sonido": 8213,
  "\u2581provincia": 8214,
  "\u2581levanta": 8215,
  "\u2581presencia": 8216,
  "\u2581avevano": 8217,
  "\u258185": 8218,
  "\u2581Groupe": 8219,
  "\u2581comida": 8220,
  "\u2581m\u00edo": 8221,
  "\u2581grav": 8222,
  "MB": 8223,
  "\u2581respecta": 8224,
  "\u2581deriva": 8225,
  "\u2581soci": 8226,
  "\u2581d\u00e9mon": 8227,
  "\u2581sois": 8228,
  "rien": 8229,
  "\u2581ciudades": 8230,
  "\u2581espa\u00f1ol": 8231,
  "nement": 8232,
  "\u2581tecnologia": 8233,
  "\u0219te": 8234,
  "\u2581dimitte": 8235,
  "\u2581heu": 8236,
  "\u2581EL": 8237,
  "\u2581manduca": 8238,
  "NI": 8239,
  "\u2581tab": 8240,
  "\u2581exaudi": 8241,
  "\u2581certifica": 8242,
  "\u2581pag": 8243,
  "\u2581Internacional": 8244,
  "\u2581signor": 8245,
  "\u2581bla": 8246,
  "\u2581parl\u00e9": 8247,
  "\u2581cale": 8248,
  "\u2581templum": 8249,
  "\u2581factor": 8250,
  "\u2581explicar": 8251,
  "\u2581hominibus": 8252,
  "is\u00e9e": 8253,
  "som": 8254,
  "\u2581pedra": 8255,
  "\u2581princ\u00edpio": 8256,
  "\u2581esperanza": 8257,
  "\u2581destra": 8258,
  "\u2581qualit\u00e0": 8259,
  "\u2581lien": 8260,
  "\u2581noms": 8261,
  "\u2581valida": 8262,
  "\u2581modi": 8263,
  "\u2581n\u0103scut": 8264,
  "\u2581Actualizar": 8265,
  "itis": 8266,
  "\u25813)": 8267,
  "\u2581utilizza": 8268,
  "erai": 8269,
  "\u2581praecept": 8270,
  "\u2581omisi\u00f3n": 8271,
  "scono": 8272,
  "\u2581poderia": 8273,
  "\u2581t\u00e9cnica": 8274,
  "\u2581Toma": 8275,
  "\u2581informar": 8276,
  "fri": 8277,
  "\u2581coopera\u00e7\u00e3o": 8278,
  "\u2581orde": 8279,
  "\u2581bus": 8280,
  "\u2581lavora": 8281,
  "\u2581moman": 8282,
  "fort": 8283,
  "\u2581tempora": 8284,
  "nique": 8285,
  "\u2581aiuta": 8286,
  "jun": 8287,
  "iel": 8288,
  "\u2581contribui": 8289,
  "activa": 8290,
  "\u2581adem\u00e1s": 8291,
  "gula": 8292,
  "\u2581cidades": 8293,
  "\u2581pod": 8294,
  "\u2581liba": 8295,
  "\u2581France": 8296,
  "\u2581azi": 8297,
  "grad": 8298,
  "\u00e8me": 8299,
  "\u2581Mala": 8300,
  "\u2581veste": 8301,
  "\u2581compi": 8302,
  "\u2581acceder": 8303,
  "\u2581azioni": 8304,
  "\u2581plec": 8305,
  "\u2581estudio": 8306,
  "\u2581farlo": 8307,
  "\u2581consilium": 8308,
  "mie": 8309,
  "\u2581crise": 8310,
  "\u2581genere": 8311,
  "\u2581Certo": 8312,
  "iez": 8313,
  "\u2581vorbe\u015fte": 8314,
  "\u2581diversos": 8315,
  "\u2581digital": 8316,
  "\u2581\u00eentoarce": 8317,
  "\u2581precios": 8318,
  "\u2581inter\u00e9s": 8319,
  "\u2581Brasero": 8320,
  "\u2581Cando": 8321,
  "\u2581Esse": 8322,
  "\u2581pogut": 8323,
  "\u2581jorn": 8324,
  "entibus": 8325,
  "\u2581j\u00f3venes": 8326,
  "\u2581Decreto": 8327,
  "\u2581Informe": 8328,
  "\u2581retro": 8329,
  "information": 8330,
  "hat": 8331,
  "wer": 8332,
  "ssero": 8333,
  "\u2581Iar": 8334,
  "\u2581porto": 8335,
  "\u2581eterna": 8336,
  "\u2581col\u00e8re": 8337,
  "nais": 8338,
  "inde": 8339,
  "\u2581luni": 8340,
  "\u2581dan\u00e9s": 8341,
  "\u2581suus": 8342,
  "\u2581Norte": 8343,
  "adores": 8344,
  "\u2581objet": 8345,
  "\u2581llena": 8346,
  "\u2581facti": 8347,
  "33": 8348,
  "vimus": 8349,
  "it\u0103": 8350,
  "\u2581rotaci\u00f3n": 8351,
  "\u2581Ierusalim": 8352,
  "\u2581classifica": 8353,
  "\u2581photo": 8354,
  "\u2581fa\u00e7a": 8355,
  "organ": 8356,
  "\u2581separat": 8357,
  "\u2581personalizado": 8358,
  "\u2581herramientas": 8359,
  "script": 8360,
  "onis": 8361,
  "\u2581contribuir": 8362,
  "\u2581plante": 8363,
  "\u2581propri": 8364,
  "\u2581Saint": 8365,
  "kan": 8366,
  "\u2581porter": 8367,
  "viv": 8368,
  "\u2581acela": 8369,
  "\u2581Apondre": 8370,
  "\u2581Iat\u0103": 8371,
  "it\u00e2t": 8372,
  "\u2581groupes": 8373,
  "\u2581DES": 8374,
  "\u2581d\u00e9lai": 8375,
  "rite": 8376,
  "\u2581aiuto": 8377,
  "\u2581Cho": 8378,
  "\u2581edad": 8379,
  "cru": 8380,
  "\u2581regni": 8381,
  "\u2581emprego": 8382,
  "\u2581globale": 8383,
  "\u2581idee": 8384,
  "\u2581grava": 8385,
  "gu\u00e9s": 8386,
  "\u2581milioni": 8387,
  "\u2581cheste": 8388,
  "\u2581juntos": 8389,
  "ring": 8390,
  "\u2581dagli": 8391,
  "\u2581Salut": 8392,
  "\u2581ustedes": 8393,
  "r\u00edas": 8394,
  "\u2581Amor": 8395,
  "MP": 8396,
  "\u2581vois": 8397,
  "\u2581art": 8398,
  "\u2581tradidit": 8399,
  "\u2581sigue": 8400,
  "\u2581entanto": 8401,
  "\u2581personale": 8402,
  "top": 8403,
  "\u2581chamada": 8404,
  "\u2581fid\u00e8le": 8405,
  "vero": 8406,
  "\u2581guida": 8407,
  "\u2581valori": 8408,
  "\u2581experiencia": 8409,
  "\u00eeng\u0103": 8410,
  "2007": 8411,
  "\u2581corte": 8412,
  "ticos": 8413,
  "\u2581capa": 8414,
  "time": 8415,
  "\u2581sexa": 8416,
  "\u2581tuma": 8417,
  "cord": 8418,
  "\u2581atik": 8419,
  "cad": 8420,
  "title": 8421,
  "loca": 8422,
  "\u2581Moun": 8423,
  "\u2581forni": 8424,
  "\u2581usuarios": 8425,
  "\u2581Bruxelles": 8426,
  "42": 8427,
  "\u2581selezionade": 8428,
  "\u2581vr\u00e8man": 8429,
  "\u2581Cana": 8430,
  "\u2581attraverso": 8431,
  "hn": 8432,
  "\u2581venient": 8433,
  "\u2581estabelece": 8434,
  "\u2581persoa": 8435,
  "\u2581Mul\u0163umesc": 8436,
  "dessus": 8437,
  "\u2581resolver": 8438,
  "\u2581papia": 8439,
  "\u2581famia": 8440,
  "\u2581Nueva": 8441,
  "\u2581entrega": 8442,
  "gola": 8443,
  "pula": 8444,
  "dui": 8445,
  "\u2581inseri": 8446,
  "\u2581chercher": 8447,
  "str": 8448,
  "\u2581nuevu": 8449,
  "\u2581Aqui": 8450,
  "\u2581praeter": 8451,
  "istis": 8452,
  "\u2581tai": 8453,
  "\u2581Tutti": 8454,
  "\u2581mono": 8455,
  "\u2581Muito": 8456,
  "\u2581timore": 8457,
  "telo": 8458,
  "\u2581sacrifici": 8459,
  "\u2581Inserir": 8460,
  "\u2581st\u00e2t": 8461,
  "\u2581table": 8462,
  "\u2581exercitus": 8463,
  "\u2581aquam": 8464,
  "kin": 8465,
  "\u2581audite": 8466,
  "\u2581efecte": 8467,
  "\u2581evaluaci\u00f3n": 8468,
  "\u2581reca": 8469,
  "\u2581recente": 8470,
  "tabli": 8471,
  "\u2581imite": 8472,
  "\u2581totalmente": 8473,
  "\u2581circuitu": 8474,
  "88": 8475,
  "\u2581batte": 8476,
  "\u258120.": 8477,
  "CA": 8478,
  "\u2581quest": 8479,
  "\u2581Ali": 8480,
  "\u2581prior": 8481,
  "\u2581competencia": 8482,
  "\u2581Ayuntamiento": 8483,
  "\u2581libertad": 8484,
  "\u258165": 8485,
  "tures": 8486,
  "\u2581Outil": 8487,
  "sura": 8488,
  "\u2581arreglo": 8489,
  "\u2581preparar": 8490,
  "\u2581cestino": 8491,
  "\u2581simula": 8492,
  "\u2581Aunque": 8493,
  "\u2581libros": 8494,
  "\u2581seconda": 8495,
  "\u2581debido": 8496,
  "ambito": 8497,
  "\u2581cousas": 8498,
  "\u2581informes": 8499,
  "\u2581messaggio": 8500,
  "\u2581V\u0103": 8501,
  "\u2581minim": 8502,
  "\u2581sanguine": 8503,
  "\u2581hielo": 8504,
  "\u2581drag": 8505,
  "\u2581gentium": 8506,
  "\u2581sab\u00eda": 8507,
  "Europe": 8508,
  "cker": 8509,
  "\u2581projecto": 8510,
  "\u2581capacidade": 8511,
  "59": 8512,
  "\u2581enorme": 8513,
  "\u2581alcuna": 8514,
  "\u2581p\u00e5dje": 8515,
  "\u2581columnas": 8516,
  "\u2581ideo": 8517,
  "\u2581vostede": 8518,
  "kenn": 8519,
  "\u2581dobbiamo": 8520,
  "\u2581autour": 8521,
  "arum": 8522,
  "\u2581passage": 8523,
  "\u2581conocer": 8524,
  "\u2581perdi": 8525,
  "ote": 8526,
  "\u2581Cependant": 8527,
  "78": 8528,
  "\u2581bambini": 8529,
  "\u2581pr\u00e1ctica": 8530,
  "presso": 8531,
  "taria": 8532,
  "\u2581perante": 8533,
  "\u2581educaci\u00f3n": 8534,
  "\u2581aspectos": 8535,
  "\u2581Tchoezi": 8536,
  "\u2581regul\u0103": 8537,
  "metre": 8538,
  "\u2581pr\u00f3prio": 8539,
  "enca": 8540,
  "\u2581Estat": 8541,
  "\u2581exulta": 8542,
  "iller": 8543,
  "\u2581DEL": 8544,
  "\u00d3": 8545,
  "estar": 8546,
  "\u2581corona": 8547,
  "\u2581m\u00e1": 8548,
  "\u2581fill": 8549,
  "\u2581Modifier": 8550,
  "\u2581comunit\u00e1ria": 8551,
  "\u2581impo": 8552,
  "\u2581siento": 8553,
  "\u2581tirar": 8554,
  "\u2581mental": 8555,
  "\u00edstica": 8556,
  "\u2581cree": 8557,
  "\u2581secci\u00f3n": 8558,
  "\u2581savez": 8559,
  "\u2581CVS": 8560,
  "\u2581Tel": 8561,
  "\u2581Prote": 8562,
  "\u2581s\u00e8vis": 8563,
  "\u2581aquell": 8564,
  "\u2581nunha": 8565,
  "\u2581vossos": 8566,
  "scribir": 8567,
  "\u00efn": 8568,
  "\u2581agricole": 8569,
  "\u2581portar": 8570,
  "\u2581aplicaci\u00f3": 8571,
  "\u2581gest\u00e3o": 8572,
  "\u2581ayudas": 8573,
  "fghanistan": 8574,
  "emploi": 8575,
  "\u2581Cara": 8576,
  "\u2581proche": 8577,
  "\u2581sirbi": 8578,
  "\u2581r\u00e9ussi": 8579,
  "voy": 8580,
  "\u2581universis": 8581,
  "\u2581vols": 8582,
  "\u2581Matt": 8583,
  "\u2581mensis": 8584,
  "Am": 8585,
  "xes": 8586,
  "\u2581Abbiamo": 8587,
  "\u2581m\u00eames": 8588,
  "\u2581codifica": 8589,
  "\u2581todav\u00eda": 8590,
  "anni": 8591,
  "\u2581ruman": 8592,
  "\u2581montante": 8593,
  "\u2581volo": 8594,
  "\u2581concern\u00e9": 8595,
  "\u2581vostri": 8596,
  "mal": 8597,
  "\u2581rapid": 8598,
  "\u2581vaca": 8599,
  "\u2581esses": 8600,
  "\u2581refer\u00eancia": 8601,
  "\u2581id\u00e9e": 8602,
  "\u2581arte": 8603,
  "\u2581xente": 8604,
  "\u2581Tierra": 8605,
  "orient": 8606,
  "\u2581econ\u00f3mico": 8607,
  "\u2581intel": 8608,
  "\u2581efectuar": 8609,
  "\u2581kenbe": 8610,
  "\u2581Eleazar": 8611,
  "\u2581Ref": 8612,
  "\u2581\u00e2": 8613,
  "\u2581Fort": 8614,
  "\u2581zanmi": 8615,
  "\u2581bilancio": 8616,
  "\u2581nonch\u00e9": 8617,
  "\u2581s\u00e8l": 8618,
  "\u2581senso": 8619,
  "\u2581son\u00edu": 8620,
  "\u2581configura\u00e7\u00e3o": 8621,
  "\u2581hist\u00f3ria": 8622,
  "\u2581aquas": 8623,
  "\u2581hacerlo": 8624,
  "raient": 8625,
  "\u2581riguardo": 8626,
  "\u2581fiestra": 8627,
  "\u2581animales": 8628,
  "\u2581comunicar": 8629,
  "\u2581recibir": 8630,
  "\u2581reversus": 8631,
  "\u0103tor": 8632,
  "\u2581vull": 8633,
  "dou": 8634,
  "\u2581tabula": 8635,
  "\u2581recuperar": 8636,
  "osamente": 8637,
  "\u2581estic": 8638,
  "ambi": 8639,
  "\u2581appena": 8640,
  "\u2581Todas": 8641,
  "\u2581escrita": 8642,
  "\u2581Bodj\u00ee": 8643,
  "\u2581P\u00fablica": 8644,
  "\u2581leer": 8645,
  "\u2581interessa": 8646,
  "\u2581Seguridad": 8647,
  "\u2581jur\u00eddico": 8648,
  "\u2581ceci": 8649,
  "\u2581deuxi\u00e8me": 8650,
  "t\u00edn": 8651,
  "\u2581soldat": 8652,
  "\u2581putut": 8653,
  "\u2581Ajuntament": 8654,
  "ian": 8655,
  "\u2581Tempo": 8656,
  "\u2581aminte": 8657,
  "#": 8658,
  "\u2581gui": 8659,
  "\u2581petite": 8660,
  "\u2581considerando": 8661,
  "\u2581fund": 8662,
  "\u2581program": 8663,
  "TS": 8664,
  "\u2581veio": 8665,
  "enfant": 8666,
  "\u2581talvez": 8667,
  "\u2581t\u00e2ches": 8668,
  "pond": 8669,
  "\u2581imaxes": 8670,
  "\u2581exact": 8671,
  "\u2581grafic": 8672,
  "gido": 8673,
  "\u2581alg\u00fa": 8674,
  "\u2581espec\u00edfica": 8675,
  "\u2581venta": 8676,
  "\u2581terror": 8677,
  "\u2581terreno": 8678,
  "\u2581nombreuses": 8679,
  "UM": 8680,
  "ioni": 8681,
  "\u2581Questi": 8682,
  "volo": 8683,
  "nato": 8684,
  "\u2581indicado": 8685,
  "\u00e0n": 8686,
  "acc": 8687,
  "\u2581heureux": 8688,
  "fas": 8689,
  "\u2581traha": 8690,
  "bido": 8691,
  "\u2581Chu": 8692,
  "\u2581Decis\u00e3o": 8693,
  "Europa": 8694,
  "\u2581construir": 8695,
  "\u2581caratteri": 8696,
  "\u2581foederis": 8697,
  "\u2581p\u00e1ginas": 8698,
  "\u25811991": 8699,
  "\u2581beber": 8700,
  "\u2581octo": 8701,
  "\u2581lignes": 8702,
  "\u2581enviado": 8703,
  "\u2581mandat": 8704,
  "quo": 8705,
  "\u2581ochii": 8706,
  "\u2581dabit": 8707,
  "\u2581Vaig": 8708,
  "\u2581organismos": 8709,
  "CR": 8710,
  "\u2581esquema": 8711,
  "culta": 8712,
  "\u2581ultima": 8713,
  "\u2581bons": 8714,
  "\u2581Mundial": 8715,
  "ST": 8716,
  "\u2581podria": 8717,
  "\u2581intenta": 8718,
  "\u2581necessidade": 8719,
  "TP": 8720,
  "\u2581statut": 8721,
  ".7": 8722,
  "fix": 8723,
  "\u2581habere": 8724,
  "\u2581filtre": 8725,
  "\u2581arti": 8726,
  "\u25812017": 8727,
  "\u2581contesta": 8728,
  "izados": 8729,
  "\u2581moyens": 8730,
  "\u2581aedificavit": 8731,
  "\u2581int\u00e9rieur": 8732,
  "\u2581posta": 8733,
  "\u2581m\u00eas": 8734,
  "\u2581longtemps": 8735,
  "\u2581stup": 8736,
  "\u2581Quero": 8737,
  "\u2581lume": 8738,
  "\u2581bara": 8739,
  "\u2581convient": 8740,
  "\u2581cena": 8741,
  "\u2581petits": 8742,
  "\u2581piedi": 8743,
  "\u2581centra": 8744,
  "\u2581maledic": 8745,
  "\u2581diff\u00e9rents": 8746,
  "\u2581Cree": 8747,
  "\u2581Konqueror": 8748,
  "\u2581pluri": 8749,
  "cr\u00e9": 8750,
  "/1": 8751,
  "rius": 8752,
  "\u2581consecuencia": 8753,
  "\u2581\u0103sta": 8754,
  "\u2581population": 8755,
  "\u2581vae": 8756,
  "\u2581rad": 8757,
  "\u2581Google": 8758,
  "jas": 8759,
  "hem": 8760,
  "\u2581activitat": 8761,
  "\u2581intervalo": 8762,
  "\u2581oui": 8763,
  "41": 8764,
  "\u2581activar": 8765,
  "62": 8766,
  "\u2581fem": 8767,
  "\u2581responsabilit\u00e9": 8768,
  "acqua": 8769,
  "\u2581tort": 8770,
  "\u2581positivo": 8771,
  "\u2581Char": 8772,
  "\u2581commis": 8773,
  "\u2581Peter": 8774,
  "\u2581esp\u00edrito": 8775,
  "\u2581contempla": 8776,
  "\u2581juin": 8777,
  "\u00c9gypte": 8778,
  "\u2581ah\u00ed": 8779,
  "\u2581riferimento": 8780,
  "\u00e9l\u00e9": 8781,
  "\u2581hunc": 8782,
  "\u2581coordina": 8783,
  "\u2581numera": 8784,
  "\u2581sage": 8785,
  "54": 8786,
  "\u00edu": 8787,
  "\u2581amplius": 8788,
  "\u2581conven": 8789,
  "core": 8790,
  "el\u00e7": 8791,
  "\u2581Tens": 8792,
  "iv": 8793,
  "\u2581assegurar": 8794,
  "\u2581studia": 8795,
  "\u00e9tend": 8796,
  "\u2581nouv\u00e8l": 8797,
  "\u2581individu": 8798,
  "\u2581necesidades": 8799,
  "g\u00e8": 8800,
  "\u2581glo": 8801,
  "onde": 8802,
  "\u2581mayo": 8803,
  "\u2581merda": 8804,
  "\u2581presentaci\u00f3n": 8805,
  "\u2581d\u00e9co": 8806,
  "\u2581Engadir": 8807,
  "\u2581mundi": 8808,
  "\u2581sensi": 8809,
  "\u2581Conveni": 8810,
  "\u2581recordar": 8811,
  "Imp": 8812,
  "\u2581avanza": 8813,
  "\u2581Toutefois": 8814,
  "\u258113:": 8815,
  "tone": 8816,
  "\u00e9tat": 8817,
  "\u2581vinum": 8818,
  "Uni": 8819,
  "\u2581Python": 8820,
  "\u258108": 8821,
  "\u2581kw\u00e8": 8822,
  "\u2581calor": 8823,
  "wan": 8824,
  "\u2581recupera": 8825,
  "\u2581prega": 8826,
  "\u2581origen": 8827,
  "\u2581Modifica": 8828,
  "\u2581vengono": 8829,
  "\u2581instant": 8830,
  "\u2581p\u00e8di": 8831,
  "\u2581obten": 8832,
  "\u2581hagi": 8833,
  "\u2581prison": 8834,
  "\u2581clara": 8835,
  "\u2581Timpe": 8836,
  "lante": 8837,
  "\u2581Gregor": 8838,
  "\u2581Pod": 8839,
  "\u2581minut": 8840,
  "\u2581car\u00e0cter": 8841,
  "\u2581tamquam": 8842,
  "\u2581externe": 8843,
  "\u2581seguenti": 8844,
  "atto": 8845,
  "\u2581vrut": 8846,
  "\u2581difisil": 8847,
  "\u2581fal": 8848,
  "\u2581pression": 8849,
  "\u2581quies": 8850,
  "\u2581Abner": 8851,
  "\u2581spazio": 8852,
  "\u2581elas": 8853,
  "\u2581surrexit": 8854,
  "\u2581fidel": 8855,
  "\u2581R\u00e9publique": 8856,
  "\u2581Opera": 8857,
  "\u2581oper": 8858,
  "\u00f4f": 8859,
  "bl\u00e9": 8860,
  "\u2581regioni": 8861,
  "er\u00e0": 8862,
  "\u2581inizia": 8863,
  "\u2581corda": 8864,
  "\u2581dialogo": 8865,
  "\u2581puer": 8866,
  "\u2581Mine": 8867,
  "toare": 8868,
  "agrada": 8869,
  "%%": 8870,
  "\u00e7os": 8871,
  "\u2581sac": 8872,
  "\u2581Remover": 8873,
  "\u2581turco": 8874,
  "\u2581socio": 8875,
  "\u2581cumplimiento": 8876,
  "hora": 8877,
  "\u2581g\u0103si": 8878,
  "\u2581Merc": 8879,
  "\u2581dada": 8880,
  "\u00c1": 8881,
  "\u2581peque\u00f1a": 8882,
  "\u2581alfa": 8883,
  "cui": 8884,
  "\u2581segons": 8885,
  "\u2581p\u00eache": 8886,
  "\u2581halla": 8887,
  "\u2581Allez": 8888,
  "\u2581marye": 8889,
  "\u2581rama": 8890,
  "\u2581Maintenant": 8891,
  "\u2581editar": 8892,
  "\u2581grupu": 8893,
  "\u2581comunit\u00e1rio": 8894,
  "fik": 8895,
  "\u2581coche": 8896,
  "\u2581st": 8897,
  "\u2581Ken": 8898,
  "\u2581garantizar": 8899,
  "\u2581cjam\u00e2": 8900,
  "tente": 8901,
  "\u2581vigueur": 8902,
  "\u2581tiers": 8903,
  "\u2581courant": 8904,
  "\u2581Doar": 8905,
  "\u2581Pri": 8906,
  "\u2581oubyen": 8907,
  "di\u00e7\u00e3o": 8908,
  "\u2581Qt": 8909,
  "\u2581respira": 8910,
  "\u2581publication": 8911,
  "\u2581toca": 8912,
  "\u2581plata": 8913,
  "tazione": 8914,
  "jes": 8915,
  "\u2581queres": 8916,
  "\u2581encontrado": 8917,
  "\u2581Europe": 8918,
  "\u2581expresa": 8919,
  "\u2581agir": 8920,
  "anim": 8921,
  "\u2581r\u0103zboi": 8922,
  "\u2581\u00eenseamn\u0103": 8923,
  "\u2581Sche": 8924,
  "\u2581empleo": 8925,
  "\u2581criminal": 8926,
  "\u2581cubitorum": 8927,
  "vere": 8928,
  "\u2581mache": 8929,
  "\u2581al\u00ednea": 8930,
  "\u2581spazi": 8931,
  "\u2581Central": 8932,
  "wen": 8933,
  "\u2581agosto": 8934,
  "\u2581piques": 8935,
  "voli": 8936,
  "\u2581Hor": 8937,
  "aplicaci\u00f3n": 8938,
  "\u2581rursum": 8939,
  "\u2581graphique": 8940,
  "\u2581vis\u00f4r": 8941,
  "\u258141": 8942,
  "\u2581estudi": 8943,
  "\u2581vice": 8944,
  "\u2581explora": 8945,
  "\u2581dicendo": 8946,
  "ilia": 8947,
  "\u2581encontra": 8948,
  "\u2581major": 8949,
  "\u2581appris": 8950,
  "\u2581copii": 8951,
  "3,": 8952,
  "\u2581Kan": 8953,
  "\u2581\u00ad": 8954,
  "\u2581Al\u00e9m": 8955,
  "\u2581humaine": 8956,
  "\u2581bot\u00e3o": 8957,
  "\u2581Mod": 8958,
  "CD": 8959,
  "\u2581Quoi": 8960,
  "\u2581autom\u00e1tica": 8961,
  "\u2581tratamiento": 8962,
  "\u2581Buscar": 8963,
  "\u2581prop": 8964,
  "\u2581\u00eent\u00e2mplat": 8965,
  "\u2581Departament": 8966,
  "\u2581recta": 8967,
  "mettre": 8968,
  "\u2581gade": 8969,
  "\u2581predicar": 8970,
  "ski": 8971,
  "\u2581Nacional": 8972,
  "\u2581fuerint": 8973,
  "\u2581inspira": 8974,
  "\u2581raz\u00e3o": 8975,
  "\u2581perspectiva": 8976,
  "\u2581cieux": 8977,
  "\u2581considerar": 8978,
  "\u2581Paris": 8979,
  "\u2581libert\u00e9": 8980,
  "\u2581sa\u00fade": 8981,
  "\u2581pergunta": 8982,
  "\u2581expres": 8983,
  "\u2581multis": 8984,
  "\u2581natura": 8985,
  "\u2581meilleure": 8986,
  "FR": 8987,
  "93": 8988,
  "\u2581levantar": 8989,
  "\u2581fuerat": 8990,
  "\u258119.": 8991,
  "\u2581gestor": 8992,
  "\u2581v\u00f2stre": 8993,
  "t\u00e1n": 8994,
  "\u2581minor": 8995,
  "ssos": 8996,
  "\u2581scio": 8997,
  "\u2581essas": 8998,
  "\u2581scriptum": 8999,
  "\u2581interfici": 9000,
  "ppa": 9001,
  "\u2581conmigo": 9002,
  "\u2581sucede": 9003,
  "\u2581Nathan": 9004,
  "\u2581patrum": 9005,
  "\u2581entendre": 9006,
  "\u2581propres": 9007,
  "\u2581confite": 9008,
  "\u2581Reg": 9009,
  "\u2581ejercicio": 9010,
  "\u2581almeno": 9011,
  "win": 9012,
  "\u2581intercambio": 9013,
  "\u2581Utiliser": 9014,
  "\u2581africa": 9015,
  "tice": 9016,
  "\u2581insta": 9017,
  "\u2581koute": 9018,
  "\u2581Gre": 9019,
  "ctos": 9020,
  "\u2581combinaci\u00f3n": 9021,
  "positi": 9022,
  "\u2581sacrifice": 9023,
  "cii": 9024,
  "\u2581m\u00e9todos": 9025,
  "\u2581origine": 9026,
  "\u2581lutte": 9027,
  "\u2581precum": 9028,
  "\u2581puni": 9029,
  "\u2581p\u00e9riph\u00e9rique": 9030,
  "\u2581dar\u00e1": 9031,
  "7)": 9032,
  "pete": 9033,
  "zado": 9034,
  "\u2581destruir": 9035,
  "\u2581devenir": 9036,
  "\u2581rap\u00f2": 9037,
  "\u2581Cerca": 9038,
  "Ta": 9039,
  "\u2581jura": 9040,
  "\u2581cooperazione": 9041,
  "\u2581humilia": 9042,
  "\u2581\u00e9poca": 9043,
  "lata": 9044,
  "idi": 9045,
  "\u2581oficina": 9046,
  "\u2581TV": 9047,
  "\u2581sicuro": 9048,
  "\u2581varie": 9049,
  "ificaci\u00f3n": 9050,
  "\u2581Japon": 9051,
  "\u2581privi": 9052,
  "\u2581depuraci\u00f3n": 9053,
  "\u2581vasta": 9054,
  "\u2581furor": 9055,
  "lada": 9056,
  "\u2581legat": 9057,
  "ecer": 9058,
  "\u2581dio": 9059,
  "autel": 9060,
  "\u2581inventa": 9061,
  "\u2581podes": 9062,
  "\u2581dicha": 9063,
  "ph\u00e9": 9064,
  "\u2581venisse": 9065,
  "\u2581urb": 9066,
  "duci": 9067,
  "pren": 9068,
  "\u2581financeira": 9069,
  "\u2581pesa": 9070,
  "\u2581M\u00eame": 9071,
  "more": 9072,
  "\u2581iudicia": 9073,
  "\u2581examinar": 9074,
  "\u2581ensuite": 9075,
  "\u2581LE": 9076,
  "geni": 9077,
  "\u2581motiv": 9078,
  "\u2581zones": 9079,
  "\u2581doctrina": 9080,
  "\u2581mini": 9081,
  "\u2581termin": 9082,
  "\u2581iustitia": 9083,
  "phon": 9084,
  "\u2581finem": 9085,
  "\u2581trabajador": 9086,
  "\u2581far\u00e1": 9087,
  "\u2581r\u00e9serve": 9088,
  "\u2581presupuesto": 9089,
  "conf": 9090,
  "\u2581auro": 9091,
  "\u2581nostris": 9092,
  "\u2581contrato": 9093,
  "\u2581mii": 9094,
  "\u2581propor": 9095,
  "\u2581condicions": 9096,
  "\u2581(\u00ab": 9097,
  "ensemble": 9098,
  "\u2581gratiam": 9099,
  "\u2581Enviar": 9100,
  "acc\u00e8s": 9101,
  "\u2581Avant": 9102,
  "\u2581Sabes": 9103,
  "\u2581semi": 9104,
  "\u2581tenim": 9105,
  "\u2581ofrenda": 9106,
  "76": 9107,
  "\u2581pentruc\u0103": 9108,
  "\u2581polic\u00eda": 9109,
  "\u2581disant": 9110,
  "mpo": 9111,
  "\u2581T\u00fa": 9112,
  "\u2581grec": 9113,
  "\u2581diu": 9114,
  "\u2581cat": 9115,
  "\u2581utilizado": 9116,
  "\u2581succede": 9117,
  "\u2581muro": 9118,
  "\u2581Rou": 9119,
  "\u2581continuare": 9120,
  "\u2581Izray\u00e8l": 9121,
  "\u2581atteint": 9122,
  "\u2581pessoal": 9123,
  "\u2581dicembre": 9124,
  "\u2581Ye": 9125,
  "\u2581ze": 9126,
  "\u2581Mot": 9127,
  "\u2581importancia": 9128,
  "\u2581d\u00e9cisions": 9129,
  "venit": 9130,
  "Ce": 9131,
  "asse": 9132,
  "\u2581acredita": 9133,
  "\u2581impossible": 9134,
  "\u2581sermones": 9135,
  "\u2581contrat": 9136,
  "\u2581nuclear": 9137,
  "position": 9138,
  "\u2581Hristos": 9139,
  "\u2581Pelo": 9140,
  "tende": 9141,
  "\u2581gr\u00e1ficos": 9142,
  "\u2581instala": 9143,
  "alta": 9144,
  "\u2581llamado": 9145,
  "\u2581r\u00e9gime": 9146,
  "presi\u00f3n": 9147,
  "\u2581plu": 9148,
  "\u2581dispone": 9149,
  "67": 9150,
  "\u2581posibil": 9151,
  "\u2581Ionathan": 9152,
  "\u2581ingl\u00e9s": 9153,
  "\u2581fija": 9154,
  "\u2581talent": 9155,
  "\u2581autant": 9156,
  "\u2581sacrifica": 9157,
  "issement": 9158,
  "\u2581t\u00faa": 9159,
  "\u2581apresentar": 9160,
  "\u2581vuestros": 9161,
  "wal": 9162,
  "\u2581Desaniciar": 9163,
  "\u2581syst\u00e8mes": 9164,
  "\u2581Anexo": 9165,
  "contra": 9166,
  "\u2581modifier": 9167,
  "\u2581nin": 9168,
  "/2006": 9169,
  "\u2581Cos": 9170,
  "fini": 9171,
  "\u2581prevista": 9172,
  "dian": 9173,
  "utilisateur": 9174,
  "\u2581quitar": 9175,
  "\u2581rub": 9176,
  "\u2581f\u00e2": 9177,
  "DA": 9178,
  "\u2581annos": 9179,
  "\u2581reto": 9180,
  "\u2581segon": 9181,
  "\u2581Visualizza": 9182,
  "\u2581Ainda": 9183,
  "\u2581rapaz": 9184,
  "espera": 9185,
  "\u2581Bra": 9186,
  "\u00e2me": 9187,
  "\u2581Posi": 9188,
  "\u2581Note": 9189,
  "\u2581privada": 9190,
  "\u2581Carte": 9191,
  "\u2581semina": 9192,
  "\u2581online": 9193,
  "\u2581lance": 9194,
  "irea": 9195,
  "\u2581Marca": 9196,
  "\u2581annorum": 9197,
  "\u2581varias": 9198,
  "\u2581Verifica": 9199,
  "\u2581intentar": 9200,
  "\u2581aquellos": 9201,
  "\u2581inimici": 9202,
  "\u2581punct": 9203,
  "69": 9204,
  "habilita": 9205,
  "\u2581malgr": 9206,
  "51": 9207,
  "\u2581ti\u00f1a": 9208,
  "\u2581impera": 9209,
  "Ca": 9210,
  "\u2581Baix": 9211,
  "\u2581Forse": 9212,
  "entend": 9213,
  "\u2581Comisiei": 9214,
  "\u2581grasa": 9215,
  "\u2581iustitiam": 9216,
  "\u2581hauria": 9217,
  "pic": 9218,
  "heure": 9219,
  "\u2581suivre": 9220,
  "\u2581bouche": 9221,
  "://": 9222,
  "\u2581Ahab": 9223,
  "lim": 9224,
  "\u2581dur\u00e9e": 9225,
  "\u2581l\u00ednia": 9226,
  "\u2581h\u00f2mber": 9227,
  "missione": 9228,
  "\u2581jur\u00eddica": 9229,
  "\u2581vot": 9230,
  "gir": 9231,
  "zen": 9232,
  "\u00e9tablissement": 9233,
  "\u2581habite": 9234,
  "\u2581colabora": 9235,
[...]
